{
  "vocab": {
    "▁numpy": 12655,
    "▁Could": 6527,
    "than": 27603,
    "pose": 4220,
    "ár": 3054,
    "ℚ": 31528,
    "▁Amerika": 19597,
    "松": 31018,
    "▁onde": 16504,
    "Press": 10923,
    "ould": 483,
    "aturing": 19021,
    "fog": 29013,
    "▁spos": 24253,
    "Во": 27129,
    "iku": 18282,
    "レ": 30420,
    "▁gesch": 8486,
    "▁Ada": 23255,
    "▁till": 3428,
    "▁Dire": 14818,
    "▁region": 5120,
    "asa": 11290,
    "▁Colors": 29183,
    "▁belief": 17750,
    "ért": 15491,
    "ស": 31708,
    "ici": 1654,
    "▁Email": 22608,
    "tok": 17082,
    "ispecies": 21075,
    "oslov": 24022,
    "alg": 9564,
    "erten": 19106,
    "eb": 774,
    "ało": 17034,
    "aterra": 27361,
    "▁constantly": 21003,
    "oment": 2932,
    "totype": 10414,
    "▁deployment": 18209,
    "▁satisfying": 24064,
    "⊙": 30738,
    "▁wing": 21612,
    "代": 30690,
    "story": 24098,
    "▁Milan": 20308,
    "жении": 26362,
    "Jul": 27501,
    "Fin": 12881,
    "▁Movie": 7871,
    "▁escaped": 19824,
    "operator": 6891,
    "bs": 5824,
    "▁'": 525,
    "▁dei": 3771,
    "za": 1362,
    "▁иде": 28866,
    "▁attract": 13978,
    "▁operated": 19623,
    "▁Finally": 9788,
    "▁fic": 22959,
    "face": 2161,
    "Die": 16334,
    "▁displays": 14423,
    "Da": 27838,
    "now": 3707,
    "▁lut": 15481,
    "▁einen": 4596,
    "▁Rud": 10670,
    "▁Stock": 10224,
    "▁technical": 16905,
    "▁magic": 15709,
    "仁": 31337,
    "ċ": 31920,
    "inue": 14150,
    "status": 4882,
    "▁–": 785,
    "▁managed": 8745,
    "▁forever": 22296,
    "▁involved": 9701,
    "▁Sometimes": 18512,
    "▁liegt": 11478,
    "▁contained": 11122,
    "ów": 2165,
    "▁equilibrium": 26440,
    "▁au": 782,
    "sender": 15452,
    "▁Serie": 15014,
    "▁marqu": 26125,
    "▁tät": 18026,
    "▁young": 4123,
    "▁otras": 16255,
    "▁strugg": 10205,
    "▁акаде": 17670,
    "▁intern": 2836,
    "▁Policy": 25219,
    "стову": 25308,
    "agh": 21705,
    "engine": 10599,
    ")!": 20198,
    "cil": 5553,
    "▁Care": 10057,
    "▁architect": 6956,
    "▁вс": 22511,
    "▁inherit": 13125,
    "▁MS": 10888,
    "▁cui": 7385,
    "eten": 6302,
    "=": 29922,
    "▁potential": 7037,
    "нів": 14052,
    "undefined": 15955,
    "▁(/": 20374,
    "▁subscri": 21696,
    "ensed": 21144,
    "springframework": 6688,
    "학": 31822,
    "▁Wars": 9149,
    "<?": 8169,
    "▁Buff": 22274,
    "▁imports": 24802,
    "▁alap": 20742,
    "OC": 20166,
    "ény": 7125,
    "▁које": 28824,
    "ル": 30258,
    "▁activities": 14188,
    "]).": 14664,
    "▁pseud": 19923,
    "▁ј": 12887,
    "▁december": 13034,
    "dfrac": 10779,
    "End": 5044,
    "adal": 27283,
    "▁myth": 22082,
    "ached": 3791,
    "▁Wiener": 27301,
    "▁needs": 4225,
    "控": 31617,
    "egründ": 15881,
    "inson": 26803,
    "щи": 2837,
    "▁coff": 19785,
    "Vor": 14147,
    "ರ": 31861,
    "▁ma": 611,
    "Num": 8009,
    "▁builder": 12856,
    "型": 30883,
    "▁hook": 12422,
    "▁Kennedy": 23166,
    "prüng": 21563,
    "▁divide": 16429,
    "licity": 17024,
    "െ": 30840,
    "▁famille": 11449,
    "▁prize": 26836,
    "▁Knight": 22980,
    "MODE": 20387,
    "▁Хро": 23601,
    "third": 22585,
    "ร": 30297,
    "ikal": 23587,
    "Н": 30029,
    "olds": 3361,
    "▁вы": 2771,
    "OST": 3718,
    "transform": 9067,
    "▁richt": 28636,
    ");`": 12771,
    "▁Mam": 27287,
    "õ": 30084,
    "▁registered": 15443,
    "▁sor": 7319,
    "▁одного": 24356,
    "▁válto": 25415,
    "▁Bahnhof": 28701,
    "adr": 7887,
    "▁interview": 15593,
    "▁ASC": 18188,
    "halt": 10647,
    "Policy": 15644,
    "▁Schl": 21262,
    "kil": 16757,
    "▁prospect": 27289,
    "lles": 26020,
    "▁flesh": 28610,
    "▁ocup": 14049,
    "ben": 1785,
    "上": 30429,
    "/:": 24676,
    "verkehr": 27271,
    "帝": 31456,
    "../../": 21546,
    "▁diction": 21503,
    "SON": 3094,
    "▁anglès": 29409,
    "▁cord": 13793,
    "▁bus": 3593,
    "\\{": 10045,
    "BUG": 11578,
    "▁bek": 7505,
    "▁expand": 7985,
    "▁During": 7133,
    "▁Fle": 13859,
    "END": 11794,
    "Sender": 29615,
    "rifice": 25193,
    "Cam": 14353,
    "by": 1609,
    "_{-": 22631,
    "▁javax": 11317,
    "▁Station": 12039,
    "▁Bootstrap": 25746,
    "▁appropriate": 8210,
    "▁капи": 28850,
    "▁militaire": 20177,
    "▁conjunto": 26949,
    "▁ever": 3926,
    "ROUP": 11419,
    "bid": 23883,
    "hyper": 24947,
    "Default": 4592,
    "串": 31767,
    "▁rm": 20241,
    "▁exposed": 19884,
    "щая": 19485,
    "▁od": 2413,
    "▁desire": 13521,
    "▁revel": 20474,
    "▁Jason": 21776,
    "▁получил": 21250,
    "▁autre": 14857,
    "kę": 26115,
    "esta": 4405,
    "uset": 11616,
    "ֹ": 30947,
    "eden": 6424,
    "▁dece": 23332,
    "▁responses": 20890,
    "Rule": 10740,
    "▁_,": 17117,
    "▁joins": 26205,
    "AML": 23956,
    "清": 30989,
    "пу": 2968,
    "州": 30765,
    "az": 834,
    "irtschaft": 9786,
    "▁stands": 15028,
    "ähl": 15275,
    "▁фо": 17767,
    "▁świata": 29085,
    "irie": 24135,
    "tool": 10154,
    "azon": 10131,
    "▁мат": 12819,
    "▁siempre": 26692,
    "▁House": 5619,
    "est": 342,
    "▁pela": 10571,
    "☉": 31511,
    "▁di": 652,
    "мат": 18992,
    "▁одна": 15295,
    "▁norm": 6056,
    "picker": 13908,
    "▁Ign": 18076,
    "▁intellect": 18715,
    "rating": 29741,
    "▁attempting": 15661,
    "տ": 30817,
    "▁overall": 12463,
    "ception": 1441,
    "QUE": 11144,
    "EC": 11206,
    "្": 31155,
    "▁graf": 22956,
    "▁дву": 14700,
    "▁destru": 26468,
    "au": 585,
    "▁Kob": 28014,
    ")}{\\": 19978,
    "▁Struct": 28771,
    "▁restore": 17749,
    "▁Life": 4634,
    "▁hypothesis": 20051,
    "ologies": 11763,
    "▁FO": 18322,
    "]": 29962,
    "astic": 6288,
    "♥": 30922,
    "▁believe": 4658,
    "▁Pre": 4721,
    "▁Ara": 25953,
    "▁листопада": 28906,
    "zik": 20711,
    "▁slope": 24968,
    "lg": 19920,
    "▁somebody": 18462,
    "theory": 14138,
    "U": 29965,
    "stellen": 27679,
    "perimental": 27910,
    "дин": 6395,
    "лення": 6930,
    "▁quantities": 26855,
    "▁cel": 6432,
    "DB": 4051,
    "ць": 5986,
    "uzione": 14285,
    "iver": 2147,
    "bundle": 16718,
    "▁четы": 24998,
    "SHA": 23498,
    "▁vis": 1998,
    "▁affected": 15201,
    "▁FM": 20499,
    "<0x8E>": 145,
    "picture": 12095,
    "▁vie": 6316,
    "inal": 979,
    "шёл": 21348,
    "▁Mar": 1085,
    "▁писа": 16851,
    "uling": 19478,
    "mission": 6737,
    "▁прода": 26698,
    "▁solid": 7773,
    "▁Senate": 18148,
    "(_": 7373,
    "лен": 2510,
    "▁evaluation": 17983,
    "▁whites": 18960,
    "HashMap": 27824,
    "യ": 30674,
    "${": 5303,
    "ois": 11505,
    "▁appropri": 7128,
    "nem": 15344,
    "UT": 2692,
    "”.": 8643,
    "▁notation": 12640,
    "▁Draw": 18492,
    "▁explicit": 6261,
    "▁запад": 28055,
    "FirstName": 29541,
    "ference": 1659,
    "Ac": 10644,
    "▁Fort": 7236,
    "Short": 21322,
    "▁furono": 17380,
    "deck": 16565,
    "▁frequency": 10868,
    "▁Exchange": 24004,
    "▁quer": 22320,
    "▁bugs": 24557,
    "更": 31100,
    "INCT": 28852,
    "}}": 930,
    "▁filosof": 22188,
    "ians": 5834,
    "ViewModel": 15166,
    "▁він": 15318,
    "ór": 4916,
    "▁Ig": 12815,
    "▁hos": 25506,
    "sg": 5311,
    "▁Term": 11814,
    "aro": 8854,
    "▁bata": 20133,
    "▁households": 26850,
    "<0xCD>": 208,
    "ferred": 14373,
    "▁Од": 29770,
    "<0xB5>": 184,
    "▁Jenkins": 23750,
    "сов": 7044,
    "▁Till": 27956,
    "rapper": 6794,
    "▁reduce": 10032,
    "Bo": 8431,
    "inner": 3993,
    "gens": 17397,
    "▁feel": 4459,
    "▁gu": 1410,
    "ступа": 12308,
    "ån": 5109,
    "▁flor": 23729,
    "▁foundation": 22778,
    "webdriver": 29813,
    "▁kall": 19364,
    "\")]": 13531,
    "____": 7652,
    "▁users": 4160,
    "լ": 31235,
    "▁monarch": 25552,
    "erson": 1330,
    "李": 30864,
    "▁Publications": 22865,
    "▁body": 3573,
    "ength": 1477,
    "▁confusing": 16051,
    "▁Santos": 24813,
    "▁людях": 19523,
    "▁song": 4823,
    "agle": 20860,
    "▁anim": 3778,
    "Custom": 7281,
    "nab": 7183,
    "▁stern": 27784,
    "▁Dak": 22679,
    "▁Ви": 4491,
    "curity": 4672,
    "enses": 11259,
    "мо": 1630,
    "python": 4691,
    "▁enough": 3307,
    "▁disappeared": 24273,
    "▁Arr": 25681,
    "adding": 4676,
    "▁Три": 28928,
    "etzt": 7401,
    "▁hid": 20552,
    "▁items": 4452,
    "▁dates": 10116,
    "zna": 16207,
    "▁Nations": 18269,
    "ступ": 8412,
    "″": 30160,
    "▁happening": 10464,
    "▁aggreg": 11404,
    "▁Menu": 20019,
    "rid": 2429,
    "зя": 10027,
    "▁bent": 26148,
    "▁Pac": 9790,
    "Nil": 27823,
    "eria": 8749,
    "▁McC": 15612,
    "▁nad": 8642,
    "анд": 8070,
    "paper": 19773,
    ";;": 7859,
    "ath": 493,
    "▁Einwohner": 17940,
    "▁tom": 6454,
    "▁Military": 20080,
    "jsfiddle": 7822,
    "▁abgerufen": 5157,
    "ый": 11767,
    "ich": 436,
    "く": 30568,
    "▁Ernest": 23993,
    "▁Austin": 24518,
    "▁frü": 16974,
    "стер": 10260,
    "▁то": 2721,
    "▁Mer": 4702,
    "▁уров": 23155,
    "▁було": 11792,
    "▁lake": 19437,
    "ников": 10308,
    "ienen": 12980,
    "Description": 9868,
    "▁Right": 10428,
    "▁External": 3985,
    "▁ancien": 26128,
    "▁Manuel": 13815,
    "▁ignored": 17262,
    "ゴ": 30987,
    "iembre": 5433,
    "▁á": 3976,
    "▁repositories": 28914,
    "▁scar": 21990,
    "▁dit": 6309,
    "▁stays": 27111,
    "рос": 10374,
    "GG": 26788,
    "▁Ku": 18185,
    "idan": 29219,
    "CN": 13778,
    "nodes": 18010,
    "▁referenced": 16180,
    "▁Bür": 15455,
    "0": 29900,
    "frame": 2557,
    "Les": 24560,
    "Property": 4854,
    "varchar": 22408,
    "▁wheel": 18875,
    "▁Author": 13361,
    "▁Bot": 11273,
    "▁Nancy": 24190,
    "Miss": 18552,
    "▁Nach": 3975,
    "Mvc": 27602,
    "▁alle": 4788,
    "AG": 10051,
    "im": 326,
    "序": 31463,
    "хівовано": 11766,
    "▁MR": 29751,
    "▁typeof": 20086,
    "▁fid": 25947,
    "▁investig": 7405,
    "▁dist": 1320,
    "▁iter": 4256,
    "▁helpful": 8444,
    "▁opening": 8718,
    "aran": 23029,
    "rack": 22282,
    "ℂ": 31673,
    "age": 482,
    "final": 8394,
    "▁Santa": 7510,
    "▁Nicol": 13488,
    "▁\"[": 14704,
    "개": 31789,
    "ни": 507,
    "{\\": 741,
    "út": 14384,
    "arn": 2753,
    "▁pelos": 29678,
    "warning": 27392,
    "état": 28323,
    "▁пове": 26757,
    "gebiet": 13063,
    "▁multi": 2473,
    "▁liv": 7294,
    ">,": 10202,
    "щий": 23113,
    "▁professor": 12251,
    "yth": 1541,
    "▁canonical": 24420,
    "▁Whe": 26286,
    "stronom": 13854,
    "▁mely": 22202,
    "рей": 10786,
    "▁тран": 16663,
    "▁YouTube": 14711,
    "Position": 8003,
    "▁debug": 4744,
    "▁vu": 18679,
    "▁esta": 7444,
    "▁timing": 28750,
    "ollow": 2952,
    "▁bezeichnet": 11138,
    "iszt": 26409,
    "ხ": 31130,
    "Max": 7976,
    "▁proofs": 29828,
    "<0x16>": 25,
    "▁revealed": 17845,
    "ží": 16792,
    "▁официаль": 27318,
    "▁referencing": 29371,
    "▁companies": 14582,
    "▁Wolf": 10441,
    "uden": 27336,
    "▁B": 350,
    "街": 30813,
    "в": 29942,
    "inta": 15073,
    "prepare": 19125,
    "userId": 29721,
    "tri": 3626,
    "PORT": 15082,
    "▁balance": 17346,
    "Ю": 30101,
    "▁assuming": 10241,
    "worker": 24602,
    "▁établ": 29550,
    "CD": 6530,
    "ourd": 14069,
    "host": 3069,
    "tutorial": 12631,
    "▁unsafe": 25110,
    "▁~": 3695,
    "▁incred": 29811,
    "icul": 12906,
    "cs": 2395,
    "idad": 2368,
    "ше": 2237,
    "▁gravit": 26618,
    "leitung": 15627,
    "▁oltre": 21774,
    "▁Ass": 4007,
    "▁воен": 13316,
    "età": 12582,
    "▁départ": 10402,
    "▁propri": 10850,
    "ods": 19653,
    "ят": 10691,
    "▁Ferr": 16541,
    "▁misma": 22575,
    "New": 4373,
    "spl": 23579,
    "▁Jon": 9937,
    "<0x64>": 103,
    "endpoint": 29734,
    "▁username": 8952,
    "▁куль": 12960,
    "/~": 24629,
    "hr": 1092,
    ":": 29901,
    "mn": 23521,
    "▁Wür": 21241,
    "▁Ener": 15163,
    "▁expla": 3641,
    "▁spiel": 14024,
    "ateful": 22279,
    "comp": 2388,
    "▁blue": 7254,
    "▁Royal": 7021,
    "mathscr": 13002,
    "▁Commun": 20473,
    "polit": 20087,
    "▁short": 3273,
    "!.": 21520,
    "▁développ": 16797,
    "要": 30698,
    "stat": 6112,
    "▁Ге": 8215,
    "▁föl": 28086,
    "f": 29888,
    "▁possib": 6458,
    "̌": 31909,
    "▁Werner": 22597,
    "▁Pick": 23868,
    "▁desert": 18197,
    "▁daß": 14106,
    "component": 9700,
    "цю": 15692,
    "apsed": 28170,
    "compos": 22410,
    "imas": 25268,
    "▁Cal": 3037,
    "ых": 9240,
    "▁har": 4023,
    "▁Smith": 7075,
    "▁didnt": 28950,
    "▁mich": 21488,
    "ску": 6903,
    "▁Tower": 23615,
    "pid": 5935,
    "groups": 13155,
    "BC": 5371,
    "abad": 20143,
    "odo": 8144,
    "▁Valle": 25324,
    "▁provided": 4944,
    "▁eventually": 10201,
    "▁vuel": 22126,
    "阿": 31227,
    "áció": 15936,
    "模": 31382,
    "▁teach": 6860,
    "▁faces": 17240,
    "▁Mond": 12125,
    "▁VARCHAR": 21748,
    "▁Cic": 24945,
    "▁Север": 23070,
    "▁cour": 2085,
    "▁Jord": 13783,
    "assets": 16596,
    "▁система": 29184,
    "▁Wright": 22927,
    "⟨": 30266,
    "▁recognize": 18720,
    "▁рас": 7421,
    "▁Gilbert": 23657,
    "Alert": 16649,
    "▁назна": 21680,
    "▁Hier": 12433,
    "mathbb": 1995,
    "▁alto": 20478,
    "Utils": 12177,
    "empl": 16305,
    "Post": 6747,
    "ruction": 4080,
    "▁Her": 2439,
    "worth": 12554,
    "▁downloaded": 16532,
    "▁Pse": 17646,
    "▁ő": 22294,
    "▁WorldCat": 13293,
    "essions": 10964,
    "▁esto": 18261,
    "▁environments": 23136,
    "iftung": 26868,
    "obs": 26290,
    "}\\,\\": 27559,
    "▁osc": 15199,
    "▁rey": 24883,
    "▁pause": 19957,
    "▁kö": 4929,
    "▁#(": 27355,
    "analysis": 15916,
    "何": 31502,
    "▁población": 13172,
    "▁might": 1795,
    "Supp": 20182,
    "acyj": 21469,
    "▁stessa": 29200,
    "lossen": 18908,
    "Stream": 3835,
    "▁derivatives": 25748,
    "jin": 28789,
    "atan": 23402,
    "aaaa": 27137,
    "ICATION": 28541,
    "ș": 30065,
    "mx": 16838,
    "▁février": 10295,
    "▁Millionen": 26158,
    "ViewController": 6917,
    "varphi": 6827,
    "values": 5975,
    "安": 30670,
    "▁Sol": 4956,
    "έ": 31059,
    "▁Saison": 11873,
    "▁française": 11076,
    "▁soc": 17874,
    "▁Mall": 23809,
    "；": 31608,
    "унк": 13937,
    "▁blob": 23755,
    "▁Catholic": 11865,
    "Power": 21472,
    "bud": 15841,
    "▁crist": 15919,
    "ighter": 14643,
    "▁гг": 23317,
    "▁deal": 5376,
    "kań": 16022,
    "▁estud": 13497,
    "▁різ": 24908,
    "lapse": 13938,
    "▁sq": 18074,
    "る": 30332,
    "▁Per": 2431,
    "方": 30525,
    "▁bio": 17799,
    "bind": 5355,
    "▁pulling": 28420,
    "▁Touch": 28675,
    "emente": 9936,
    "ilar": 2327,
    "‚": 30229,
    "▁academic": 21567,
    "Μ": 30362,
    "PASS": 25711,
    "▁gradu": 10591,
    "▁Issue": 26246,
    "▁публи": 26147,
    "手": 30880,
    "▁varied": 23821,
    "<!--": 14136,
    "▁Nueva": 18151,
    "▁hitting": 29425,
    "▁города": 13867,
    "cation": 9252,
    "▁Complete": 25034,
    "ionali": 21868,
    "Updated": 29248,
    "ieved": 6402,
    "multirow": 28570,
    "▁Franc": 28382,
    "made": 26350,
    "▁docker": 10346,
    "mathsf": 9605,
    "<0x6B>": 110,
    "▁export": 5609,
    "afé": 28059,
    "uring": 3864,
    "ствие": 25025,
    "▁clés": 25766,
    "тон": 13983,
    "▁politician": 14099,
    "▁Capital": 25343,
    "▁Росси": 7676,
    "无": 31352,
    "▁befindet": 16960,
    "[{": 19660,
    "▁accounts": 15303,
    "▁CSS": 6783,
    "Like": 27552,
    "▁fotograf": 26185,
    "▁Andrea": 21730,
    "egov": 27652,
    "经": 31412,
    "▁layer": 7546,
    "üge": 28978,
    "ourt": 14316,
    "▁capt": 4332,
    "uras": 10939,
    "▁INTO": 11646,
    "msdn": 8319,
    "members": 28109,
    "▁\"+": 15691,
    "▁+=": 4619,
    "ustration": 11036,
    "▁vision": 18551,
    "нен": 9931,
    "▁административ": 23409,
    "▁Кон": 10698,
    "▁debut": 9512,
    "▁служ": 17746,
    "(\"/": 11974,
    "▁AD": 11033,
    "Using": 15156,
    "▁contrast": 12814,
    "院": 30963,
    "▁intention": 16392,
    "system": 5205,
    "ет": 1257,
    "▁equivalent": 7126,
    "▁demsel": 19539,
    "▁noble": 15996,
    "▁Mike": 12828,
    "▁Ever": 18274,
    "ency": 3819,
    "iley": 15168,
    "▁changes": 3620,
    "ệ": 30529,
    "▁Civil": 12886,
    "▁Wieder": 25878,
    "▁Zwe": 9647,
    "ishi": 29603,
    "wx": 23310,
    "▁nicht": 3072,
    "west": 5933,
    "▁web": 1856,
    "hostname": 28988,
    "▁masses": 23063,
    "▁Ind": 1894,
    "▁Zent": 16607,
    "▁година": 17145,
    "letter": 15670,
    "Chr": 11626,
    "▁Гу": 15180,
    "реди": 9951,
    "▁Eliz": 12457,
    "▁ende": 19981,
    "pont": 29649,
    "気": 31648,
    "lade": 23373,
    "▁ال": 24508,
    "▁pilot": 19840,
    "▁av": 1029,
    "ahu": 29017,
    "▁Ph": 1963,
    "inv": 11569,
    "▁Cit": 21353,
    "▁inj": 10899,
    "rsg": 8884,
    "State": 2792,
    "<0xC0>": 195,
    "eros": 9672,
    "▁Extern": 8930,
    "ø": 30077,
    "▁kil": 4679,
    "▁nagy": 18338,
    "▁natur": 4033,
    "person": 10532,
    "▁Lie": 7326,
    "▁час": 12978,
    "▁Dav": 3589,
    "▁ERR": 22307,
    "uga": 26281,
    "laps": 14128,
    "▁lock": 7714,
    "!!": 6824,
    "▁schedule": 20410,
    "folio": 25648,
    "▁Meg": 13727,
    "▁constraints": 11938,
    "icus": 12473,
    "▁Princi": 14771,
    "▁Santi": 15908,
    "cluding": 22368,
    "BIT": 22698,
    "Did": 9260,
    "dropdown": 19305,
    "пли": 19847,
    "ature": 1535,
    "[[": 8999,
    "▁fict": 26797,
    "▁Complex": 26596,
    "▁various": 5164,
    "zerw": 15900,
    "▁Brasile": 28220,
    "App": 2052,
    "▁adds": 12778,
    "▁ż": 13918,
    "∈": 30264,
    "Async": 8123,
    "Ke": 9598,
    "cre": 1037,
    "▁Technology": 17968,
    "onneur": 25905,
    "ガ": 30671,
    "▁Branch": 25889,
    "▁ps": 6529,
    "▁Wind": 17311,
    "ům": 23108,
    "▁É": 3067,
    "▁conf": 1970,
    "▁Several": 21882,
    "trightarrow": 28751,
    "▁maven": 18304,
    "▁vil": 11928,
    "▁iterate": 13649,
    "▁últ": 9501,
    "▁way": 982,
    "ube": 4003,
    "wood": 6115,
    "▁Ни": 7059,
    "js": 1315,
    "▁onclick": 15630,
    "▁Medical": 20795,
    "▁Xcode": 19050,
    "▁ambos": 27727,
    "こ": 30589,
    "circle": 16622,
    "▁политиче": 25061,
    "ана": 14611,
    "▁recon": 8265,
    "▁surg": 25300,
    "▁Gott": 13351,
    "<0x39>": 60,
    "ท": 30595,
    "▁operating": 13598,
    "Ű": 31311,
    "▁arguments": 6273,
    "▁avaient": 23997,
    "¸": 30836,
    "▁зав": 19404,
    "▁Shang": 27468,
    "차": 31817,
    "▁paste": 11417,
    "▁WH": 12317,
    "how": 3525,
    "▁участ": 19234,
    "도": 31136,
    "▁zus": 23667,
    "▁Pet": 5879,
    "▁variables": 3651,
    "▁conj": 9589,
    "▁Get": 3617,
    "▁häufig": 27050,
    "▁determine": 8161,
    "\")`": 20933,
    "ة": 30242,
    "eny": 15274,
    "▁Kr": 7365,
    "^-": 21583,
    "him": 26994,
    "Equals": 14776,
    "▁extremely": 14154,
    "▁RET": 28081,
    "▁Player": 14574,
    "▁кни": 13024,
    "▁Seb": 13280,
    "▁celebrated": 26301,
    "▁libre": 13220,
    "▁`@": 11159,
    "♭": 30771,
    "▁yields": 17498,
    "tober": 6264,
    "▁stay": 7952,
    "▁október": 23882,
    "irus": 22693,
    "▁places": 7600,
    "▁Louisiana": 28838,
    "▁dtype": 26688,
    "▁Hoch": 10955,
    "▁review": 9076,
    "agas": 26712,
    "▁youth": 12397,
    "▁toute": 12563,
    "▁minimal": 13114,
    "▁Advent": 21255,
    "щение": 24849,
    "▁bar": 2594,
    "▁golf": 29416,
    "readsheet": 27844,
    "▁hommes": 17137,
    "╬": 30935,
    "▁Girl": 18620,
    "agers": 18150,
    "джа": 22115,
    ",'": 5501,
    "▁#>": 20454,
    "▁ph": 1374,
    "nym": 9574,
    "online": 14627,
    "▁Cell": 19413,
    "avam": 25599,
    "ního": 15346,
    "idae": 3898,
    "ptic": 23000,
    "dan": 18386,
    "▁aer": 14911,
    "tek": 12681,
    "ід": 1978,
    "▁main": 1667,
    "uez": 24448,
    "▁amp": 21332,
    "classes": 13203,
    "▁Lov": 23974,
    "▁received": 4520,
    "мы": 5588,
    "▁Н": 1392,
    "カ": 30439,
    "▁pleased": 22301,
    "▁annotation": 17195,
    "▁issued": 16610,
    "▁Morgan": 20549,
    "гля": 18235,
    "▁plants": 18577,
    "▁whitespace": 24358,
    "фа": 8685,
    "▁§": 16683,
    "▁Food": 25453,
    "Len": 21515,
    "▁street": 11952,
    "▁Dave": 17841,
    "bě": 27950,
    "▁с": 531,
    "▁instead": 2012,
    "▁Instituto": 20314,
    "▁exp": 1518,
    "]$,": 25473,
    "▁ged": 15652,
    "▁UITableView": 20197,
    "ший": 11941,
    "▁februari": 23259,
    "enberg": 21845,
    "▁title": 3611,
    "{$": 8290,
    "centering": 9525,
    "▁huge": 12176,
    "▁treated": 14914,
    "▁zem": 20534,
    "▁Hong": 12798,
    "▁analysis": 7418,
    "時": 30974,
    "▁Mr": 3237,
    "▁Montreal": 26693,
    "Fetch": 20927,
    "~~~~~~~~": 26594,
    ":#": 21968,
    "▁ucz": 25631,
    "con": 535,
    "artifact": 8813,
    "▁TCP": 19374,
    "▁soll": 10297,
    "品": 31399,
    "esz": 16137,
    "enas": 23509,
    "usqu": 8555,
    "▁konst": 26710,
    "▁\"<": 9872,
    "▁zip": 14319,
    "▁compared": 9401,
    "шей": 14337,
    "▁provider": 13113,
    "▁German": 5332,
    "▁Tok": 11890,
    "▁Rein": 18334,
    "여": 31457,
    "義": 31131,
    "⸮": 31477,
    "▁Silva": 25371,
    "}%": 10560,
    "UES": 12996,
    "▁intellectual": 29762,
    "▁arose": 28811,
    "▁capital": 7483,
    "ვ": 30678,
    "▁lord": 18120,
    "enger": 15109,
    "▁fais": 16623,
    "▁République": 21919,
    "▁déput": 26799,
    "▁spirit": 8548,
    "▁Cr": 6781,
    "▁sheets": 26718,
    "▁ar": 564,
    "▁rust": 21580,
    "зом": 15438,
    "icher": 12805,
    "abi": 19266,
    "▁Мексику": 20180,
    "▁cre": 907,
    "ion": 291,
    "▁Zür": 22139,
    "WID": 19292,
    "ribution": 3224,
    "▁però": 12110,
    "▁earliest": 24577,
    "▁person": 2022,
    "▁comenz": 19487,
    "▁реда": 16537,
    "▁voce": 25888,
    "forge": 20324,
    "▁július": 27646,
    "▁Gemeinsame": 27853,
    "collection": 10855,
    "▁buff": 20487,
    "fold": 8771,
    "oreferrer": 3798,
    "inction": 16807,
    "▁ét": 2852,
    "▁gehör": 10429,
    "<0x2E>": 49,
    "perm": 17858,
    "▁Kü": 19276,
    "▁safely": 23511,
    "▁mag": 2320,
    "▁purchase": 20590,
    "ὸ": 30734,
    "ɡ": 30511,
    "mutable": 23975,
    "socket": 11514,
    "▁wasn": 9007,
    "uchar": 24059,
    "▁beskrevs": 7718,
    "▁variety": 12875,
    "从": 31594,
    "▁STR": 29486,
    "▁Computer": 20972,
    "▁Hö": 11623,
    "算": 31565,
    "▁Retrie": 19338,
    "▁relacion": 19727,
    "jpg": 6173,
    "▁stato": 7550,
    "▁drive": 7899,
    "▁obviously": 12879,
    "arie": 19380,
    "▁Rot": 9664,
    "▁Le": 951,
    "ție": 12989,
    "▁succeeded": 14792,
    "title": 3257,
    "ții": 15042,
    "Fields": 14256,
    "電": 31385,
    "ąż": 19151,
    "█": 30208,
    "▁abril": 8047,
    "▁Пар": 22718,
    "тер": 5460,
    "old": 1025,
    "▁которого": 23913,
    "▁zero": 5225,
    "▁rem": 1083,
    "▁cow": 21282,
    "ikus": 17342,
    "▁Api": 29749,
    "ush": 1878,
    "▁Parti": 29661,
    "<0xC9>": 204,
    "Light": 20769,
    "▁ups": 24081,
    "Mil": 29316,
    "cdnjs": 29062,
    "▁intended": 9146,
    "obre": 7630,
    "▁Switzerland": 28806,
    "▁altri": 7987,
    "▁Conc": 23924,
    ".'": 6169,
    "▁contribute": 29126,
    "Story": 29359,
    "cope": 4338,
    "▁Italia": 12201,
    "лин": 8279,
    "skim": 9142,
    "slant": 17139,
    "aches": 14520,
    "Days": 25991,
    "▁кораб": 27009,
    "berts": 23418,
    "▁erneut": 27818,
    "▁Joh": 1861,
    "▁ни": 7380,
    "iz": 466,
    "c": 29883,
    "чки": 11245,
    "isses": 29284,
    "▁Alexander": 9428,
    "ulated": 7964,
    "▁develop": 2693,
    "▁Self": 21782,
    "▁nak": 23349,
    "ün": 3346,
    "▁Льв": 26298,
    "bit": 2966,
    "▁Null": 19014,
    "ray": 764,
    "+\"": 13578,
    "▁Peters": 15990,
    "▁planned": 20458,
    "ante": 1647,
    "ǧ": 31518,
    "▁ela": 25192,
    "▁Petersburg": 29675,
    "配": 31361,
    "▁phr": 12216,
    "▁Bischof": 22710,
    "pril": 3193,
    "▁Fun": 13811,
    "▁Clark": 17129,
    "cook": 15108,
    "resse": 23458,
    "SError": 29173,
    "odb": 10396,
    "enburg": 22284,
    "▁proceed": 8469,
    "▁proc": 9580,
    "げ": 31991,
    "▁pesar": 28977,
    "red": 1127,
    "▁examples": 6455,
    "▁ao": 5017,
    "oll": 3028,
    "........": 11296,
    "▁convergence": 17221,
    "ists": 2879,
    "▁dział": 18728,
    "▁admit": 20000,
    "Bound": 17109,
    "cop": 9708,
    "ppa": 13410,
    "yó": 24714,
    "ром": 4416,
    "▁liked": 23289,
    "vec": 2003,
    "ями": 26344,
    "▁reactjs": 20358,
    "Develop": 21956,
    "▁inference": 27262,
    "▁so": 577,
    "▁www": 7821,
    "▁rag": 17052,
    "▁listop": 18262,
    "▁says": 4083,
    "▁poss": 3119,
    "▁Kör": 23722,
    "▁nod": 18778,
    "▁msg": 10191,
    "⁠": 30365,
    "▁Natural": 18385,
    "каде": 12832,
    "▁realize": 16289,
    "▁Architecture": 28333,
    "▁декабря": 15977,
    "хід": 10226,
    "лекс": 7772,
    "кими": 21456,
    "Pattern": 17144,
    "▁historian": 27629,
    "epsilon": 5463,
    "łu": 11641,
    "▁jamais": 18413,
    "═": 30114,
    "▁declar": 7669,
    "▁query": 2346,
    "▁chem": 8950,
    "ajn": 21552,
    "▁constants": 17727,
    "śc": 29259,
    "石": 30814,
    "▁rot": 5731,
    "->": 976,
    "tot": 4260,
    "▁forces": 8249,
    "abhäng": 28775,
    "igner": 21216,
    "▁skip": 14383,
    "message": 4906,
    "メ": 30604,
    "ORDER": 22364,
    "▁travaux": 25902,
    "▁перио": 27216,
    "▁singer": 15640,
    "▁pygame": 22028,
    "json": 3126,
    "打": 31656,
    "aneous": 23584,
    "▁inte": 2293,
    "ynast": 15290,
    "▁resto": 25814,
    "ython": 1656,
    "友": 31373,
    "▁propre": 26138,
    "▁backing": 27436,
    "▁coupling": 23638,
    "ɣ": 31165,
    "▁we": 591,
    "illi": 12840,
    "ment": 358,
    "test": 1688,
    "\\'": 20333,
    "itos": 12870,
    "▁molti": 28248,
    "▁Vladimir": 27880,
    "days": 16700,
    "gleich": 19867,
    "▁LCCN": 13056,
    "abl": 12478,
    "INT": 10192,
    "ied": 1000,
    "▁Fo": 28532,
    "▁pres": 2225,
    "▁Mine": 26833,
    "нами": 15369,
    "▁Math": 5792,
    "library": 5258,
    "Ś": 30127,
    "▁nörd": 23810,
    "▁tight": 19932,
    "orgen": 18996,
    ">{": 26208,
    "s": 29879,
    "irse": 24102,
    "ктора": 22563,
    "▁specifying": 22146,
    "роди": 13508,
    "▁▁▁▁▁▁": 539,
    "▁kot": 21062,
    "success": 8698,
    "▁punto": 15978,
    "Dig": 14991,
    "▁rising": 20493,
    "ood": 2092,
    "▁Nä": 28615,
    "ión": 3175,
    "ichts": 17815,
    "SIZE": 14226,
    "▁Would": 10878,
    "▁•": 10266,
    "▁ratio": 11959,
    "▁wereld": 28022,
    "serve": 16349,
    "▁partic": 1936,
    "q": 29939,
    "▁Vo": 4785,
    "▁compon": 2964,
    "▁above": 2038,
    "▁ll": 11148,
    "▁ep": 9358,
    "▁modifying": 23815,
    "base": 3188,
    "▁lance": 28905,
    "▁Philip": 14920,
    "ки": 717,
    "▁août": 10158,
    "pat": 5031,
    "anced": 8362,
    "▁yourself": 7535,
    "aze": 28334,
    "GB": 7210,
    "▁colle": 23056,
    "▁besonders": 28441,
    "▁CHAR": 26871,
    "Anal": 21067,
    "▁flux": 19389,
    "내": 31940,
    "▁utiliz": 11824,
    "▁($\\": 20430,
    "FIG": 18667,
    "▁oro": 28979,
    "iba": 16912,
    "▁NSString": 15925,
    "iev": 10384,
    "▁lots": 14568,
    "inte": 6693,
    "▁побе": 15393,
    "jamin": 18323,
    "▁affection": 22832,
    "▁Sports": 12453,
    "icans": 16708,
    "▁Plant": 18058,
    "apper": 23239,
    "▁мест": 17562,
    "чня": 21532,
    "▁TR": 10014,
    "iw": 9429,
    "ственный": 18040,
    "resolve": 17863,
    "▁Rose": 14008,
    "▁vocals": 17985,
    "ades": 3076,
    "HERE": 5006,
    "ruby": 9754,
    "’": 30010,
    "▁Terr": 23707,
    "▁losses": 28495,
    "ensk": 8185,
    "▁sake": 16563,
    "活": 31704,
    "▁Нью": 27771,
    "illing": 8873,
    "▁generate": 5706,
    "▁живо": 17224,
    "▁declared": 8052,
    "▁Yes": 3869,
    "ms": 1516,
    "ply": 17632,
    "▁березня": 21284,
    "');": 2157,
    "▁filtered": 22289,
    "▁cursor": 10677,
    "ili": 2638,
    "陽": 31291,
    "ouvel": 9095,
    "▁remarkable": 22567,
    "▁Puerto": 21810,
    "▁május": 26457,
    "sv": 4501,
    "▁Af": 10393,
    "URL": 4219,
    "▁lum": 19703,
    "ر": 30156,
    "▁puesto": 28188,
    "ßer": 14465,
    "ître": 13639,
    "▁esc": 3966,
    "Employee": 19461,
    "PO": 13152,
    "▁dal": 2959,
    "лиза": 19129,
    "▁titre": 13275,
    "ism": 1608,
    "▁Mason": 28095,
    "ariat": 29294,
    "▁publishing": 27256,
    "▁Quando": 26425,
    "▁pau": 24571,
    "▁partie": 8691,
    "ultan": 19992,
    "▁Una": 12127,
    "▁Ath": 9193,
    "主": 30888,
    "▁prov": 1326,
    "environ": 21813,
    "▁Dean": 23263,
    "▁Pak": 14371,
    "▁Sum": 6991,
    "iano": 3328,
    "vl": 20901,
    "apple": 11548,
    "▁Menschen": 14922,
    "ce": 346,
    "Internet": 26341,
    "▁nuc": 11205,
    "▁Integer": 8102,
    "Rect": 7364,
    "▁stories": 15874,
    "bitr": 8844,
    "▁competed": 22071,
    "dark": 26031,
    "▁première": 8861,
    "ख": 31667,
    "rons": 12628,
    "igent": 25692,
    "▁Lan": 18273,
    "▁télévis": 27607,
    "Inter": 4074,
    "Temp": 15637,
    "ulu": 21528,
    "ochastic": 28225,
    "▁sug": 29746,
    "▁zeigt": 29836,
    "élé": 9509,
    "▁Werk": 15492,
    "Subject": 20622,
    "érez": 25138,
    "▁punk": 21356,
    "ene": 1600,
    "ppo": 9759,
    "▁under": 1090,
    "Alex": 17406,
    "▁permitted": 21905,
    "тки": 13921,
    "▁caval": 16873,
    "▁nj": 20199,
    "<0xA1>": 164,
    ",’": 18887,
    ")))": 4961,
    "败": 31955,
    "子": 30319,
    "▁utwor": 28085,
    "▁achieve": 6176,
    "ivari": 27432,
    "▁Stage": 24906,
    "▁expensive": 19390,
    "▁спе": 10707,
    "Generic": 15809,
    ">\\<^": 26498,
    "▁Roger": 14159,
    "▁physics": 17558,
    "distribution": 27691,
    "▁Any": 3139,
    "▁футбо": 12656,
    "▁materials": 17279,
    "US": 3308,
    "▁Кри": 18645,
    "scop": 21785,
    "▁custom": 2888,
    "gie": 12053,
    "▁téc": 22658,
    "ząt": 24822,
    "▁Parent": 22280,
    "ellschaft": 10806,
    "▁ple": 5644,
    "▁copies": 14591,
    "▁paid": 12530,
    "over": 957,
    "History": 20570,
    "▁animated": 17524,
    "▁sym": 5016,
    "▁University": 3014,
    "ос": 3264,
    "▁дости": 23118,
    "body": 2587,
    "museum": 25360,
    "expl": 24516,
    "aces": 3302,
    "▁Camb": 9287,
    "▁grand": 4595,
    "▁codes": 11561,
    "▁laquelle": 22025,
    "CESS": 23524,
    "▁safety": 15332,
    "田": 30395,
    "czy": 6902,
    "▁measurements": 20398,
    "▁stad": 10728,
    "ϊ": 31832,
    "▁dirty": 26616,
    "Receiver": 22068,
    "▁från": 9141,
    "▁differ": 1163,
    "ภ": 31070,
    "▁wal": 17042,
    "▁em": 953,
    "▁Mot": 7142,
    "▁Looks": 19887,
    "cita": 28805,
    "elen": 4498,
    "▁cu": 2723,
    "▁Anth": 10926,
    "ensemble": 24031,
    "ovan": 10471,
    "┃": 31588,
    "ktion": 7066,
    "▁Run": 7525,
    "Old": 21648,
    "isset": 16290,
    "▁underlying": 14407,
    "▁demselben": 19552,
    "▁Świ": 29283,
    "лия": 9844,
    "や": 31111,
    "▁он": 6524,
    "▁becom": 5726,
    "▁yield": 7709,
    "▁https": 2045,
    "▁building": 5214,
    "дар": 5567,
    "férences": 8191,
    "▁XIV": 17071,
    "▁__": 4770,
    "▁separator": 28128,
    "▁forg": 18879,
    "▁народ": 14528,
    "▁satisfied": 15787,
    "année": 18704,
    "▁background": 3239,
    "ront": 24416,
    "\",\r": 15231,
    "rès": 11789,
    "▁whenever": 10940,
    "▁Close": 23186,
    "gra": 3874,
    "▁exem": 11875,
    "Saint": 22211,
    "Ang": 9928,
    "istoire": 6844,
    "hw": 26828,
    "▁fell": 8379,
    "▁Wolfgang": 19314,
    "▁Jane": 10447,
    "asis": 25101,
    "전": 31170,
    "esters": 28910,
    "EQ": 28879,
    "▁passage": 13382,
    "▁palab": 27555,
    "▁Wales": 13706,
    "ону": 22129,
    "ala": 2883,
    "▁idx": 22645,
    "▁обще": 11471,
    "oben": 29217,
    "▁Federal": 14879,
    "▁deck": 19810,
    "▁$('#": 7552,
    "▁má": 10269,
    "▁him": 1075,
    "▁books": 8277,
    "mas": 8247,
    "▁rende": 19643,
    "▁history": 4955,
    "urity": 7710,
    "ille": 1924,
    "▁SO": 7791,
    "∪": 30862,
    "jes": 10246,
    "▁radical": 24818,
    "▁NUM": 28019,
    "▁elementos": 29290,
    "вобо": 24950,
    "Ori": 15988,
    "zej": 11349,
    "itution": 5008,
    "Л": 30050,
    "▁Account": 16535,
    "relation": 23445,
    "▁conjug": 25482,
    "▁fille": 18003,
    "ware": 2519,
    "▁separately": 16949,
    "し": 30326,
    "▁Caval": 28398,
    "▁Prop": 18264,
    "structure": 23905,
    "▁viewed": 24774,
    "eless": 6393,
    "idel": 10652,
    "▁pedig": 25922,
    "oltre": 20184,
    "▁neither": 9561,
    "ranch": 4014,
    "▁att": 1098,
    "Mode": 6818,
    "})$,": 27394,
    "гне": 21740,
    "fahr": 18693,
    "Dim": 16142,
    "▁Gesellschaft": 18626,
    "registr": 29238,
    "×": 30122,
    "svg": 15120,
    "▁dataset": 8783,
    "▁Maxim": 22128,
    "▁Kingdom": 12626,
    "Ρ": 30896,
    "book": 2909,
    "циали": 21632,
    "iał": 5979,
    "▁кото": 6999,
    "▁Missouri": 19171,
    "▁down": 1623,
    "▁Head": 12252,
    "Ÿ": 31872,
    "nect": 4793,
    "%;\r": 16737,
    "▁slaves": 25569,
    "iven": 5428,
    "▁expon": 18709,
    "beit": 6205,
    "▁Army": 8811,
    "▁NAS": 16938,
    "sw": 2774,
    "here": 4150,
    "group": 2972,
    "▁Gé": 15309,
    "aus": 1485,
    "ε": 30151,
    "▁san": 9753,
    "▁restored": 23119,
    "▁That": 2193,
    "▁Литература": 15799,
    "▁weapon": 28639,
    "▁private": 2024,
    "▁%>%": 12437,
    "▁geb": 5772,
    "Kit": 13117,
    "±": 30221,
    "▁Alo": 29506,
    "▇": 31589,
    "▁mac": 5825,
    "▁Gregory": 29094,
    "▁partecip": 22885,
    "ە": 31226,
    "▁restrict": 9250,
    "▁imped": 25275,
    "вал": 18289,
    "▁flowers": 18281,
    "пози": 15884,
    "preview": 25347,
    "▁doctor": 11619,
    "clip": 24049,
    "▁Florence": 23998,
    "Raw": 22131,
    "ustr": 4627,
    "▁appro": 2134,
    "Em": 6026,
    "iers": 4285,
    "▁Barb": 21826,
    "pair": 18784,
    "▁filesystem": 22101,
    "▁прави": 12318,
    "▁Database": 5470,
    "▁Gren": 13042,
    "▁IF": 10762,
    "lobal": 3157,
    "▁##": 444,
    "▁thou": 12595,
    "▁сай": 8347,
    "▁keyboard": 12247,
    "uro": 2192,
    "emit": 21976,
    "▁Franz": 11694,
    "▁zones": 20542,
    "▁exclude": 19060,
    "como": 23700,
    "Scroll": 10463,
    "ге": 5035,
    "detail": 16432,
    "bos": 27737,
    "▁earnest": 24828,
    "adel": 11165,
    "ро": 576,
    "▁pos": 926,
    "who": 15970,
    "▁charg": 9151,
    "▁och": 1895,
    "getElement": 6014,
    "дні": 28115,
    "liches": 20048,
    "нием": 8751,
    "▁началь": 22485,
    "posa": 22842,
    "ardo": 6491,
    "eno": 8154,
    "▁seen": 3595,
    "xico": 13821,
    "▁сери": 28860,
    "▁Period": 29498,
    "ongodb": 13591,
    "▁pp": 6499,
    "▁following": 1494,
    "occupation": 26601,
    "мой": 16574,
    "ództ": 20357,
    "▁\":": 29242,
    "▁{}": 6571,
    "▁ten": 3006,
    "▁dar": 5424,
    "aws": 10467,
    "▁laid": 12341,
    "▁Мон": 23796,
    "▁\",\"": 28796,
    "ento": 9239,
    "rib": 1091,
    "Հ": 31307,
    "payload": 23813,
    "▁cri": 14783,
    "IMAGE": 2382,
    "▁simp": 3053,
    "urr": 1038,
    "▁dawn": 27470,
    "▁kwam": 22380,
    "▁pł": 23506,
    "))": 876,
    "▁reaching": 20888,
    "▁такой": 29003,
    "SA": 8132,
    "aglia": 17474,
    "▁death": 4892,
    "Produ": 23665,
    "Associ": 29254,
    "ání": 10497,
    "ources": 2863,
    "▁Soph": 19122,
    "exists": 9933,
    "▁Wisconsin": 22581,
    "live": 9258,
    "▁Using": 5293,
    "font": 5657,
    "▁ор": 5602,
    "Thank": 25271,
    "ually": 1474,
    "▁selbst": 12526,
    "éo": 22756,
    "ке": 2476,
    "▁wra": 11463,
    "▁fol": 900,
    "attr": 5552,
    "▁criticism": 29035,
    "▁IS": 8519,
    "Introduction": 25898,
    "ギ": 31255,
    "ша": 4604,
    "мец": 21381,
    "▁жизни": 23101,
    "▁destin": 15422,
    "▁Scala": 24419,
    ",.": 7671,
    "▁mouv": 20758,
    "Ž": 30144,
    "request": 3827,
    ".”": 3178,
    "ние": 1755,
    "▁Federation": 20438,
    "Anim": 21645,
    "<0x8C>": 143,
    "▁Suisse": 27968,
    "Ἀ": 30788,
    "Mapp": 9689,
    "▁Gen": 5739,
    "▁surrounded": 22047,
    "▁files": 2066,
    "▁ranking": 24034,
    "소": 31189,
    "service": 5509,
    "▁fewer": 28145,
    "ологи": 17060,
    "▁cidade": 17931,
    "▁engineering": 21639,
    "▁duty": 13360,
    "▁compañ": 23340,
    "▁avec": 2535,
    "▁попу": 21440,
    "▁Геор": 24644,
    "include": 2856,
    "ზ": 31693,
    "ício": 24394,
    "▁Robin": 13104,
    "mys": 5781,
    "拉": 31543,
    "▁Trad": 18375,
    "▁dll": 24415,
    "▁приня": 17867,
    "▁тому": 20178,
    "▁Ur": 8918,
    "EGIN": 17958,
    "▁учи": 15517,
    "avi": 17345,
    "Super": 19111,
    "▁Vern": 23743,
    "ز": 30295,
    "▁evalu": 6161,
    "ћа": 20181,
    "联": 31986,
    "▁hecho": 23614,
    "chant": 13775,
    "uj": 8016,
    "▁сельсов": 29162,
    "hall": 27090,
    "▁Mey": 18154,
    "▁Pear": 21265,
    "▁cav": 18346,
    "▁signals": 18470,
    "LS": 8547,
    "space": 3493,
    "iverse": 12193,
    "▁extensions": 17752,
    "▁collection": 4333,
    "ing": 292,
    "▁amplit": 22252,
    "que": 802,
    "▁któ": 6738,
    "▁elections": 20209,
    "central": 25171,
    "▁Welt": 7633,
    "▁tro": 3147,
    "▁Arbe": 14140,
    "▁mentre": 11552,
    "wei": 26599,
    "▁words": 3838,
    "▁Running": 19509,
    "RELEASE": 14829,
    "heid": 9722,
    "▁Corporation": 15025,
    "标": 31062,
    "▁floor": 11904,
    "▁Beaut": 19618,
    "▁memor": 26959,
    "CF": 9207,
    "▁creating": 4969,
    "ovo": 6962,
    "граф": 16745,
    "Picture": 28210,
    "▁cham": 11179,
    "▁continues": 18172,
    "IMA": 2260,
    "Portail": 2639,
    "▁sketch": 21256,
    "▁gepubliceerd": 10711,
    "അ": 31342,
    "▁line": 1196,
    "kop": 25139,
    "blic": 4729,
    "选": 31333,
    "▁discussion": 10679,
    "▁Package": 22029,
    "work": 1287,
    "▁Tem": 6789,
    "iche": 4070,
    "<0x92>": 149,
    "мента": 19900,
    "▁absol": 4963,
    "ities": 1907,
    "nungen": 18839,
    "▁haven": 7359,
    "Sm": 12636,
    "}$$": 9458,
    "apers": 21321,
    "anks": 1331,
    "▁Info": 22140,
    "▁Was": 12547,
    "▁Turkish": 24682,
    "soft": 2695,
    "istics": 6765,
    "tał": 28989,
    "progress": 18035,
    "▁Cat": 10459,
    "▁treat": 7539,
    "▁führte": 21070,
    "▁acting": 16684,
    "▁Notice": 16393,
    "sheet": 9855,
    "ふ": 31706,
    "wy": 12822,
    "CP": 6271,
    "▁gegen": 6927,
    "▁agr": 9221,
    "▁Forces": 25571,
    "igger": 3567,
    "▁absolv": 28994,
    "os": 359,
    "°": 30073,
    "▁Де": 8043,
    "INF": 24065,
    "ermann": 20648,
    "▁card": 5881,
    "emer": 25154,
    "▁Indiana": 21817,
    "ao": 6241,
    "▁Maz": 17326,
    "▁всего": 26566,
    "▁inspired": 20603,
    "▁primi": 25877,
    "▁dangerous": 18215,
    "swap": 26276,
    "▁dynast": 22337,
    "思": 31579,
    "équ": 21871,
    "жно": 9907,
    "▁famous": 13834,
    "?”": 6677,
    "▁lac": 24011,
    "▁Gazette": 29604,
    "дии": 16268,
    "UITableView": 23209,
    "▁Fab": 10629,
    "сер": 14315,
    "öder": 18746,
    "▁dimin": 22964,
    "▁reach": 6159,
    "▁zaj": 18298,
    "▁devil": 29754,
    "▁Have": 6975,
    "▁veget": 18655,
    "▁transferred": 18440,
    "тики": 24807,
    "▁bay": 23041,
    "ktionen": 23668,
    "▁kun": 15465,
    "res": 690,
    "▁cone": 27843,
    "yt": 3637,
    "▁premiers": 21426,
    "▁Mother": 21869,
    "ського": 6100,
    "▁outer": 11420,
    "<0xB1>": 180,
    "скус": 18590,
    "▁curves": 19684,
    "▁mesmo": 20661,
    "▁helper": 16876,
    "iy": 19881,
    "istik": 27013,
    "вин": 21187,
    "ek": 1416,
    "most": 3242,
    "▁consec": 11888,
    "▁stuck": 10771,
    "▁ML": 23158,
    "AST": 28938,
    "&&": 12774,
    "cej": 24213,
    "'])": 11287,
    "ülés": 19801,
    "▁проводи": 26386,
    "▁Imper": 12607,
    "ographie": 4437,
    "pre": 1457,
    "qq": 24349,
    "ную": 6627,
    "▁Philippines": 26260,
    "▁hydro": 17546,
    "class": 1990,
    "oop": 26793,
    "▁became": 3897,
    "▁invånare": 17076,
    "uszt": 23605,
    "▁normal": 4226,
    "rict": 4146,
    "▁door": 3050,
    "acters": 21706,
    "anner": 7310,
    "бро": 20176,
    "abei": 12410,
    "isms": 12903,
    "uries": 14886,
    "ga": 3249,
    "▁mant": 13694,
    "la": 433,
    "▁should": 881,
    "elly": 14112,
    "▁asse": 18678,
    "čen": 19534,
    "▁(": 313,
    "▁borrow": 27942,
    "▁captured": 15468,
    "话": 31852,
    "ė": 30239,
    "▁faced": 20050,
    "▁narrow": 12474,
    "angol": 21461,
    "that": 5747,
    "▁luck": 9885,
    "ève": 15792,
    "▁nucle": 22699,
    "▁alco": 27231,
    "▁Suppose": 12142,
    "▁questi": 22982,
    "▁comma": 16694,
    "▁record": 2407,
    "ymbol": 2789,
    "▁augusti": 28571,
    "<0x5B>": 94,
    "Ù": 31078,
    "alph": 19712,
    "boldsymbol": 5916,
    "▁curr": 16256,
    "▁Perú": 28686,
    "pply": 29400,
    "Export": 26382,
    "▁nazw": 28092,
    "laz": 21051,
    "已": 31290,
    "AXI": 23867,
    "▁ty": 7911,
    "▁vy": 10195,
    "rails": 9912,
    "▁worthy": 24717,
    "▁pal": 5112,
    "▁gallery": 23363,
    "Call": 5594,
    "▁пові": 19664,
    "▁Bath": 28256,
    "▁Bez": 14691,
    "DS": 8452,
    "й": 29977,
    "▁suggesting": 26233,
    "▁hearing": 22514,
    "mine": 24669,
    "ours": 2470,
    "Double": 11843,
    "nier": 11697,
    "abeth": 9394,
    "▁Gall": 8130,
    "▁defeat": 20653,
    "▁fair": 6534,
    "[])": 23076,
    "▁legs": 21152,
    "▁переда": 21719,
    "Byte": 12901,
    "have": 17532,
    "input": 2080,
    "▁watched": 20654,
    "▁controller": 4701,
    "▁включа": 20352,
    "NSString": 14301,
    "▁concaten": 16125,
    "▁simulate": 29611,
    "äd": 8827,
    "ardon": 20342,
    "Well": 11284,
    "▁search": 2740,
    "▁teams": 10907,
    "▁territoire": 22922,
    "▁extracted": 23892,
    "oce": 25802,
    "Ber": 17104,
    "Activ": 21786,
    "▁given": 2183,
    "рон": 6887,
    "definition": 16553,
    "ären": 22482,
    "▁contin": 2145,
    "тай": 21821,
    "sum": 2083,
    "▁ту": 12998,
    "oe": 7297,
    "▁law": 4307,
    "rr": 21478,
    "▁pag": 10203,
    "▁surprising": 26800,
    "ณ": 31796,
    "rut": 23798,
    "▁interpretation": 19854,
    "▁Mag": 3561,
    "elif": 23681,
    "egy": 11125,
    "man": 1171,
    "▁reflected": 25312,
    "ographique": 19913,
    "хан": 23485,
    "mes": 4467,
    "outs": 17718,
    "prec": 17990,
    "tmp": 7050,
    "ォ": 31402,
    "aines": 13116,
    "▁тан": 20395,
    "▁stupid": 20239,
    "▁prue": 28854,
    "▁born": 6345,
    "▁No": 1939,
    "▁courses": 21888,
    "▁ibn": 29736,
    "▁especies": 28564,
    "роз": 24570,
    "▁philosoph": 11847,
    "▁ost": 14750,
    "SF": 20322,
    "ба": 3102,
    "▁fit": 6216,
    "ík": 23576,
    "▁Month": 23471,
    "▁updated": 4784,
    "▁marzo": 6612,
    "▁native": 7531,
    "▁escol": 25224,
    "овано": 8732,
    "▁nazionale": 24188,
    "bara": 13839,
    "è": 30000,
    "FX": 26753,
    "▁проис": 23061,
    "▁Metal": 24992,
    "▁removed": 6206,
    "▁inv": 2437,
    "▁ress": 18475,
    "▁experiences": 27482,
    "physics": 25105,
    "Mr": 20335,
    "▁covers": 18469,
    "loyment": 22812,
    "ale": 744,
    "▁networks": 14379,
    ")));": 17884,
    "▁GND": 10453,
    "itement": 17334,
    "▁sports": 14717,
    "▁loved": 18012,
    "ci": 455,
    "[]{": 24406,
    "▁un": 443,
    "▁gén": 6094,
    "▁бу": 3180,
    "ission": 2333,
    "▁nouveau": 13164,
    "cref": 25029,
    "▁обла": 5055,
    "▁heaven": 18356,
    "▁POST": 11971,
    "parse": 5510,
    "reh": 9003,
    "хра": 15177,
    "▁фами": 15195,
    "ienn": 17810,
    "▁Clara": 29042,
    "▁пода": 12493,
    "erv": 6972,
    "▁automatisch": 19762,
    "Subview": 26794,
    "▁stepped": 28996,
    "HO": 8187,
    "▁intercept": 23404,
    "▁Personal": 16224,
    "elte": 14248,
    "▁implicit": 12235,
    "бы": 6326,
    "они": 18582,
    "ému": 26988,
    "▁Independent": 25266,
    "장": 31299,
    "lande": 28328,
    "▁Emma": 26422,
    "▁personal": 7333,
    "inding": 4015,
    "▁dirige": 26745,
    "▁prav": 21535,
    "▁prediction": 18988,
    "▁llam": 11829,
    "▁ла": 11046,
    "▁Golden": 16108,
    "▁Script": 14415,
    "▁Storm": 24444,
    "ience": 5597,
    "reib": 12207,
    "ды": 4184,
    "▁желез": 25815,
    "▁Flora": 23267,
    "▁Their": 11275,
    "GS": 10749,
    "ュ": 30645,
    "hos": 15656,
    "ulating": 18099,
    "condition": 16122,
    "▁Бер": 15829,
    "rollers": 11897,
    "raction": 13857,
    "▁Бело": 28621,
    "usion": 3958,
    "▁proble": 19329,
    "ri": 374,
    "be": 915,
    "奇": 31984,
    "▁concerned": 15041,
    "This": 4013,
    "}`": 10114,
    "sigma": 3754,
    "թ": 31323,
    "▁singing": 23623,
    "▁spir": 6337,
    "izard": 17909,
    "▁Ari": 25775,
    "Fa": 14206,
    "dfs": 29069,
    "▁macro": 11758,
    "▁Че": 16525,
    "▁vrij": 25220,
    "▁Between": 21674,
    "▁authors": 15717,
    "слі": 15487,
    "▁Резу": 22443,
    "▁max": 4236,
    "icip": 12654,
    "▁River": 6163,
    "ECK": 16658,
    "owned": 26689,
    "▁Scot": 11032,
    "▁се": 1586,
    "mac": 8628,
    "roduction": 13210,
    "▁Primary": 28267,
    "▁(**": 28492,
    "▁Appar": 27466,
    "зви": 22246,
    "▁Czech": 21489,
    "ි": 31485,
    "itten": 16097,
    "▁Entity": 14945,
    "▁Ev": 7298,
    "▁manner": 8214,
    "aval": 7712,
    "▁rise": 14451,
    "▁coding": 14137,
    "cp": 6814,
    "▁soci": 5374,
    "ick": 860,
    "▁Mid": 13370,
    "Sheet": 10654,
    "▁Dist": 6652,
    "autor": 8309,
    "SP": 5550,
    "ere": 406,
    "custom": 6341,
    "Hint": 28016,
    "¬": 30320,
    "ternal": 1890,
    "▁vi": 3516,
    "download": 10382,
    "▁Ret": 4649,
    "▁Ken": 10015,
    "arin": 27139,
    "▁оста": 14072,
    "▁manifold": 25941,
    "▁influence": 9949,
    "▁shape": 8267,
    "ends": 1975,
    "lä": 9231,
    "<0x1D>": 32,
    "ogle": 1882,
    "dens": 21518,
    "Side": 23908,
    "▁receive": 7150,
    "▁load": 2254,
    "▁Bian": 29860,
    "▁patient": 16500,
    "▁striking": 29191,
    "église": 20822,
    "ensus": 8841,
    "ksam": 29107,
    "▁Austria": 17362,
    "dispatch": 13369,
    "ocation": 10610,
    "comput": 12097,
    "変": 31786,
    "▁representations": 22540,
    "▁hombre": 28766,
    "達": 31883,
    "▁Ré": 5027,
    "MC": 12513,
    "▁considerable": 15620,
    "▁%}": 15493,
    "▁sedan": 26544,
    "uan": 12323,
    "̪": 31317,
    "▁Netherlands": 24553,
    "▁abitanti": 26548,
    "Capt": 21133,
    "▁cancer": 23900,
    "ག": 31208,
    "▁don": 1016,
    "ies": 583,
    "cho": 1859,
    "▁gmina": 25653,
    "Table": 3562,
    "\\}\\": 25848,
    "He": 3868,
    "▁zast": 21893,
    "▁application": 2280,
    "▁Christ": 2819,
    "çois": 11072,
    "heten": 29557,
    "izioni": 13583,
    ".*": 5575,
    "▁Bureau": 18903,
    "▁Properties": 21582,
    "χ": 30274,
    "widehat": 12259,
    "▁Officer": 28288,
    "▁informations": 19313,
    "▁closest": 21438,
    "añ": 5259,
    "зем": 20117,
    "け": 30807,
    "uns": 6948,
    "vě": 22946,
    "▁voj": 21414,
    "▁show": 1510,
    "imming": 25217,
    "licit": 4019,
    "ب": 30177,
    "▁Word": 10803,
    "'": 29915,
    "▁fiel": 29607,
    "じ": 31115,
    "())": 3101,
    "▁OK": 9280,
    "▁gut": 22341,
    "annel": 4143,
    "▁suggestion": 8998,
    "▁член": 17504,
    "cuss": 13571,
    "▁handled": 16459,
    "єм": 23802,
    "▁---": 11474,
    "woord": 25317,
    "▁practical": 15031,
    "ђ": 30116,
    "▁znaj": 18657,
    "▁Duch": 23568,
    "▁државе": 25840,
    "lem": 2409,
    "▁Ot": 8540,
    "▁jar": 14631,
    "▁propag": 13089,
    "override": 15752,
    "scroll": 10510,
    "слов": 26443,
    ".....": 18598,
    "▁towns": 20248,
    "▁ї": 11391,
    "▁fand": 19857,
    "agua": 29296,
    "mu": 2589,
    "▁Sport": 8815,
    "emplo": 13141,
    "▁than": 1135,
    "▁sink": 28169,
    "▁Ma": 3219,
    "CT": 1783,
    "▁neigh": 7152,
    "▁dam": 5625,
    "CRE": 22245,
    "part": 1595,
    "▁measure": 5645,
    "ulas": 15173,
    "▁ris": 5161,
    "Cell": 4617,
    "gro": 17170,
    "▁FIFA": 21581,
    "zan": 24912,
    "▁queen": 26624,
    "appen": 19934,
    "users": 7193,
    "▁corps": 14913,
    "▁gra": 2646,
    "▁ve": 2453,
    "less": 2222,
    "▁paramet": 25011,
    "commit": 15060,
    "ifies": 11057,
    "df": 2176,
    "ě": 30036,
    "▁belonged": 28911,
    "▁wounded": 19747,
    "mount": 16476,
    "▁ls": 19375,
    "▁career": 6413,
    "▁Kar": 3467,
    "▁maps": 11053,
    "▁COVID": 19937,
    "▁implementations": 20240,
    "ciente": 27381,
    "week": 18448,
    "Longrightarrow": 22893,
    "ペ": 31501,
    "ifi": 6832,
    "▁°": 6719,
    "grand": 27857,
    "DataSet": 28449,
    "\\%": 8958,
    "▁counted": 29115,
    "▁gir": 27016,
    "▁Bernard": 13337,
    "Buffer": 7701,
    "citet": 17112,
    "fiddle": 6636,
    "ActivityThread": 15746,
    "▁questo": 11352,
    "▁Magazine": 17880,
    "berta": 19954,
    "▁Eugen": 22864,
    "▁suite": 9460,
    "▁wed": 14837,
    "▁Jew": 9576,
    "documentation": 12663,
    "▁Kun": 25472,
    "▁promoted": 21201,
    "aal": 16113,
    "▁Brown": 9817,
    "▁Princess": 22063,
    "▁м": 757,
    "▁weiteren": 24632,
    "▁na": 1055,
    "▁Hung": 14198,
    "Navigation": 20245,
    "▁portug": 15056,
    "▁Hob": 25302,
    "typeof": 18059,
    "dimensional": 12531,
    "▁стала": 20406,
    "▁Deep": 21784,
    "ván": 20137,
    "iversity": 24974,
    "▁consp": 21588,
    "·": 30064,
    "urg": 2007,
    "▁letters": 8721,
    "▁plans": 13900,
    "›": 30405,
    "▁h": 298,
    "▁zu": 1729,
    "P": 29925,
    "▁alone": 7432,
    "▁Theory": 24134,
    "▁bigger": 16600,
    "cipl": 13326,
    "▁past": 4940,
    "short": 12759,
    "ý": 30052,
    "▁Mark": 4485,
    "면": 31747,
    "It": 3112,
    "etu": 24120,
    "optera": 23672,
    "ąc": 29280,
    "▁empres": 24653,
    "▁everyone": 14332,
    "Angle": 19582,
    "这": 30810,
    "▁reviews": 21804,
    "Host": 8514,
    "▁zal": 21421,
    "Space": 14936,
    "ôme": 21492,
    "▁reaches": 22170,
    "}&": 15704,
    "nick": 19254,
    "inside": 26102,
    "▁stamp": 25214,
    "▁grown": 21633,
    "▁`{": 23230,
    "Generated": 24565,
    "▁swing": 24500,
    "▁Census": 20121,
    "`:": 6998,
    "\"/>": 4681,
    "calc": 28667,
    "▁Arag": 24350,
    "Begin": 17946,
    ";\">": 12334,
    "drag": 20515,
    "parser": 16680,
    "▁Wasser": 16124,
    "widet": 10588,
    "夏": 31241,
    "natural": 25047,
    "▁statunit": 15407,
    "▁Arte": 25668,
    "ecause": 5658,
    "▁expos": 14060,
    "тво": 7144,
    "bishop": 28693,
    "OT": 2891,
    "rick": 9131,
    "osci": 23039,
    "words": 9303,
    "▁selection": 9262,
    "Before": 18743,
    "('#": 14237,
    "▁looks": 3430,
    "▁Chart": 14477,
    "▁Aus": 4028,
    "iben": 24068,
    "K": 29968,
    "▁PK": 24457,
    "backgroundColor": 29605,
    "ATA": 8254,
    "▁тя": 23512,
    "▁MainActivity": 28553,
    "What": 5618,
    "藏": 31707,
    "▁воло": 19186,
    "▁values": 1819,
    "impl": 13699,
    "": 30751,
    "After": 13555,
    "unit": 5441,
    "Audio": 17111,
    "▁inglese": 27377,
    "▁`--": 22974,
    "▁mathemat": 10860,
    "velope": 21367,
    "▁Division": 7946,
    "▁festiv": 29482,
    "▁Hon": 7906,
    "➜": 31245,
    "▁Jap": 4407,
    "▁Problem": 11583,
    "▁dressed": 27121,
    "([": 4197,
    "▁{%": 18674,
    "▁Elis": 21279,
    "▁Wikipédia": 19979,
    "=.": 21098,
    "▁\"^": 13898,
    "ис": 11452,
    "▁Sw": 3925,
    "▁Éd": 14758,
    "▁syntax": 5877,
    "ende": 3324,
    "▁ou": 2123,
    "argument": 23516,
    "": 31555,
    "▁нор": 28698,
    "▁err": 4589,
    "▁chanson": 25875,
    "▁miles": 7800,
    "▁Page": 9305,
    "Michael": 24083,
    "漢": 31652,
    "▁combination": 10296,
    "▁pass": 1209,
    "▁chemical": 22233,
    "▁anyone": 5019,
    "▁Rad": 4957,
    "▁Club": 5977,
    "▁madre": 20443,
    "▁Myst": 22890,
    "▁front": 4565,
    "▁Moz": 18129,
    "cos": 3944,
    "▁prob": 2070,
    "▁Co": 3189,
    "▁Rewrite": 11598,
    "Constructor": 23770,
    "▁asked": 4433,
    "tikzpicture": 17147,
    "이": 30393,
    "même": 18202,
    "Key": 2558,
    "像": 31551,
    "▁gebru": 16685,
    "▁escrit": 14377,
    "lers": 9306,
    "лось": 8641,
    "▁parameter": 3443,
    "▁ne": 452,
    "▁couple": 7303,
    "My": 3421,
    "ufe": 29556,
    "rew": 3973,
    "▁reporting": 23415,
    "Paul": 18275,
    "▁-\\": 11995,
    "▁sondern": 17665,
    "▁сте": 14296,
    "éli": 15817,
    "▁apparent": 20295,
    "▁byly": 27277,
    "▁modify": 6623,
    "▁checkout": 24808,
    "()->": 13539,
    "Error": 2392,
    "year": 6360,
    "nder": 5740,
    "▁nerv": 23547,
    "▁kop": 25334,
    "ätter": 29118,
    "▁Texas": 10319,
    "other": 1228,
    "▁slider": 23889,
    "▁verd": 12868,
    "▁funkc": 25357,
    "▁Arena": 26053,
    "▁Chor": 22758,
    "kins": 11335,
    "vod": 14091,
    "土": 31181,
    "▁Environment": 16738,
    "reate": 3015,
    "▁Мар": 9104,
    "▁ju": 3623,
    "▁theoretical": 23399,
    "▁eines": 7265,
    "▁contempor": 12010,
    "bourne": 17418,
    "env": 6272,
    "▁cpu": 26403,
    "▁után": 21949,
    "▁Identifier": 20286,
    "hip": 4034,
    "ḳ": 31897,
    "▁Bug": 28209,
    "▁Form": 3812,
    "▁moth": 25550,
    "Network": 13724,
    "Office": 27247,
    "Contains": 21409,
    "▁autom": 3345,
    "owski": 11716,
    "▁`": 421,
    "▁composer": 18422,
    ">'": 16299,
    "▁Thom": 4609,
    "▁pubblicato": 25491,
    "▁enc": 2094,
    "iclopedia": 21715,
    "ẓ": 31630,
    "▁esempio": 29775,
    "▁róż": 28801,
    "字": 30578,
    "=`": 12557,
    "hook": 20849,
    "▁apost": 18115,
    "MENT": 13780,
    "fare": 24658,
    "ulus": 14999,
    "▁court": 8973,
    "▁свет": 23486,
    "▁Stre": 11738,
    "▁supporting": 20382,
    "Ս": 31663,
    "▁stick": 12070,
    "▁symmetric": 18348,
    "IONS": 27946,
    "▁limit": 4046,
    "extend": 21843,
    "ys": 952,
    "S": 29903,
    "Exception": 2451,
    "rift": 7532,
    "Pass": 7129,
    "▁Crime": 29682,
    "mun": 24579,
    "Ц": 30092,
    "òria": 21276,
    "▁Mong": 21952,
    "▁SU": 20134,
    "▁Sof": 21541,
    "▁public": 970,
    "▁verte": 24241,
    "界": 30967,
    "typename": 22646,
    "▁Constantin": 23194,
    "▁cruel": 24116,
    "▁couldn": 8496,
    "▁Fig": 5104,
    "▁Bridge": 16230,
    "▁еди": 29082,
    "▁Мор": 29793,
    "ifications": 8232,
    "▁relate": 29279,
    "Tu": 23215,
    "▁syn": 5222,
    "bie": 10993,
    "ком": 4751,
    "änn": 21922,
    "<0x1C>": 31,
    "▁SR": 21020,
    "ordinates": 24266,
    "Impl": 6647,
    "▁dét": 20854,
    "integr": 14146,
    "▁trem": 14586,
    "所": 30744,
    "▁día": 17355,
    "ziale": 28351,
    "тельной": 28787,
    "▁компа": 16944,
    "▁cm": 7477,
    "▁`[": 10338,
    "lv": 28463,
    "marker": 22976,
    "ześ": 14527,
    "▁conver": 5486,
    "▁study": 6559,
    "て": 30466,
    "▁Five": 22853,
    "quin": 24150,
    "▁Bundes": 8457,
    "▁hosted": 17791,
    "▁strict": 9406,
    "ო": 30541,
    "支": 31541,
    "schnitt": 19564,
    "▁allem": 11034,
    "▁invari": 15939,
    "▁neighborhood": 18403,
    "▁VI": 5473,
    "ду": 1520,
    "▁banda": 13790,
    "roph": 19783,
    "keeper": 23935,
    "▁president": 6673,
    "▁Ban": 10765,
    "神": 30648,
    "nett": 20764,
    "amm": 4850,
    "▁CHAP": 11985,
    "or": 272,
    "▁orch": 22624,
    "▁Frauen": 16386,
    "▁полі": 19991,
    "▁alberga": 19441,
    "▁fabric": 18187,
    "TY": 15631,
    "amsung": 28935,
    "rgb": 23973,
    "portal": 25089,
    "organ": 6388,
    "▁década": 22685,
    "icked": 17840,
    "▁mare": 19287,
    "▁temple": 17567,
    "enes": 25487,
    "▁Gi": 4406,
    "▁gentlemen": 26703,
    "▁Расподела": 28354,
    "е": 29919,
    "▁infer": 10115,
    "▁сла": 28638,
    "▁Foo": 13679,
    "utenant": 12685,
    "▁oraz": 8414,
    "iemann": 23745,
    "<0x03>": 6,
    "▁\"%": 11860,
    "▁peut": 8164,
    "łów": 25588,
    "▁Wu": 29624,
    "▁дере": 10247,
    "▁société": 19513,
    "cou": 16589,
    "ně": 5623,
    "тера": 6713,
    "▁période": 18108,
    "mq": 28466,
    "▁Wayne": 25843,
    "lint": 27854,
    "▁Client": 12477,
    "▁Sah": 24246,
    "ह": 30714,
    "▁share": 6232,
    "вана": 29241,
    "Div": 12596,
    "bel": 6596,
    "▁School": 4523,
    "▁dec": 1602,
    "ly": 368,
    "关": 31057,
    "▁ambient": 25040,
    "▁ctx": 12893,
    "▁Cant": 15498,
    "▁Walter": 10705,
    "▁zwischen": 7831,
    "▁Nad": 18496,
    "ブ": 30582,
    "arna": 11441,
    "▁metadata": 15562,
    "▁си": 3485,
    "ua": 3357,
    "▁renov": 25615,
    "float": 7411,
    "▁Alfonso": 29651,
    "jk": 25467,
    "▁phone": 9008,
    "▁cic": 18286,
    "▁Roc": 25111,
    "张": 31328,
    "боль": 22451,
    "প": 31386,
    "TRAN": 26813,
    "meck": 23636,
    "▁Grey": 25529,
    "▁Titel": 16959,
    "resize": 21476,
    "▁craw": 29349,
    "▁Bé": 21303,
    "comments": 21032,
    "ho": 1251,
    "▁weg": 20669,
    "autom": 17405,
    "▁одним": 24753,
    "sd": 4928,
    "▁eind": 23561,
    "▁partners": 22056,
    "Agent": 19661,
    "uten": 6935,
    "enant": 27153,
    "▁sigu": 12923,
    "нім": 28501,
    "▁art": 1616,
    "▁át": 20741,
    "▁extens": 21103,
    "▁Think": 25086,
    "ź": 30109,
    "▁elektr": 19616,
    "▁IBM": 27955,
    "台": 31037,
    "▁convin": 17953,
    "▁agree": 8661,
    "▁Juni": 7452,
    "étique": 19971,
    "led": 839,
    "재": 31973,
    "▁fel": 7995,
    "情": 30993,
    "▁creature": 23940,
    "ático": 22054,
    "▁;)": 15718,
    "ष": 31330,
    "▁attempted": 16388,
    "ísticas": 18106,
    "▁că": 13294,
    "▁updates": 11217,
    "▁century": 6462,
    "minipage": 24203,
    "▁Est": 2661,
    "দ": 31204,
    "▁comte": 22845,
    "▁роз": 5724,
    "▁расположен": 25576,
    "hlen": 29785,
    "Vertex": 22479,
    "')->": 22423,
    "ель": 24736,
    "ヴ": 31270,
    "▁aff": 2756,
    "▁уез": 26157,
    "▁ausge": 17691,
    "ület": 15363,
    "цій": 9520,
    "▁considered": 5545,
    "species": 24091,
    "▁geen": 18841,
    "▁тео": 25728,
    "iwers": 25845,
    "/": 29914,
    "▁aug": 11307,
    "erni": 7181,
    "ambigu": 14727,
    "▁Trans": 4103,
    "▁Notable": 24844,
    "azzo": 16594,
    "▁conflic": 9476,
    "()\"": 25318,
    "▁`%": 22570,
    "прави": 19524,
    "▁adapter": 13304,
    "▁wol": 20040,
    "ді": 3429,
    "▁computational": 26845,
    "omas": 18902,
    "▁players": 10769,
    "▁tank": 23735,
    "file": 1445,
    "Che": 26856,
    "▁erreichte": 25329,
    "▁Васи": 15268,
    "▁отде": 22362,
    "té": 6772,
    "▁receiving": 13442,
    "▁Ки": 6746,
    "pret": 19819,
    "▁Vitt": 29364,
    "schen": 16861,
    "nap": 8971,
    "▁Province": 17325,
    "▁пописа": 26782,
    "ushing": 21616,
    "omen": 2770,
    "step": 10568,
    "<0x26>": 41,
    "▁GR": 18016,
    "▁Rec": 3599,
    "ają": 8480,
    "▁derni": 15159,
    "▁französischen": 28244,
    "ligen": 27846,
    "▁Italy": 12730,
    "ʹ": 30820,
    "?.": 9808,
    "▁graduated": 23588,
    "prop": 7728,
    "▁Meister": 15763,
    "▁wechselte": 25017,
    "тин": 7894,
    "▁<%": 20577,
    "▁бли": 14714,
    "▁Official": 10564,
    "▁stronger": 23505,
    "▁algo": 24673,
    "also": 15189,
    "▁ellos": 21135,
    "▁fame": 27965,
    "定": 30495,
    "▁separ": 2903,
    "格": 31168,
    "▁horizontal": 14698,
    "₅": 30231,
    "ingt": 19680,
    "UE": 4462,
    "▁built": 4240,
    "щі": 25592,
    "▁ride": 22203,
    "rom": 456,
    "ёр": 9086,
    "simeq": 27798,
    "▁Array": 4398,
    "▁Bear": 23606,
    "▁criter": 28770,
    "▁amely": 18260,
    "▁actions": 8820,
    "▁tribe": 29563,
    "渡": 31858,
    "▁device": 4742,
    "▁Bal": 7392,
    "<0xFE>": 257,
    "▁neural": 19677,
    "increment": 25629,
    "three": 17536,
    "▁naz": 7782,
    "▁tr": 534,
    "▁также": 6517,
    "bounds": 23687,
    "ම": 31917,
    "<0x20>": 35,
    "ighed": 25398,
    "▁End": 2796,
    "▁signing": 26188,
    "▁завер": 24587,
    "▁Seattle": 27689,
    "ال": 19233,
    "mk": 11256,
    "▁Apache": 13380,
    "slow": 28544,
    "▁Пів": 28892,
    "▁extract": 6597,
    "▁Museum": 6838,
    "\"><": 3254,
    "▁estimates": 21875,
    "▁hunting": 29826,
    "▁Sun": 8991,
    "▁Rank": 22125,
    "▁do": 437,
    "fp": 18091,
    "▁уче": 18107,
    "getText": 18516,
    "▁hide": 9563,
    "xspace": 13007,
    "WRITE": 16365,
    "▁przez": 7559,
    "5": 29945,
    "▁tud": 26992,
    "ear": 799,
    "max": 3317,
    "database": 9803,
    "лися": 22690,
    "▁beh": 2306,
    "\".": 1642,
    "▁bou": 16380,
    "▁ensemble": 21285,
    "▁Referencias": 6966,
    ");\r": 6075,
    "▁deze": 10988,
    "вало": 29354,
    "▁représent": 17899,
    "▁Salv": 14964,
    "▁amazon": 19249,
    "iformes": 25430,
    "bled": 27225,
    "------+": 25809,
    "blica": 26827,
    "forall": 10956,
    "▁Рос": 6412,
    "▁incorpor": 11039,
    "▁cr": 2181,
    "▁demonstrated": 28585,
    "ʾ": 30679,
    "ried": 1255,
    "buch": 8458,
    "▁GT": 21342,
    "双": 31960,
    "▁medieval": 27690,
    "syntax": 29562,
    "кти": 9054,
    "ící": 12851,
    "▁polynomials": 24655,
    "ursor": 5966,
    "▁as": 408,
    "▁size": 2159,
    "lb": 27728,
    "▁Pan": 6518,
    "ена": 28196,
    "CCE": 19043,
    "▁cried": 10680,
    "▁centre": 8442,
    "▁clusters": 24554,
    "?:": 25825,
    "rer": 2872,
    "Type": 1542,
    "▁create": 1653,
    "▁ham": 16366,
    "▁stir": 23546,
    "▁Ham": 7904,
    "▁Six": 18372,
    "parator": 17954,
    "▁around": 2820,
    "oved": 8238,
    "▁Jahren": 8692,
    "▁performance": 4180,
    "ateien": 12472,
    "▁Александр": 18084,
    "▁imp": 2411,
    "▁lod": 21896,
    "']))": 25901,
    "▁solved": 7484,
    "PY": 20055,
    "High": 16382,
    "сту": 3936,
    "Toggle": 27199,
    "▁quattro": 21842,
    "af": 2142,
    "▁Andy": 21828,
    "▁leader": 11822,
    "ese": 968,
    "suite": 13495,
    "wave": 27766,
    "vee": 27202,
    "ipage": 22697,
    "▁LIMIT": 27848,
    "▁Township": 19439,
    "ational": 1288,
    "Ő": 30451,
    "band": 4980,
    "▁knock": 18232,
    "▁studierte": 23047,
    "WT": 17755,
    "r": 29878,
    "▁Lomb": 24869,
    "版": 30845,
    "Tube": 13425,
    "▁computing": 20602,
    "": 30341,
    "▁uncertainty": 25812,
    "▁Window": 18379,
    "▁Serv": 9635,
    "herit": 27069,
    "dc": 13891,
    "▁Pays": 15867,
    "▁engl": 19784,
    "removeClass": 25636,
    "▁feet": 6900,
    "特": 31141,
    "ymnas": 21812,
    "▁era": 3152,
    "富": 31730,
    "created": 11600,
    "▁erhielt": 14312,
    "▁after": 1156,
    "itz": 2784,
    "▁Schaus": 15147,
    "ém": 2249,
    "web": 2676,
    "ville": 4909,
    "bootstrap": 8704,
    "raf": 1929,
    "refs": 24539,
    "▁Sohn": 15148,
    "nic": 7823,
    "▁delle": 4884,
    "▁fileName": 29729,
    "_.": 5396,
    "August": 26197,
    "▁quite": 3755,
    "Sub": 4035,
    "лле": 9997,
    "▁gh": 24170,
    "▁Circle": 27927,
    "кан": 6244,
    "istes": 9230,
    "лена": 14275,
    "Jean": 22438,
    "Stand": 11042,
    "▁Create": 6204,
    "▁cycles": 25785,
    "queue": 9990,
    "law": 10653,
    "========": 4936,
    "▁Ministry": 20886,
    "吉": 31033,
    "▁Ä": 11585,
    "naio": 15616,
    "▁Akadem": 16989,
    "olate": 23167,
    "▁ath": 17622,
    "▁Dieu": 25659,
    "bas": 6500,
    "А": 30018,
    "▁апре": 14374,
    "Ex": 1252,
    "▁\"/": 5591,
    "lungen": 25250,
    "ANT": 13566,
    "odox": 17324,
    "▁LL": 27624,
    "usable": 27979,
    "page": 3488,
    "▁Burn": 16640,
    "▁ban": 9892,
    "ා": 31712,
    "columns": 13099,
    "▁Tex": 8490,
    "▁detected": 17809,
    "▁Friday": 28728,
    "measure": 26658,
    "зин": 22745,
    "▁De": 897,
    "cup": 5231,
    "▁Tar": 11740,
    "▁summar": 19138,
    "▁pret": 14794,
    "▁EN": 12524,
    "▁overlay": 27292,
    "**": 1068,
    "▁supp": 1462,
    "▁Lower": 27723,
    "ÿ": 30370,
    "▁tbl": 19018,
    "▁подацима": 24401,
    "▁also": 884,
    "onso": 16911,
    ".": 29889,
    "aver": 12483,
    "<0xC8>": 203,
    "istol": 19639,
    ")`,": 20362,
    "▁svo": 28316,
    "▁n": 302,
    "▁humor": 27448,
    "oted": 5715,
    "▁Cur": 10837,
    "ńskiego": 22199,
    "▁▁▁▁▁▁▁▁▁▁▁▁": 632,
    "機": 31540,
    "谷": 31112,
    "rav": 5705,
    "▁bisher": 29601,
    "▁FALSE": 17131,
    "▁encrypted": 23220,
    "ression": 23881,
    "▁zunächst": 16891,
    "▁Wilson": 13015,
    "▁upp": 10282,
    "spiel": 9671,
    "▁бо": 3419,
    "itional": 3245,
    "▁Michel": 12255,
    "▁sistema": 10502,
    "▁Население": 21636,
    "▁Beautiful": 25685,
    "▁hombres": 27970,
    "Linux": 24085,
    "▁trains": 22983,
    "▁Peg": 27281,
    "num": 1949,
    "kur": 23843,
    "▁computed": 15712,
    "kter": 27112,
    "▁districts": 24172,
    "ip": 666,
    "▁permut": 20005,
    "▁off": 1283,
    "頭": 31876,
    "ِ": 30567,
    "ences": 2063,
    "UC": 23129,
    "▁solve": 4505,
    "UNCTION": 28700,
    "▁Slo": 16275,
    "ní": 2213,
    "Proc": 27893,
    "▁volume": 7977,
    "atin": 21203,
    "▁note": 4443,
    "▁título": 17509,
    "▁ran": 6350,
    "⠀": 30942,
    "sel": 2838,
    "acles": 23435,
    "▁probabil": 23950,
    "▁tard": 11364,
    "▁хра": 17942,
    "𝓝": 31926,
    "nez": 16617,
    "花": 30830,
    "▁mid": 7145,
    "▁Edinburgh": 25200,
    "WebView": 23237,
    "Mark": 9802,
    "▁Francisco": 8970,
    "ynt": 3903,
    "Could": 23323,
    "に": 30353,
    "▁advice": 9848,
    "▁und": 563,
    "▁lawyer": 25008,
    "▁Mount": 8040,
    "iot": 24414,
    "▁Хо": 14120,
    "WR": 9980,
    "checkbox": 12348,
    "▁kle": 8188,
    "▁periodo": 17848,
    "▁Fix": 24778,
    "▁leaders": 20251,
    "▁hizo": 22598,
    "▁Orleans": 26884,
    "▁vas": 19723,
    "cluster": 19594,
    "▁Clear": 17732,
    "Methods": 26112,
    "▁Uruguay": 29233,
    "▁ERROR": 14431,
    "▁familiar": 9985,
    "pes": 5547,
    "▁Volk": 26071,
    "▁vessels": 24479,
    "四": 30928,
    "vars": 16908,
    "▁White": 8037,
    "inition": 3475,
    "▁сре": 25839,
    "▁forth": 11483,
    "NO": 6632,
    "msg": 7645,
    "산": 31458,
    "▁Bus": 8406,
    "▁Bio": 21184,
    "Annotation": 21978,
    "svn": 27517,
    "oplus": 17201,
    "@{": 28312,
    "▁conne": 1826,
    "▁accompl": 9768,
    "▁Th": 498,
    "ḏ": 31946,
    "<0x5A>": 93,
    "material": 15388,
    "▁Sach": 28944,
    "bek": 16863,
    "▁Евро": 15824,
    "進": 31965,
    "ikon": 10344,
    "▁música": 15433,
    "▁companion": 18708,
    "▁equipo": 15434,
    "▁då": 14673,
    "encode": 12508,
    "mor": 12257,
    "▁hidden": 7934,
    "▁groupe": 11107,
    "▁ceased": 24886,
    "▁Vier": 23650,
    "atural": 18771,
    "istory": 2668,
    "▁остан": 28180,
    "那": 31356,
    "▁кра": 6697,
    "사": 30791,
    "Wil": 29594,
    "▁excell": 12567,
    "anel": 3870,
    "bei": 27242,
    "<0xD1>": 212,
    "},{": 29087,
    "icture": 4781,
    "▁footballer": 19026,
    "▁filled": 10423,
    "outer": 5561,
    "cket": 3522,
    "▁repo": 13761,
    "▁rob": 10832,
    "▁Cruz": 17960,
    "_\"": 27508,
    "▁hash": 6608,
    "▁cv": 13850,
    "▁moż": 27941,
    "▁той": 23879,
    "▁Nouvelle": 25124,
    "▁вместе": 23414,
    "▁Save": 16913,
    "вра": 18524,
    "РСР": 27190,
    "background": 7042,
    "▁vé": 12389,
    "ности": 5395,
    "▁Bry": 13307,
    "club": 29066,
    "▁je": 1444,
    "imal": 3039,
    "▁&=": 7878,
    "▁African": 11715,
    "amiento": 9993,
    "gan": 6249,
    "▁ly": 21261,
    "aled": 7943,
    "Environment": 18649,
    "▁shows": 3697,
    "▁empresa": 20456,
    "▁Si": 6101,
    "▁forming": 25391,
    "▁Cro": 8764,
    "accept": 16044,
    "▁Committee": 12930,
    "▁Are": 4683,
    "ン": 30203,
    "▁équip": 20075,
    "▁DDR": 21901,
    "Z": 29999,
    "▁Lex": 15045,
    "▁guide": 10754,
    "▁donne": 18332,
    "▁Article": 21746,
    "₁": 30148,
    "шого": 25705,
    "▁Mobile": 21600,
    "▁World": 2787,
    "▁neur": 26808,
    "▁Within": 23732,
    "Internal": 16491,
    "зня": 17050,
    "filled": 26940,
    "Don": 10310,
    "Mat": 9782,
    "▁finns": 6784,
    "ran": 661,
    "gle": 6234,
    "engu": 19636,
    "▁kilometer": 23836,
    "_": 29918,
    "Ш": 30074,
    "▁silver": 13283,
    "naire": 15421,
    "▁returned": 4133,
    "лла": 17502,
    "▁expres": 29150,
    "љ": 30075,
    "éral": 8165,
    "▁totale": 26104,
    "VID": 13044,
    "ровой": 26537,
    "▁po": 772,
    "ление": 6195,
    "▁Tomatoes": 25994,
    "marks": 22848,
    "scheid": 11973,
    "▁insbesondere": 27285,
    "<0x60>": 99,
    "▁detection": 15326,
    "्": 30296,
    "▁Um": 6379,
    "▁sympt": 25828,
    "ginx": 16237,
    "▁Hamm": 26356,
    "мене": 17859,
    "Download": 22954,
    "▁Пари": 23988,
    "▁werd": 4454,
    "▁zahl": 19885,
    "▁veces": 24063,
    "▁food": 9687,
    "▁folg": 10627,
    "Dispatch": 14777,
    "<0x11>": 20,
    "▁voir": 8689,
    "кого": 8199,
    "▁lag": 11755,
    "ifié": 29792,
    "场": 31632,
    "rock": 20821,
    "air": 1466,
    "▁Kil": 12400,
    "▁double": 3765,
    "▁Description": 12953,
    "⁵": 30509,
    "()\r": 26471,
    "▁Resources": 27562,
    "▁яких": 26573,
    "access": 5943,
    "工": 31041,
    "▁sv": 3731,
    "zeich": 5185,
    "－": 31583,
    "pur": 15503,
    "▁spac": 26325,
    "DA": 7698,
    "▁Review": 13957,
    "▁hina": 27957,
    "oupe": 6648,
    "▁Im": 1954,
    "лін": 28338,
    "▁joining": 22960,
    "egn": 26567,
    "ною": 12253,
    "ionario": 25150,
    "keit": 6239,
    "ole": 1772,
    "app": 932,
    "▁Response": 13291,
    "▁addressed": 20976,
    "▁Vietnam": 18444,
    "▁option": 2984,
    "直": 31157,
    "υ": 30192,
    "▁appearance": 10097,
    "éch": 17192,
    "니": 31063,
    "▁Otherwise": 13466,
    "1": 29896,
    "▁younger": 20023,
    "uid": 5416,
    "wt": 14554,
    "守": 31703,
    "▁Sav": 9583,
    "▁Orig": 29766,
    "▁sw": 2381,
    "ུ": 31601,
    "aty": 11156,
    "▁UTC": 17998,
    "▁Na": 4465,
    "Component": 5308,
    "ớ": 31280,
    "▁<=": 5277,
    "▁mental": 19119,
    "▁Elli": 26656,
    "▁Vik": 18503,
    "átum": 21900,
    "▁Premier": 14163,
    "umbn": 17771,
    "▁vš": 20145,
    "destination": 23848,
    "uma": 10859,
    "▁ook": 7666,
    "Pack": 16638,
    "▁Entry": 28236,
    "ichen": 14487,
    "▁stat": 1002,
    "Autom": 28451,
    "▁jest": 6771,
    "▁Fl": 2379,
    "til": 1376,
    "▁skin": 19309,
    "▁Street": 7103,
    "ágina": 18814,
    "▁village": 5720,
    "]\\": 10725,
    "chrome": 18114,
    "icode": 12858,
    "▁unity": 20107,
    "ERT": 20161,
    "vs": 4270,
    "ettbe": 27840,
    "▁logger": 17927,
    "▁fis": 16436,
    "CCESS": 26925,
    "대": 30890,
    "▁purposes": 11976,
    "▁Before": 10949,
    "▁raison": 18836,
    "功": 31134,
    "ז": 30776,
    "▁august": 15251,
    "▁Cook": 17278,
    "▁--": 1192,
    "elijke": 6945,
    "=\\": 2013,
    "perform": 19826,
    "aper": 7202,
    "нци": 11754,
    "▁Awards": 9220,
    "omorphic": 16898,
    "▁engag": 27010,
    "weight": 7915,
    "ℝ": 30463,
    "hand": 3179,
    "count": 2798,
    "▁numer": 4825,
    "▁decision": 10608,
    "знача": 19894,
    "▁Not": 2216,
    "BL": 13367,
    "ację": 29357,
    "▁że": 13527,
    "ó": 29980,
    "yy": 8071,
    "fah": 11225,
    "[_": 28513,
    ".`": 17580,
    "▁publish": 9805,
    "ウ": 30537,
    "▁McK": 24053,
    "▁château": 20085,
    "▁chip": 29830,
    "▁saving": 14238,
    "座": 31780,
    "▁Explorer": 21508,
    "▁sick": 17319,
    "▁axes": 27815,
    "▁Né": 27911,
    "ritz": 18238,
    "gru": 7108,
    "ES": 2890,
    "▁accordingly": 16205,
    "push": 5910,
    "▁spatial": 18652,
    "кие": 20940,
    "▁grouped": 27831,
    "▁kW": 26226,
    "▁lok": 25194,
    "▁representing": 15783,
    "▁consegu": 22270,
    "▁Поль": 21559,
    "▁Allen": 16092,
    "▁Bh": 20303,
    "▁Britann": 15822,
    "▁Уи": 22505,
    "▁sacrific": 26285,
    "▁Colombia": 21078,
    "{%": 18255,
    "istique": 26891,
    "▁env": 8829,
    "▁EU": 19007,
    "▁Geoff": 28295,
    "该": 31751,
    "▁vari": 1197,
    "Prop": 20420,
    "▁haut": 22916,
    "Install": 23271,
    "atic": 2454,
    "▁LINQ": 28381,
    "Tom": 21599,
    "▁each": 1269,
    "agnost": 11670,
    "▁sun": 6575,
    "▁Alexandre": 26790,
    "Cons": 13696,
    "▁AF": 23844,
    "▁laughed": 19090,
    "▁negative": 8178,
    "▁Conse": 15946,
    "▁pressure": 12959,
    "enu": 4814,
    "▁Dro": 22938,
    "▁ellen": 25149,
    "▁thanks": 3969,
    "]))": 12622,
    "▁tempt": 25782,
    "▁hers": 7955,
    "SEE": 22048,
    "mbox": 8264,
    "▁goes": 5771,
    "wick": 6669,
    "▁Cuba": 23653,
    "▁shr": 14653,
    "▁sets": 6166,
    "bibliothek": 24275,
    "結": 31711,
    "▁archiv": 16625,
    "▁англий": 24999,
    "▁Modern": 14624,
    "hören": 28452,
    "Ș": 30233,
    "avo": 27082,
    "▁Av": 7740,
    "лько": 9298,
    "▁Rule": 27308,
    "fahrt": 29182,
    "gz": 18828,
    "▁kolej": 20236,
    "▁donn": 14735,
    "┼": 30560,
    "▁continu": 3133,
    "but": 4187,
    "▁juillet": 9148,
    "▁вере": 22358,
    "l": 29880,
    "erem": 14992,
    "▁presenta": 22720,
    "▁Архив": 23069,
    "▁height": 3171,
    "External": 25865,
    "▁municipal": 11677,
    "보": 31199,
    "CheckBox": 28360,
    "username": 6786,
    "iod": 2660,
    "defined": 12119,
    "▁min": 1375,
    "рина": 24436,
    "UK": 19960,
    "】": 31472,
    "金": 30659,
    "wicklung": 16518,
    "olg": 22991,
    "Remove": 15941,
    "Duration": 18984,
    "▁taste": 21779,
    "лад": 27155,
    "Changed": 7590,
    "▁б": 836,
    "vers": 874,
    "▁vectors": 12047,
    "▁target": 3646,
    "iała": 23398,
    "ules": 2540,
    "ub": 431,
    "▁númer": 12158,
    "▁cod": 15234,
    "▁mixed": 12849,
    "个": 30502,
    "loop": 7888,
    "▁Clo": 27397,
    "▁glance": 21798,
    "▁анти": 25980,
    "▁Poly": 21755,
    "éré": 16555,
    "Touch": 15852,
    "▁tedes": 21157,
    "▁titles": 17735,
    "▁Rund": 24884,
    "Sito": 28409,
    "项": 31888,
    "high": 9812,
    "ování": 22604,
    "▁Ligações": 18315,
    "ifice": 28833,
    "▁node": 2943,
    "▁Institute": 8907,
    "▁pit": 22754,
    "▁zar": 21370,
    "▁které": 19815,
    "▁Act": 3185,
    "▁vale": 20368,
    "scription": 22371,
    "▁dici": 8550,
    "▁((": 5135,
    "▁tips": 25562,
    "ika": 4106,
    "owa": 5604,
    "▁fifty": 19044,
    "▁Nathan": 27650,
    "▁Vill": 9887,
    "▁Or": 1394,
    "線": 31357,
    "▁einem": 4093,
    "▁Лю": 15442,
    "夜": 31390,
    "《": 30866,
    "amental": 11491,
    "ʋ": 31470,
    "frak": 7016,
    "▁durante": 6372,
    "рі": 3020,
    "▁scatter": 14801,
    "Tables": 24924,
    "createElement": 22662,
    "▁wsp": 16438,
    "▁ears": 22827,
    "Ř": 30224,
    "Ent": 5292,
    "▁foreach": 6829,
    "▁objective": 12091,
    "▁droit": 17950,
    "▁boolean": 7223,
    "▁Div": 4910,
    "coli": 25776,
    "▁class": 770,
    "gypt": 28779,
    "▁Collegamenti": 7764,
    "icago": 9384,
    "▁Gl": 8467,
    "▁pitch": 15905,
    "▁satisfy": 15523,
    "测": 31851,
    "usr": 4855,
    "▁Labor": 16715,
    "▁tasks": 9595,
    "în": 28065,
    "▁годах": 16780,
    "owej": 7937,
    "സ": 30969,
    "leb": 19982,
    "▁дра": 23231,
    "▁conject": 25466,
    "atio": 20819,
    "▁Korean": 22467,
    "plugins": 12800,
    "Bu": 3727,
    "IE": 8673,
    "▁ainda": 23871,
    "ници": 11026,
    "тал": 9829,
    "▁builds": 23315,
    "xes": 9100,
    "bol": 2095,
    "ної": 6383,
    "vá": 8274,
    "▁IV": 6599,
    "$:": 21063,
    "örd": 8800,
    "▁reci": 9522,
    "ව": 31918,
    "雅": 31847,
    "▁ceremony": 25672,
    "кет": 27268,
    "ips": 4512,
    "ignon": 29582,
    "▁destroy": 8174,
    "AB": 2882,
    "▁para": 1702,
    "▁ради": 14898,
    "▁Histor": 4731,
    "▁historique": 23396,
    "▁throughout": 10106,
    "▁behav": 4010,
    "akter": 14266,
    "zeg": 28530,
    "▁personally": 22345,
    "▁Cer": 10580,
    "▁wand": 24706,
    "ising": 5921,
    "▁sal": 4497,
    "▁opinion": 9426,
    "▁bos": 13601,
    "▁ped": 8939,
    "▁consulté": 27883,
    "scal": 19529,
    "▁steel": 22973,
    "▁Algorithm": 29068,
    "ग": 30875,
    "Ď": 31521,
    "<0xD7>": 218,
    "▁Southern": 14234,
    "▁Cet": 15018,
    "POS": 24815,
    "▁aurait": 26030,
    "-,": 15767,
    "setState": 24523,
    "ome": 608,
    "ił": 27233,
    "Img": 25518,
    "▁einige": 19774,
    "║": 30246,
    "▁viele": 22390,
    "▁Dynam": 22554,
    "ɑ": 30426,
    "infty": 3411,
    "▁sacred": 26546,
    "цена": 25144,
    "▁franc": 11020,
    "▁fino": 14270,
    "▁jaar": 13934,
    "▁citizens": 18363,
    "▁scenario": 10483,
    "▁illustr": 8632,
    "▁reasonable": 15590,
    "Managed": 26542,
    "isis": 15773,
    "▁Reserve": 27811,
    "▁tran": 22024,
    "▁scored": 15569,
    "▁Venez": 13915,
    "▁Alt": 10790,
    "Grid": 5756,
    "▁badly": 28042,
    "▁logged": 13817,
    "umbnail": 21145,
    "onCreate": 17879,
    "▁Republik": 26587,
    "(\"%": 11702,
    "lr": 29212,
    "uen": 3837,
    "▁Lar": 8218,
    "▁utilisé": 28643,
    "izzato": 19280,
    "▁rap": 14937,
    "ynam": 2926,
    "▁Lit": 21395,
    "EDIT": 12378,
    "▁connection": 3957,
    "іль": 4202,
    "▁F": 383,
    "ő": 30048,
    "▁Francia": 13913,
    "▁sic": 24801,
    "▁Dou": 19176,
    "row": 798,
    "▁increasing": 10231,
    "etra": 27280,
    "presa": 13039,
    "checked": 11238,
    "▁guests": 28865,
    "▁peque": 18946,
    "▁Dar": 7335,
    "tech": 11345,
    "▁явля": 9960,
    "чество": 22339,
    "▁/>": 2900,
    "▁highway": 29469,
    "ктив": 8888,
    "▁finish": 8341,
    "льного": 15475,
    "▁Observable": 20215,
    "igh": 1141,
    "▁simplicity": 23205,
    "piel": 6384,
    "▁gestion": 26805,
    "azioni": 8312,
    "▁Джерела": 24971,
    "▁упо": 22179,
    "▁Coun": 6237,
    "▁gobierno": 19368,
    "▁Port": 3371,
    "▁assim": 24443,
    "colors": 27703,
    "▁lov": 12355,
    "▁ос": 3894,
    "Env": 21745,
    "Cert": 20455,
    "聖": 31581,
    "▁mer": 2778,
    "▁Column": 12481,
    "▁solar": 21635,
    "▁rend": 7697,
    "▁serving": 16330,
    "株": 31409,
    "आ": 31732,
    "Alignment": 14658,
    "▁Rights": 26863,
    "▁Lok": 26469,
    "zym": 14022,
    "('/": 11219,
    "ftware": 14093,
    "▁partially": 22039,
    "▁TypeError": 20948,
    "▁announced": 9326,
    "▁poj": 26885,
    "gov": 13513,
    "execution": 22256,
    "Secret": 28459,
    "nederbörd": 28633,
    "Black": 18700,
    "▁intelligence": 21082,
    "▁women": 5866,
    "▁readily": 28520,
    "▁everything": 4129,
    "ARN": 15249,
    "Package": 14459,
    "LP": 13208,
    "ших": 9994,
    "landa": 25241,
    "▁sides": 11192,
    "<0x9B>": 158,
    "▁possibil": 27829,
    "ują": 14462,
    "▁numbers": 3694,
    "▁ven": 6003,
    "▁irregular": 27931,
    "FC": 8610,
    "▁postal": 29767,
    "宝": 31647,
    "▁trava": 29231,
    "ล": 30496,
    ",": 29892,
    "景": 31495,
    "▁Broadway": 23291,
    "▁went": 3512,
    "kommen": 21667,
    "rá": 6135,
    "▁är": 2206,
    "▁action": 3158,
    "▁Bod": 19929,
    "дна": 8987,
    "second": 7496,
    "▁Mercur": 29389,
    "▁mor": 3036,
    "▁impress": 21210,
    "igan": 11163,
    "++": 1817,
    "▁Лі": 18843,
    "▁Klein": 21151,
    "ो": 30799,
    "▁../": 29772,
    "▁repeated": 10324,
    "▁occurred": 10761,
    "▁Рас": 29355,
    "vider": 5489,
    "ར": 31232,
    "▁trailing": 25053,
    "on": 265,
    "▁defe": 8686,
    "atting": 23980,
    "тник": 22860,
    "は": 30449,
    "catch": 12510,
    "umbled": 25443,
    "LED": 20566,
    "urls": 26045,
    "Ý": 30777,
    "▁diverses": 27858,
    "▁коми": 19161,
    "▁бра": 12224,
    "▁resident": 20201,
    "永": 31156,
    "▁challenge": 18766,
    "▁sought": 18365,
    "▁lect": 13081,
    "ging": 3460,
    "▁videa": 23105,
    "▁Creating": 26221,
    "载": 31526,
    "▁š": 6569,
    "wers": 17538,
    "Let": 12024,
    "▁Kinder": 15857,
    "▁problemas": 29726,
    "▁bomb": 13585,
    "▁So": 1105,
    "Const": 12075,
    "QUEST": 14130,
    "▁Grad": 19295,
    "ций": 15071,
    "▁hence": 8151,
    "▁Dor": 9579,
    "▁Time": 5974,
    "').": 2824,
    "▁renamed": 19533,
    "動": 31124,
    "▁Species": 21807,
    "▁пункт": 27655,
    "▁separation": 23683,
    "▁Paris": 3681,
    "▁fingers": 23915,
    "▁IDs": 23481,
    "▁set": 731,
    "Pierre": 19621,
    "REATE": 11110,
    "ól": 5471,
    "▁wrap": 12244,
    "▁ali": 14430,
    "osa": 3628,
    "▁afterwards": 12335,
    "Sw": 10840,
    "▁Ice": 26998,
    "▁tack": 22002,
    "▁míst": 23295,
    "▁▁▁▁▁▁▁▁▁▁": 965,
    "▁Charlie": 20283,
    "▁Independ": 28052,
    "▁Pier": 12939,
    "Vec": 25987,
    "hab": 7308,
    "Matrix": 14609,
    "▁wz": 18589,
    "▁чемпи": 12200,
    "lave": 18398,
    "▁прод": 24678,
    "yles": 5577,
    "unted": 28000,
    "delete": 8143,
    "▁digit": 13615,
    "ś": 30045,
    "▁Zero": 28933,
    "heure": 28661,
    "▁accessible": 15579,
    "▁Bundle": 24470,
    "рав": 3766,
    "local": 2997,
    "▁v": 325,
    "▁się": 3701,
    "Organ": 27356,
    "isp": 11936,
    "▁incorrectly": 29676,
    "▁twe": 7780,
    "▁Edu": 7519,
    "sing": 2976,
    "▁Liv": 16238,
    "▁Hot": 8843,
    "ו": 30205,
    "▁Olímp": 26843,
    "▁interval": 7292,
    "iono": 26058,
    "▁NFL": 25167,
    "▁abstra": 27086,
    "+(": 17108,
    "mai": 24402,
    "essor": 6329,
    "łuż": 22952,
    "nych": 5909,
    "чної": 20705,
    "▁threads": 9717,
    "▁име": 7557,
    "ème": 5000,
    "奈": 31696,
    "▁Both": 9134,
    "erva": 25461,
    "ен": 656,
    "ree": 929,
    "jest": 29618,
    "▁terrain": 28439,
    "пени": 25958,
    "▁images": 4558,
    "▁grow": 6548,
    "ness": 2264,
    "Ì": 30729,
    "▁клуб": 21182,
    "▁carrying": 19436,
    "Jo": 10844,
    "Usage": 27573,
    "ù": 30071,
    "then": 6098,
    "▁Less": 27898,
    "▁practices": 23274,
    "enk": 5842,
    "▁''": 6629,
    "perp": 24598,
    "alis": 5711,
    "▁experienced": 18860,
    "utos": 20864,
    "▁столі": 29526,
    "▁solem": 25070,
    "obox": 23518,
    "стри": 19162,
    "poses": 10590,
    "▁Dream": 16814,
    "ptop": 16002,
    "得": 31050,
    "▁Popular": 23691,
    "ühl": 21548,
    "▁Added": 25601,
    "forEach": 14142,
    "LOW": 27998,
    "Peter": 23686,
    "▁EX": 8528,
    "▁сезо": 20366,
    "▁easily": 5948,
    "Obrázky": 23313,
    "▁phot": 6731,
    "asketball": 11852,
    "▁forgotten": 20898,
    "▁sort": 2656,
    "uff": 3096,
    "genommen": 21096,
    "▁boxes": 16273,
    "▁elim": 29007,
    "▁consequence": 17004,
    "ค": 30759,
    "▁bund": 22813,
    "▁spect": 6683,
    "▁Frances": 10986,
    "(@\"": 14699,
    "=\"@": 5213,
    "ണ": 31146,
    "▁ec": 21226,
    "Hom": 24259,
    "▁cube": 28704,
    "<0xB9>": 188,
    "▁später": 9655,
    "▁stuff": 6433,
    "compat": 12667,
    "eszt": 23293,
    "DER": 8032,
    "ędz": 26372,
    "ഷ": 31921,
    "äre": 15994,
    "inet": 10157,
    "gemein": 20217,
    "▁бан": 24391,
    "▁Ми": 4860,
    "hold": 8948,
    "シ": 30373,
    "▁like": 763,
    "▁sorte": 29835,
    "▁*/": 3776,
    "▁fait": 5246,
    "是": 30392,
    "▁Première": 28720,
    "▁pixel": 15526,
    "Weight": 22676,
    "ká": 27817,
    "dim": 6229,
    "▁DJ": 23366,
    "▁grupo": 12249,
    "Customer": 15122,
    "▁vest": 16779,
    "Serial": 9125,
    "aware": 28327,
    "▁Vol": 3684,
    "▁storing": 15446,
    "▁główn": 26787,
    "▁Mission": 18971,
    "▁campion": 18160,
    "▁Бри": 24944,
    "üller": 17552,
    "▁een": 1739,
    "▁stycznia": 24002,
    "▁delen": 15856,
    "arters": 13868,
    "应": 31370,
    "Ė": 31742,
    "▁Memorial": 19722,
    "▁cí": 29491,
    "ську": 25018,
    "twitter": 24946,
    "▁away": 3448,
    "▁consultato": 17798,
    "tag": 4039,
    "member": 14242,
    "▁райо": 9328,
    "‐": 30304,
    "L": 29931,
    "фика": 19944,
    "▁alternatives": 27809,
    "▁debugger": 18297,
    "▁Mock": 26297,
    "try": 2202,
    "▁has": 756,
    "▁fitting": 28221,
    "▁scene": 9088,
    "t": 29873,
    "▁favorite": 25448,
    "hem": 8008,
    "▁content": 2793,
    "çais": 6899,
    "ipping": 17347,
    "lar": 4675,
    "▁Hermann": 18033,
    "▁adopted": 16356,
    "öffentlich": 26207,
    "▁Попис": 27645,
    "▁wat": 16699,
    "▁apple": 26163,
    "oba": 15330,
    "▁resta": 24450,
    "▁'.": 15300,
    "CTYPE": 20014,
    "g": 29887,
    "ow": 340,
    "<0x98>": 155,
    "▁soort": 8615,
    "▁configurations": 22920,
    "CAT": 23972,
    "ld": 430,
    "▁closer": 17649,
    "▁pays": 9744,
    "▁Géographie": 27770,
    "▁reg": 1072,
    "▁translated": 20512,
    "▁residents": 24060,
    "etailed": 11881,
    "ous": 681,
    "م": 30159,
    "▁Bor": 6780,
    "▁кам": 28689,
    "▁вз": 25505,
    "▁road": 6520,
    "▁bucket": 20968,
    "▁Резултати": 27061,
    "▁defect": 23503,
    "面": 30806,
    "▁заме": 24256,
    "▁reality": 16832,
    "▁poem": 26576,
    "▁Odkazy": 28263,
    "ENV": 25838,
    "Port": 2290,
    "▁role": 6297,
    "▁cho": 3060,
    "itan": 8929,
    "ческой": 16576,
    "▁monde": 9122,
    ";`": 10367,
    "▁silly": 24866,
    "▁July": 5468,
    "▁rescue": 26429,
    "=\\\"": 14672,
    "▁Boolean": 11185,
    "▁iterations": 24372,
    "venue": 9947,
    "xsl": 7836,
    "tte": 24087,
    "BeanFactory": 24793,
    "commands": 26381,
    "ющий": 16059,
    "▁sever": 2775,
    "KE": 6059,
    "▁desen": 17320,
    "▁Control": 11264,
    "vens": 9852,
    "orial": 9020,
    "вы": 4938,
    "后": 30822,
    "textarea": 20433,
    "bund": 16293,
    "▁cabin": 28830,
    "▁aproxim": 22422,
    "зм": 21346,
    "▁Sem": 9444,
    "▁Нов": 27527,
    "orem": 3668,
    "▁anger": 27343,
    "▁justice": 15426,
    "object": 3318,
    "pher": 8096,
    "▁slice": 22780,
    "▁dob": 20129,
    "iewer": 15580,
    "скими": 21593,
    "modal": 15601,
    "▁wordpress": 20734,
    "itu": 1981,
    "▁Fed": 17972,
    "Br": 12432,
    "智": 31676,
    "▁consum": 11233,
    "▁Milit": 11544,
    "рё": 18535,
    "唐": 31932,
    "cler": 12121,
    "force": 10118,
    "▁aircraft": 15780,
    "▁passe": 21714,
    "verte": 25996,
    "лё": 13459,
    "▁Che": 6561,
    "usage": 21125,
    "Mail": 14925,
    "ἐ": 30571,
    "thesis": 26533,
    "rv": 15291,
    "▁Justice": 17181,
    "▁ха": 13422,
    "▁Lew": 11906,
    "ціаль": 26499,
    "▁армии": 24164,
    "och": 2878,
    "ryption": 14272,
    "▁Ni": 15981,
    "▁péri": 13943,
    "▁fear": 8866,
    "pattern": 11037,
    "▁<-": 3705,
    "▁jo": 2958,
    "ydro": 11279,
    "ето": 25930,
    "▁бе": 9648,
    "▁Mitglied": 12704,
    "cord": 16090,
    "▁url": 3142,
    "▁Folge": 18587,
    "domain": 7247,
    "▁birds": 17952,
    "anne": 11276,
    "ollar": 26810,
    "land": 1049,
    "▁pg": 23822,
    "context": 4703,
    "TABLE": 21009,
    "ič": 8953,
    "▁др": 9433,
    "▁recall": 17386,
    "▁vous": 7890,
    "stal": 11195,
    "skiej": 8779,
    "▁november": 14530,
    "▁cos": 6776,
    "▁Guillaume": 28384,
    "CUR": 22484,
    "Boot": 20967,
    "≃": 31224,
    "▁starting": 6257,
    "них": 3065,
    "▁succ": 8348,
    "▁beginning": 6763,
    "▁beiden": 13066,
    "кономі": 29426,
    "▁aan": 4711,
    "▁confir": 12388,
    "▁travel": 9850,
    "▁seul": 20536,
    "沙": 31476,
    "^(": 23733,
    "▁etc": 2992,
    "ron": 1617,
    "▁acknow": 18145,
    "Price": 13026,
    "▁resource": 6503,
    "▁Current": 9626,
    "▁enfor": 24555,
    "▁Village": 24720,
    "een": 27294,
    "▁Operation": 20462,
    "▁obras": 20589,
    "шой": 27457,
    "▁finds": 14061,
    "保": 30982,
    "▁comport": 20299,
    "▁forget": 9566,
    "ql": 1519,
    "Age": 22406,
    "▁віці": 28791,
    "▁Msg": 28264,
    "▁Kra": 19387,
    "▁meat": 27654,
    "▁minute": 11015,
    "▁optimized": 27545,
    "▁юго": 28162,
    "aving": 5555,
    "braio": 18206,
    "Ab": 4920,
    "result": 2914,
    "jan": 8931,
    "гда": 9077,
    "▁literally": 22830,
    "▁Gar": 7455,
    "is": 275,
    "Path": 2605,
    "▁entropy": 24687,
    "상": 31158,
    "fit": 9202,
    "▁même": 6701,
    "website": 22942,
    "▁object": 1203,
    "▁hoog": 24614,
    "╠": 30841,
    "▁sido": 11336,
    "▁Organisation": 25783,
    "endencia": 28139,
    "▁celle": 14344,
    "▁Convention": 26774,
    "reshold": 12268,
    "▁étant": 19154,
    "此": 31389,
    "othèque": 6539,
    "Sol": 13296,
    "Drag": 23978,
    "тет": 13562,
    "CM": 24494,
    "Ste": 7789,
    "see": 4149,
    "▁Febru": 4232,
    "uellement": 27751,
    "Character": 20755,
    "▁recre": 28709,
    "▁expected": 3806,
    "ail": 737,
    "Windows": 7685,
    "▁искус": 21073,
    "▁Ale": 7801,
    "▁Hugh": 15888,
    "hol": 5391,
    "TT": 19988,
    "▁Cultura": 29685,
    "▁voc": 7931,
    "▁Jes": 8524,
    "▁membership": 28512,
    "HOST": 20832,
    "▁personas": 17461,
    "Java": 8404,
    "fern": 24023,
    "ed": 287,
    "стем": 18773,
    "▁Monday": 27822,
    "▁identify": 12439,
    "ence": 663,
    "▁directive": 17041,
    "▁relative": 6198,
    "ССР": 10885,
    "▁magnetic": 15611,
    "putation": 14584,
    "▁estar": 23673,
    "▁environ": 12471,
    "▁Ren": 7493,
    "▁Bis": 16818,
    "NaN": 19377,
    "▁quan": 29195,
    "▁Rod": 7733,
    "icon": 4144,
    "emon": 9857,
    "▁Notre": 24337,
    "▁subset": 11306,
    "▁Tournament": 29427,
    "ührt": 26781,
    "rix": 2126,
    "▁looked": 5148,
    "autres": 14559,
    "失": 31369,
    "jekte": 29390,
    "ivil": 5341,
    "▁idő": 29260,
    "▁});\r": 24426,
    "▁GNU": 15143,
    "http": 1124,
    "▁Range": 12146,
    "walk": 20919,
    "▁Types": 28025,
    "▁соста": 15553,
    "▁IR": 23292,
    ";\\": 10436,
    "цер": 17267,
    "\"": 29908,
    "commons": 22382,
    "▁Taiwan": 27807,
    "▁hopefully": 27581,
    "▁accepts": 21486,
    "va": 1564,
    "▁irre": 19950,
    "▁DNA": 25348,
    "City": 16885,
    "lower": 13609,
    "éter": 26283,
    "дь": 10826,
    "вшие": 28429,
    "▁wp": 19247,
    "ibm": 29690,
    "▁Encyclopedia": 18791,
    "▁Dabei": 26034,
    "▁Kot": 27961,
    "Def": 3206,
    "Common": 18877,
    "▁transformations": 29304,
    "▁wire": 8014,
    "ள": 31715,
    "ição": 12556,
    "where": 3062,
    "▁ligne": 7330,
    "▁ced": 29289,
    "indows": 2054,
    "▁sant": 20877,
    "▁Edwards": 29174,
    "üll": 10962,
    "bres": 16105,
    "ний": 2332,
    "▁courage": 19872,
    "ограф": 21618,
    "/>": 3779,
    "ogen": 6352,
    "▁Philippe": 18442,
    "▁Ident": 13355,
    "▁Frankreich": 22253,
    "url": 2271,
    "sharp": 22064,
    "<0xFA>": 253,
    "▁неза": 18972,
    "énd": 21183,
    "▁souvent": 18484,
    "▁FA": 13515,
    "▁fn": 7876,
    "urale": 27730,
    "mo": 4346,
    "usz": 10958,
    "▁Catal": 11732,
    "周": 31109,
    "▁års": 21948,
    "ary": 653,
    "▁precis": 12132,
    "▁change": 1735,
    "▁г": 1214,
    "▁gateway": 28646,
    "▁letzten": 21202,
    "▁první": 29843,
    "▁Roberts": 27253,
    "▁Greg": 12051,
    "hire": 14812,
    "dirname": 25721,
    "Ν": 30530,
    "▁Press": 5254,
    "annels": 12629,
    "lient": 1593,
    "ował": 7231,
    "▁transform": 4327,
    "▁ки": 8094,
    "mysq": 19268,
    "();\r": 14078,
    "usement": 22527,
    "▁dalle": 19078,
    "▁pairs": 11000,
    "cellation": 22603,
    "ark": 935,
    "plain": 24595,
    "\"]": 3108,
    "▁}}": 9156,
    "жение": 11567,
    "▁Constant": 28601,
    "▁Either": 20370,
    "IOS": 25925,
    "uments": 9331,
    "▁===": 6805,
    "ład": 8650,
    "▁className": 22030,
    "▁wrapped": 21021,
    "sound": 29802,
    "▁Terminal": 29175,
    "êtes": 22730,
    "▁col": 784,
    "lus": 12160,
    "秋": 31569,
    "▁omitted": 25811,
    "▁Jones": 10920,
    "テ": 30572,
    "yd": 2941,
    "▁d": 270,
    "▁Españ": 29046,
    "▁Refer": 4118,
    "Щ": 30186,
    "region": 12803,
    "aggreg": 26193,
    "}}$": 7920,
    "▁tun": 18515,
    "OUT": 12015,
    "▁menor": 26764,
    "bool": 11227,
    "▁lit": 11872,
    "▁migr": 9725,
    "šč": 24832,
    ")).": 8106,
    "▁torraste": 28647,
    "▁faster": 8473,
    "▁Martí": 25459,
    "▁Virgin": 9167,
    "▁Parlament": 23608,
    "oteca": 19011,
    "▁територ": 25336,
    "orney": 25252,
    "▁рай": 5077,
    "Nov": 25363,
    "▁Reyn": 28555,
    "entr": 14856,
    "axi": 20593,
    "▁ihrer": 11448,
    "▁hors": 11231,
    "▁intend": 24042,
    "ék": 5859,
    "▁Bayer": 21727,
    "Cost": 25733,
    "▁також": 10361,
    "▁sy": 9878,
    "▁cependant": 26876,
    "ipe": 15705,
    "▁Mun": 13564,
    "eq": 1837,
    "▁mode": 4464,
    "▁Вол": 29092,
    "▁высо": 15804,
    "дів": 15235,
    "Visual": 16227,
    "▁commission": 12969,
    "ieu": 9532,
    "▁Congress": 11559,
    "▁Wh": 806,
    "look": 6914,
    "▁hes": 19066,
    "▁pulled": 20043,
    "▁papers": 15055,
    "▁Based": 16564,
    "▁Domain": 28460,
    "▁Unit": 13223,
    "▁polynomial": 10159,
    "Static": 17046,
    "vo": 1365,
    "▁otra": 19744,
    "▁enjoyed": 27849,
    "стве": 9374,
    "▁Мак": 29803,
    "▁Georges": 18604,
    "▁мето": 20148,
    "▁persu": 20408,
    "ona": 2681,
    "cke": 10055,
    "ур": 5179,
    "▁>>>": 8653,
    "▁FC": 7992,
    "▁že": 15304,
    "▁parameters": 4128,
    "▁fasc": 21028,
    "▁effect": 2779,
    "itto": 20435,
    "ܐ": 31421,
    "irls": 9968,
    "▁entering": 18055,
    "▁Back": 7437,
    "olog": 1189,
    "▁Hof": 15599,
    "▁slow": 5232,
    "▁chemin": 26786,
    "▁gründ": 27921,
    "▁understood": 11098,
    "▁внут": 27165,
    "▁Hello": 15043,
    "TIME": 15307,
    "女": 30647,
    "device": 10141,
    "arto": 22171,
    "called": 13998,
    "▁smart": 15040,
    "▁seule": 25642,
    "¾": 30642,
    "▁du": 868,
    "▁sea": 7205,
    "▁/*": 4949,
    "tes": 2167,
    "elles": 4999,
    "▁Konst": 22323,
    "erm": 837,
    "▁freedom": 16082,
    "uale": 18634,
    "们": 31381,
    "▁pray": 12475,
    "▁lange": 20516,
    "▁Background": 16585,
    "▁spot": 9758,
    "_*": 24563,
    "cem": 19335,
    "有": 30417,
    "ew": 809,
    "▁index": 2380,
    "▁изу": 29307,
    "ubuntu": 8767,
    "famil": 8302,
    "▁wen": 12987,
    "▁heter": 25745,
    "▁Hospital": 15967,
    "HS": 14851,
    "pisode": 12907,
    "▁loads": 15376,
    "пол": 9518,
    "поль": 18360,
    "č": 30026,
    "ivatal": 26615,
    "▁américain": 17153,
    "фек": 18201,
    "airs": 7121,
    "▁quartier": 29553,
    "iges": 13541,
    "▁Height": 22907,
    "▁Heidel": 27300,
    "▁invited": 23610,
    "ἰ": 30985,
    "▁Yam": 22740,
    "ral": 1705,
    "▁bajo": 13085,
    "ema": 2603,
    "▁jour": 8694,
    "▁interpol": 20064,
    "Sql": 10520,
    "?": 29973,
    ")>": 15410,
    "▁ст": 2091,
    "▁Detroit": 25749,
    "▁более": 13388,
    "▁stops": 17726,
    "================": 9166,
    "̈": 31719,
    "agrant": 29592,
    "▁Flag": 28697,
    "▁Ens": 22521,
    "lessly": 23769,
    "�": 30140,
    "datab": 29503,
    "gy": 1927,
    "Session": 7317,
    "Shift": 29657,
    "▁already": 2307,
    "▁clarify": 15544,
    "▁ils": 11797,
    "LIC": 27888,
    "ONG": 20614,
    "▁swo": 16768,
    "ющи": 6443,
    "▁Bit": 18531,
    "说": 31639,
    "кли": 24018,
    "▁myst": 16624,
    "enig": 19197,
    "▁cor": 1034,
    "ppe": 4798,
    "▁Tor": 4794,
    "▁Cond": 11790,
    "▁plugins": 18224,
    "ainer": 4008,
    "▁Stone": 15681,
    "üt": 6621,
    "▁topic": 11261,
    "▁%),": 29385,
    "ん": 30389,
    "▁pół": 21232,
    "else": 2870,
    "助": 31931,
    "▁calm": 21732,
    "▁станови": 13559,
    "ings": 886,
    "partial": 3846,
    "▁Character": 26804,
    "▁consistent": 13747,
    "burgh": 13903,
    "▁views": 8386,
    "▁Parker": 24239,
    "▁M": 341,
    "▁cyl": 20396,
    "verk": 24484,
    "▁Holz": 26211,
    "▁something": 1554,
    "HC": 19127,
    "▁pul": 9505,
    "▁students": 8041,
    "▁developed": 8906,
    "▁requ": 5054,
    "Parser": 11726,
    "▁То": 7624,
    "▁divers": 6894,
    "}{(": 19048,
    "▁mucho": 27176,
    "▁числе": 23999,
    "train": 14968,
    "▁laat": 23385,
    "た": 30366,
    "struct": 4984,
    "ikel": 14258,
    "%;": 8874,
    "▁gau": 13395,
    "tit": 23545,
    "ieving": 15387,
    "▁videos": 19707,
    "▁международ": 25075,
    "È": 30141,
    "ád": 7461,
    "▁Während": 19609,
    "▁sem": 3031,
    "▁Firebase": 17731,
    "▁sei": 13106,
    "ब": 31012,
    "▁contiene": 8651,
    "ű": 30089,
    "泰": 31988,
    "▁Ba": 6000,
    "▁HTML": 4544,
    "geme": 19371,
    "entre": 14056,
    "eil": 23270,
    "▁sensor": 23530,
    "▁Nie": 19166,
    "▁compart": 29078,
    "朝": 31163,
    "ѝ": 30349,
    "лн": 22519,
    "zyst": 25759,
    "چ": 30905,
    "imat": 15840,
    "▁sci": 4560,
    "▁най": 11714,
    "▁Mov": 14104,
    "<0x79>": 124,
    "fileName": 28926,
    "▁software": 7047,
    "Site": 17033,
    "oor": 16946,
    "Assert": 14697,
    "▁Liber": 10895,
    "동": 31000,
    "▁feelings": 21737,
    "▁contact": 6958,
    "çu": 24359,
    "▁wr": 2358,
    "video": 9641,
    "▁seinem": 10294,
    "▁район": 12518,
    "illas": 21338,
    "▁Chine": 29142,
    "▁LA": 17900,
    "▁Key": 7670,
    "NUM": 13967,
    "empty": 6310,
    "ния": 1587,
    "Anchor": 24458,
    "dbc": 11140,
    "px": 1756,
    "▁----": 23250,
    "▁bom": 18523,
    "DateFormat": 29795,
    "▁Madame": 18080,
    "├": 30188,
    "▁takes": 4893,
    "მ": 30677,
    "CHAR": 11282,
    "ishment": 18310,
    "ови": 1928,
    "isc": 10669,
    "▁Keep": 19152,
    "quel": 13295,
    "њу": 23742,
    "]=": 13192,
    "▁kin": 19015,
    "orders": 20488,
    "▁Kultur": 14390,
    "▁dummy": 20254,
    "▁эк": 18796,
    "▁inne": 26451,
    "lek": 28508,
    "▁Raum": 24831,
    "▁desc": 5153,
    "▁team": 3815,
    "▁temps": 8714,
    "▁hope": 4966,
    "rizona": 21198,
    "▁образова": 16362,
    "▁світ": 29597,
    "ym": 962,
    "▁инте": 26133,
    "▁flower": 28149,
    "▁prison": 8475,
    "oses": 15806,
    "▁Fal": 12941,
    "вой": 11318,
    "тел": 11186,
    "Typ": 24933,
    "▁dere": 14923,
    "ез": 5836,
    "▁causa": 13485,
    "▁ex": 429,
    "=$": 6080,
    "atie": 9474,
    "▁typed": 13033,
    "vote": 15814,
    "▁Pablo": 24770,
    "цен": 14236,
    "▁Carlo": 15021,
    "▁deutschen": 13806,
    "rw": 13975,
    "▁laws": 14243,
    "▁Libert": 25421,
    "▁hebben": 18339,
    "▁я": 2282,
    "▁graphics": 18533,
    "▁fo": 1701,
    "▁actors": 29701,
    "LINE": 18521,
    "jets": 27499,
    "*}": 4044,
    "рой": 6318,
    "▁▁▁▁▁▁▁▁▁▁▁▁▁▁▁": 18884,
    "uliar": 17709,
    "irat": 13481,
    "iale": 4379,
    "apped": 17280,
    "▁Дми": 23229,
    "▁Tre": 6479,
    "জ": 31537,
    "punkt": 19294,
    "▁Same": 19491,
    "temperaturen": 16013,
    "month": 10874,
    "vis": 1730,
    "child": 5145,
    "▁hierarchy": 21277,
    "▁affect": 6602,
    "で": 30499,
    "oun": 1309,
    "▁Maven": 26435,
    "▁April": 3786,
    "sort": 6605,
    "▁Pen": 7363,
    "DU": 14849,
    "ite": 568,
    "": 30344,
    "substring": 20363,
    "▁wall": 10090,
    "▁htt": 1143,
    "col": 1054,
    "Cookie": 24914,
    "▁Bey": 18502,
    "ō": 30099,
    "leton": 11285,
    "ა": 30272,
    "▁${\\": 7555,
    "▁embar": 21620,
    "enst": 25059,
    "▁Jahres": 19787,
    "▁Professional": 20031,
    "▁identical": 13557,
    "akh": 19426,
    "umerate": 11351,
    "▁Militär": 26212,
    "<0x38>": 59,
    "products": 14456,
    "<0x84>": 135,
    "Region": 18457,
    "▁sends": 16003,
    "Year": 12883,
    "▁Past": 19793,
    "▁partidos": 28122,
    "▁см": 15800,
    "▁chron": 17168,
    "▁circular": 19308,
    "▁már": 14434,
    "Mal": 22995,
    "▁token": 5993,
    "zing": 19583,
    "▁cross": 4891,
    "Local": 7717,
    "路": 30874,
    "leveland": 26326,
    "▁Button": 11025,
    "Gui": 28707,
    "▁Space": 14121,
    "▁oft": 18941,
    "专": 31756,
    "▁del": 628,
    "gress": 3663,
    "▁happened": 9559,
    "▁mole": 13206,
    "▁communities": 23507,
    "respons": 26679,
    "ondo": 18592,
    "ką": 25578,
    "▁Lob": 27741,
    "▁Hy": 9665,
    "▁General": 4593,
    "▁authorization": 28733,
    "kap": 21474,
    "▁Neg": 12610,
    "▁winner": 19576,
    "мери": 8352,
    "Contact": 13443,
    "▁virtue": 27935,
    "áv": 10025,
    "▁func": 3653,
    "ný": 16484,
    "rt": 2273,
    "Volume": 24679,
    "braries": 8464,
    "▁Ich": 15158,
    "ت": 30195,
    "▁Autor": 15811,
    "▁представ": 11876,
    "White": 21823,
    "phone": 6710,
    "nection": 3559,
    "▁Prés": 29310,
    "se": 344,
    "zi": 2526,
    "{\"": 6377,
    "src": 4351,
    "▁territory": 20123,
    "ams": 2232,
    "▁cette": 5278,
    "▁urban": 17164,
    "alog": 27330,
    "▁ul": 9238,
    "izo": 11411,
    "Foot": 13440,
    "▁Ira": 21375,
    "▁nim": 21930,
    "mpeg": 20856,
    "▁Fif": 29008,
    "icing": 18499,
    "▁chang": 1874,
    "▁advise": 22939,
    "<=": 14065,
    "andenburg": 24096,
    "Intent": 10286,
    "▁Writ": 16849,
    "▁lamp": 28692,
    "▁Germania": 26789,
    "??": 8773,
    "▁Label": 15796,
    "▁IX": 16841,
    "ом": 9530,
    "▁campus": 24165,
    "multicol": 14155,
    "▁Лон": 29774,
    "▁episodes": 23238,
    "usa": 11326,
    "▁Speed": 24839,
    "<0xFB>": 254,
    "▁carriage": 23840,
    "вания": 22185,
    "jav": 9494,
    "icum": 29381,
    "▁Glo": 21806,
    "bare": 18354,
    "anton": 11960,
    "вро": 8627,
    "Connect": 17918,
    "▁billion": 24464,
    "▁Schul": 12988,
    "▁challeng": 18066,
    "á": 29976,
    "ør": 10181,
    "guez": 26057,
    "▁volont": 24792,
    "isme": 6386,
    "ья": 14252,
    "vé": 12491,
    "Inject": 28329,
    "WOR": 11686,
    "▁wicht": 21393,
    "▁‘": 5129,
    "需": 31383,
    "VD": 10699,
    "▁ace": 21643,
    "▁drums": 28987,
    "▁eig": 15761,
    "▁Sec": 5356,
    "imm": 6727,
    "▁Anne": 10558,
    "fb": 14943,
    "及": 31436,
    "▁collabor": 11465,
    "heel": 10552,
    "▁confront": 21751,
    ".__": 17255,
    "{#": 24547,
    "▁Ful": 23004,
    "iginal": 5635,
    "▁clearer": 26135,
    "arg": 1191,
    "omorphism": 14143,
    "▁tir": 19493,
    "▁тради": 24090,
    "^": 29985,
    "zyż": 27551,
    "▁cuales": 28276,
    "ume": 2017,
    "▁tile": 25900,
    "শ": 31686,
    "▁NR": 27759,
    "▁tutorials": 25410,
    "werke": 28904,
    "inde": 25201,
    "ض": 30624,
    "▁zweite": 27454,
    "▁stretch": 16116,
    "▁Buen": 15463,
    "psilon": 3232,
    "▁ih": 4686,
    "▁ingår": 6723,
    "yi": 25675,
    "▁attribute": 5352,
    "▁Zh": 27134,
    "Rob": 21860,
    "▁Stanley": 21631,
    "si": 1039,
    "нд": 14651,
    "▁franch": 23272,
    "▁props": 17761,
    "▁матери": 20649,
    "เ": 30401,
    "▁Frau": 16547,
    "Ass": 7900,
    "▁accompanied": 21302,
    "▁tit": 4329,
    "_\\": 3187,
    "▁Koch": 25911,
    "▁ion": 16346,
    "erst": 15714,
    "!\\": 9903,
    "▁militare": 29041,
    "▁complicated": 12092,
    "intellij": 28820,
    "ousin": 17790,
    "▁Ла": 8601,
    "▁още": 29521,
    "ares": 5114,
    "!'": 20714,
    "оз": 29495,
    "云": 31784,
    "▁own": 1914,
    "▁diagram": 13722,
    "Kind": 11885,
    "▁th": 266,
    "▁epis": 6010,
    "latest": 12333,
    "lier": 4926,
    "▁allocated": 19591,
    "argo": 7921,
    "'''": 12008,
    "kern": 22178,
    "BS": 9851,
    "gat": 28818,
    "AndroidRuntime": 12746,
    ")\r": 8443,
    "▁fins": 16449,
    "odor": 17606,
    "ScrollView": 28556,
    "▁Sund": 12009,
    "voir": 7869,
    "▁Adv": 25215,
    "▁Ils": 16932,
    "ヨ": 31958,
    "ogn": 3811,
    "FI": 3738,
    "bah": 28758,
    "無": 31209,
    "ops": 3554,
    "▁Pir": 16937,
    "▁поме": 27724,
    "府": 31260,
    "▁sr": 27236,
    "▁who": 1058,
    "▁bild": 14071,
    "emo": 15810,
    "stru": 10582,
    "▁dol": 8828,
    "fico": 14894,
    "▁`\\": 6714,
    "enium": 23979,
    "▁addition": 6124,
    "deg": 12163,
    "▁viz": 25294,
    "▁Iowa": 25327,
    "▁toss": 28189,
    "ribu": 7741,
    "▁IE": 7159,
    "▁ag": 946,
    "Doc": 14526,
    "</": 829,
    "contents": 10853,
    "▁cached": 22152,
    "reci": 4361,
    "▁Mundial": 16060,
    "lö": 27575,
    "▁hung": 18757,
    "▁Gla": 19798,
    "家": 30613,
    "nd": 299,
    "▁Mé": 10275,
    "▁Bayern": 19584,
    "▁Madrid": 9669,
    "▁coordin": 6615,
    "▁coefficients": 16127,
    "▁gle": 27003,
    "nake": 21040,
    "ération": 10500,
    "▁fought": 20722,
    "▁carried": 8988,
    "▁настоя": 25737,
    "▁Urban": 22589,
    "one": 650,
    "▁CPU": 10808,
    "}+\\": 10869,
    "▁поча": 17155,
    "aya": 9010,
    "藤": 30804,
    "▁legal": 11706,
    "▁sum": 2533,
    "▁\\)": 21811,
    "▁primer": 7130,
    ":{": 26254,
    "▁пери": 13477,
    "▁mí": 26756,
    "▁Jak": 13669,
    "▁свобо": 29814,
    "urance": 18541,
    "bus": 8262,
    "▁Ne": 2448,
    "▁profes": 13091,
    "лово": 19071,
    "Account": 10601,
    "сан": 24901,
    "▁Roland": 24915,
    "▁throne": 27446,
    "urst": 26268,
    "astr": 7614,
    "ictures": 10373,
    "fully": 3730,
    "ि": 30436,
    "password": 5630,
    "чка": 10546,
    "fl": 1579,
    "▁pris": 19445,
    "▁week": 4723,
    "▁latest": 9281,
    "▁blieb": 23919,
    "▁university": 16372,
    "▁Nem": 18268,
    "ample": 981,
    "olare": 13517,
    "▁ле": 4674,
    "▁dear": 9425,
    "▁beg": 1812,
    "atted": 19667,
    "▁stabil": 16160,
    "▁hast": 14973,
    "结": 31320,
    "▁!": 1738,
    "▁SD": 8073,
    "▁eat": 17545,
    "▁Derby": 29520,
    "BO": 8456,
    "AppData": 27674,
    "кому": 21177,
    "看": 31811,
    "ické": 15510,
    "Enable": 20701,
    "ano": 1562,
    "▁original": 2441,
    "▁Ін": 20857,
    "▁bad": 4319,
    "developer": 6734,
    "servable": 12114,
    "▁compens": 22874,
    "afen": 24088,
    "▁nie": 4930,
    "▁Kansas": 20029,
    "▁Centro": 18726,
    "▁bol": 15772,
    "$_": 14630,
    "mis": 26737,
    "▁nast": 11777,
    "▁Device": 21830,
    "▁baseball": 21573,
    "érieure": 22673,
    "▁flush": 28371,
    "▁UNION": 25919,
    "▁Mean": 16316,
    "ющих": 17200,
    "▁Bras": 8793,
    "atype": 23179,
    "▁friendly": 19780,
    "▁Wissenschaft": 18359,
    "▁або": 15672,
    "▁translate": 14240,
    "▁Мексика": 26641,
    "icians": 14722,
    "▁Schiff": 22325,
    "DidLoad": 20127,
    "Cla": 20216,
    "▁щ": 28448,
    "▁Sé": 24919,
    "otto": 9693,
    "▁Week": 15511,
    "▁occident": 17543,
    "ỹ": 31755,
    "ках": 9666,
    "ĕ": 30808,
    "▁livre": 20207,
    "▁Нау": 25420,
    "ρ": 30147,
    "di": 6051,
    "▁Sales": 28389,
    "Runtime": 7944,
    "зда": 8728,
    "▁indent": 29536,
    "▁PA": 17687,
    "cle": 2841,
    "©": 30211,
    "▁Verwalt": 19764,
    "Mart": 15838,
    "mediate": 13847,
    "▁brand": 14982,
    "▁screen": 4315,
    "▁Com": 422,
    "씨": 31781,
    "▁personnes": 18554,
    "▁random": 4036,
    "▁Fair": 13822,
    "pg": 4061,
    "threads": 28993,
    "▁stage": 7408,
    "▁Phot": 19040,
    "▁mail": 10524,
    "род": 3463,
    "▁`:": 22507,
    "▁Bin": 27662,
    "▁immediate": 16800,
    "▁interpreted": 21551,
    "▁Marina": 27169,
    "▁Mel": 6286,
    "umen": 14170,
    "▁Narod": 24322,
    "▁operator": 5455,
    "▁thr": 1468,
    "bu": 2423,
    "▁guilty": 27719,
    "▁acht": 22019,
    "Document": 6268,
    "▁taken": 4586,
    "ünd": 5284,
    "dis": 2218,
    "зі": 11237,
    "▁трав": 17736,
    "▁Light": 12790,
    "▁artist": 7664,
    "zia": 19822,
    "▁Пе": 13870,
    "ані": 15264,
    "Config": 3991,
    "▁arrow": 16578,
    "KB": 26067,
    "▁Wik": 3772,
    "Stage": 27276,
    "首": 31688,
    "esses": 15322,
    "Draw": 8537,
    "war": 4495,
    "म": 30485,
    "partment": 8076,
    "▁Hamilton": 12372,
    "}[": 4400,
    "andr": 27177,
    "▁b": 289,
    "▁television": 11456,
    "────": 19820,
    "OL": 5607,
    "▁scenes": 20407,
    "ńcz": 26683,
    "agnostic": 21780,
    "▁locked": 22822,
    "itude": 4279,
    "아": 30860,
    "ケ": 30978,
    "autre": 18288,
    "▁cet": 15093,
    "素": 31605,
    "intendo": 28481,
    "Dec": 6185,
    "▁Тер": 26472,
    "▁actually": 2869,
    "Recognizer": 27475,
    "arian": 13956,
    "Diff": 26023,
    "ově": 27519,
    "∧": 30431,
    "▁dimensional": 22112,
    "quet": 12621,
    "elt": 2152,
    "while": 8000,
    "öt": 9618,
    "ждение": 27625,
    "▁деся": 26661,
    "ixon": 28778,
    "▁php": 3989,
    "ási": 23884,
    "▁unfortunately": 15428,
    "▁historiques": 24006,
    "ack": 547,
    "Lower": 19357,
    "▁division": 8542,
    "(&": 6243,
    "um": 398,
    "arc": 5666,
    "▁whether": 3692,
    "áj": 15005,
    "言": 31243,
    "ney": 3801,
    "▁más": 3627,
    "▁below": 2400,
    "atal": 2075,
    "▁scholar": 21344,
    "íz": 27916,
    "Hol": 19984,
    "ferrer": 3735,
    "▁response": 2933,
    "御": 31697,
    "ça": 4277,
    "▁galax": 15400,
    "scr": 10526,
    "apk": 16681,
    "iali": 24341,
    "▁Julian": 27180,
    "▁components": 7117,
    "ြ": 31801,
    "ши": 1911,
    "inth": 22653,
    "ряд": 11645,
    "Qual": 24399,
    "▁arise": 29030,
    "▁marca": 17363,
    "▁Springer": 26667,
    "▁world": 3186,
    "stock": 17712,
    "▁рік": 24696,
    "▁dwell": 24013,
    "▁Haut": 24838,
    "ubs": 23954,
    "updated": 21402,
    "▁valid": 2854,
    "utz": 7427,
    "▁dies": 2977,
    "▁servant": 21649,
    "<0xE4>": 231,
    "camera": 26065,
    "▁alguns": 25633,
    "YES": 21143,
    "▁Bishop": 16880,
    "▁succeed": 9269,
    "▁haber": 23086,
    "▁wild": 8775,
    "▁Ши": 25445,
    "▁Kenn": 13276,
    "ку": 1382,
    "▁@\"": 12490,
    "lès": 17210,
    "▁integers": 11920,
    "uetooth": 20930,
    "▁Information": 10343,
    "▁method": 1158,
    "▁quietly": 25970,
    "сто": 1578,
    "nahme": 18692,
    "▁ste": 1886,
    "ker": 3946,
    "▁password": 4800,
    "GEN": 24647,
    "▁fib": 18755,
    "osed": 2662,
    "▁Private": 12230,
    "▁Mol": 10750,
    "▁`'": 16218,
    "▁Kult": 26483,
    "▁Han": 7169,
    "▁czas": 15062,
    "▁facility": 24454,
    "▁awesome": 29663,
    "izin": 23111,
    "formance": 13390,
    "touch": 16747,
    "▁Anna": 11230,
    "▁Sto": 6639,
    "athol": 6347,
    "▁Garden": 19906,
    "▁personnel": 24127,
    "ése": 10237,
    "▁мона": 22727,
    "call": 4804,
    "nitt": 9898,
    "тора": 9011,
    "þ": 30340,
    "▁орган": 18374,
    "▁REST": 16759,
    "bullet": 18850,
    "▁mientras": 17947,
    "шлен": 28112,
    "own": 776,
    "▁Stra": 7357,
    "▁intersect": 25869,
    "▁bois": 23734,
    "çon": 15529,
    "photo": 21596,
    "ünstler": 17312,
    "As": 2887,
    "移": 31618,
    "zz": 5617,
    "▁thus": 4550,
    "▁című": 26773,
    "icale": 28148,
    "query": 1972,
    "▁Nar": 16080,
    "lé": 12898,
    "Collection": 7196,
    "▁Jer": 5677,
    "puis": 25628,
    "▁waste": 19863,
    "óż": 19497,
    "uchs": 19873,
    "ache": 1829,
    "FLA": 18823,
    "omi": 21019,
    "ipeline": 23828,
    "▁Basic": 19219,
    "▁sk": 2071,
    "▁Bern": 6209,
    "▁virtuel": 19419,
    "рь": 7474,
    "▁Ya": 25887,
    "quality": 29567,
    "Read": 6359,
    "pection": 27988,
    "▁argent": 19896,
    "▁trac": 16703,
    "лим": 15080,
    "▁loan": 24806,
    "▁city": 4272,
    "isation": 4371,
    "▁seconde": 26617,
    "▁guitar": 11210,
    "▁cold": 11220,
    "▁воз": 6849,
    "dem": 2310,
    "▁Archiv": 5522,
    "▁passer": 27962,
    "ónica": 26316,
    "▁$[": 11970,
    "adre": 7151,
    "voy": 18644,
    "▁externs": 26478,
    "attributes": 15697,
    "▁trasfer": 27370,
    "ían": 8202,
    "eg": 387,
    "▁convirti": 25546,
    "▁research": 5925,
    "▁req": 12428,
    "▁fellow": 10404,
    "▁projekt": 27213,
    "syn": 19274,
    "▁Teams": 23570,
    "entin": 15440,
    "▁permissions": 11239,
    "▁Rel": 6376,
    "▁sister": 9883,
    "=\".": 29569,
    "▁Personen": 15497,
    "column": 4914,
    "------": 22158,
    "▁usar": 28336,
    "▁ot": 4932,
    "сть": 2321,
    "▁Support": 18601,
    "▁Süden": 26585,
    "COL": 15032,
    "rolle": 28872,
    "▁correlation": 19869,
    "▁formerly": 21510,
    "▁doctrine": 22542,
    "ipp": 8377,
    "ography": 5275,
    "▁надмор": 20739,
    "▁Prince": 10787,
    "▁két": 23751,
    "▁eux": 23778,
    "jà": 16627,
    "▁protest": 10021,
    "SERVER": 18603,
    "▁Twe": 27637,
    "▁accum": 18414,
    "▁cred": 6625,
    "sub": 1491,
    "▁hack": 15833,
    "WIDTH": 22574,
    "mathchar": 22823,
    "▁targets": 22525,
    "zer": 3298,
    "▁А": 1291,
    "İ": 30243,
    "quez": 24661,
    "▁Ad": 2087,
    "tabular": 9456,
    "▁Selected": 22012,
    "INIT": 26019,
    "▁Fern": 7139,
    "▁editing": 16278,
    "жи": 1969,
    "▁ai": 7468,
    "▁Bog": 15872,
    "nom": 11522,
    "add": 1202,
    "▁вид": 21491,
    "?\"": 3026,
    "lime": 28046,
    "宇": 31503,
    "('.": 12839,
    "info": 3888,
    "<0x2A>": 45,
    "cido": 13321,
    "▁prisoners": 22979,
    "▁Lab": 12016,
    "▁im": 527,
    "▁paździer": 23795,
    "▁Сове": 29665,
    "▁Федерации": 29343,
    "Coll": 28377,
    "▁cur": 3151,
    "им": 9430,
    ">&": 19250,
    "▁Ak": 10813,
    "uur": 13692,
    "▁perché": 27671,
    "terne": 11154,
    "▁Option": 10831,
    "▁Guer": 8911,
    "▁integrated": 23387,
    "Home": 11184,
    "▁sni": 9830,
    "▁applying": 15399,
    "▁Atl": 8920,
    "▁therm": 14563,
    "elde": 16024,
    "ahren": 21446,
    "Ə": 31127,
    "blogs": 25762,
    "Process": 7032,
    "▁bug": 6494,
    "▁serv": 3348,
    "▁Sul": 13358,
    "esome": 14151,
    "TextField": 15778,
    "an": 273,
    "▁honor": 10657,
    "▁J": 435,
    "▁comenzó": 27712,
    "language": 11675,
    "Expression": 10960,
    "inois": 12387,
    "▁Anthony": 16477,
    "▁grew": 13631,
    "▁Heart": 17778,
    "▁answer": 1234,
    "▁octubre": 8644,
    "▁Associ": 6853,
    "▁opportun": 28602,
    "▁Select": 7605,
    "▁gehörte": 19976,
    "нва": 13245,
    "▁dign": 18085,
    "(['": 18959,
    "ared": 1965,
    "PG": 16903,
    "тиче": 7166,
    "char": 3090,
    "AI": 23869,
    "ней": 8150,
    "▁emphas": 19310,
    "template": 6886,
    "ife": 1607,
    "▁juni": 17340,
    "▁арти": 21564,
    "Engine": 12412,
    "▁ella": 16634,
    "вого": 16801,
    "т": 29932,
    "▁installing": 15476,
    "▁convert": 3588,
    "ета": 21366,
    "▁Lou": 4562,
    "ं": 30757,
    "М": 30017,
    "▁Історія": 27071,
    "▁Pent": 22901,
    "▁papa": 23872,
    "勝": 31721,
    "ifference": 17678,
    "coming": 11506,
    "zione": 4246,
    "▁Leonard": 26921,
    "▁recognized": 14831,
    "▁Paolo": 22207,
    "▁January": 5490,
    "▁App": 2401,
    "▁Pay": 14617,
    "▁tipo": 13306,
    "▁комму": 24486,
    "▁performing": 15859,
    "▁Ма": 3507,
    "▁fight": 8589,
    "▁ebenfalls": 17769,
    "öst": 15095,
    "cv": 11023,
    "filters": 26705,
    "▁Cheers": 29534,
    "anger": 4600,
    "regon": 22627,
    "▁или": 7082,
    "fer": 571,
    "provider": 18121,
    "####": 4136,
    "стра": 5242,
    "▁maggior": 22159,
    "▁Wes": 23976,
    "▁button": 2826,
    "▁Hand": 5166,
    "▁ayant": 17748,
    ": ": 4291,
    "∀": 30315,
    "▁camp": 4242,
    "▁explore": 26987,
    "▁entered": 7802,
    "hren": 13608,
    "黒": 31553,
    "Sym": 25548,
    "▁ach": 3657,
    "▁Ев": 25131,
    "▁CHECK": 23557,
    "▁System": 2184,
    "▁}{": 24333,
    "▁Niger": 20537,
    "▁fois": 10098,
    "▁deprecated": 18164,
    "▁seine": 6676,
    "▁yards": 17454,
    "faces": 8726,
    "∣": 31465,
    "▁extending": 23771,
    "▁Dy": 24526,
    "▁цього": 28184,
    "▁Colonel": 16893,
    "♯": 31114,
    "▁pc": 22844,
    "▁half": 4203,
    "▁Element": 10619,
    "ucky": 14395,
    "¢": 30650,
    ">\",": 28341,
    "▁где": 11270,
    "？": 30882,
    "ace": 815,
    "acht": 5860,
    "▁comb": 4145,
    "нов": 2835,
    "ա": 30251,
    "ข": 31310,
    "▁Ана": 22695,
    "esian": 18970,
    "cco": 26454,
    "cing": 3277,
    "▁#": 396,
    "ija": 8044,
    "англ": 6186,
    "▁utf": 23616,
    "▁unf": 29395,
    "▁hurried": 29117,
    "hed": 17143,
    "▁CV": 25778,
    "lei": 16301,
    "niej": 12532,
    "<0xF5>": 248,
    "▁pr": 544,
    "|\\": 4295,
    "▁board": 7613,
    "▁possess": 22592,
    "▁mater": 15875,
    "▁Live": 10782,
    "Repos": 10913,
    "cm": 4912,
    "edic": 7486,
    "▁introduction": 18707,
    "▁сентября": 16471,
    "▁reasons": 9590,
    "▁Beit": 23983,
    "▁EDIT": 11488,
    "▁guess": 4140,
    "ULL": 3299,
    "▁Updated": 25723,
    "▁fusion": 21736,
    "▁gest": 7737,
    "▁Cap": 5915,
    "veis": 27072,
    "▁TV": 5648,
    "▁Республи": 21087,
    "▁place": 2058,
    "▁brown": 17354,
    "▁planta": 27606,
    "े": 30569,
    "Multi": 15329,
    "ungen": 2469,
    "posta": 27363,
    "iful": 6845,
    "▁cargo": 17040,
    "ewnę": 14545,
    "mund": 15282,
    "кры": 10300,
    "sBy": 20966,
    "les": 793,
    "entries": 26586,
    "▁Has": 11699,
    "▁об": 1604,
    "▁Georg": 6158,
    "请": 31088,
    "▁recently": 10325,
    "out": 449,
    "ril": 4115,
    "▁Männer": 29760,
    "cret": 4838,
    "such": 14565,
    "▁learn": 5110,
    "▁região": 26275,
    "▁сбор": 16064,
    "authentic": 27218,
    "will": 14043,
    "ству": 8864,
    "▁hospital": 13457,
    "▁relation": 8220,
    "ties": 2938,
    "unnable": 21725,
    "▁Bul": 8313,
    "▁países": 23777,
    "▁Things": 28706,
    "▁every": 1432,
    "ע": 30324,
    "▁void": 1780,
    "▁Eq": 12345,
    "вя": 5543,
    "ohn": 6547,
    "▁Once": 9038,
    "tel": 28497,
    "▁Express": 14657,
    "figure": 4532,
    "▁теле": 13947,
    "eduler": 14952,
    "wald": 18370,
    "prevent": 18921,
    "ros": 1883,
    "лтати": 25229,
    "▁која": 28528,
    "▁socket": 9909,
    "▁legit": 25204,
    "▁collaboration": 24771,
    "▁comfortable": 25561,
    "▁производ": 21698,
    "▁größ": 13709,
    "ὀ": 31990,
    "▁bond": 21224,
    "▁isomorphism": 26116,
    "▁Nieder": 16501,
    "issen": 13119,
    "▁На": 2372,
    "▁Cs": 24277,
    "▁dil": 21749,
    "▁sua": 4171,
    "änner": 22120,
    "▁сле": 10535,
    "ellt": 9288,
    "▁logs": 10748,
    "▁evolution": 14675,
    "▁gets": 4947,
    "▁Николай": 29210,
    "ology": 3002,
    "jus": 18597,
    "▁instruments": 23643,
    "ugg": 12981,
    "〜": 31202,
    "▁советский": 25412,
    "▁Pal": 3793,
    "aw": 1450,
    "alf": 3131,
    "external": 23176,
    "ób": 17388,
    "л": 29944,
    "▁('": 6702,
    ";&": 25359,
    "last": 4230,
    "MR": 21055,
    "<0xAD>": 176,
    "▁Typ": 14213,
    "▁исто": 7874,
    "▁stycz": 21209,
    "▁zespo": 29679,
    "▁elements": 3161,
    "ents": 1237,
    "PA": 7228,
    "▁notre": 24145,
    "▁игра": 13781,
    "▁ше": 20116,
    "▁slight": 7248,
    ")'": 16029,
    "Qu": 2182,
    "rik": 5357,
    "▁Settings": 19215,
    "quer": 7808,
    "pp": 407,
    "▁positive": 6374,
    "▁them": 963,
    "IDE": 22027,
    "Argument": 15730,
    "▁exit": 6876,
    "▁either": 2845,
    "sequently": 27284,
    "▁segment": 10768,
    "Liter": 24938,
    "▁NSLog": 20384,
    "▁Brit": 3230,
    "▁concept": 6964,
    "▁Köln": 20763,
    "indi": 14108,
    "▁Studio": 7448,
    "▁Ah": 9070,
    "▁profession": 6351,
    "▁mentioned": 5276,
    "Hz": 12661,
    "ństw": 29698,
    "platz": 16739,
    "top": 3332,
    "▁disse": 29340,
    "▁dis": 766,
    "▁proxim": 23203,
    "ić": 13643,
    "▁dus": 28226,
    "window": 7165,
    "За": 15578,
    "collect": 15914,
    "ica": 983,
    "▁fee": 27684,
    "re": 276,
    "▁It": 739,
    "repo": 20095,
    "Tag": 8176,
    "▁Gonz": 27536,
    "ے": 31572,
    "ann": 812,
    "▁був": 11394,
    "▁bu": 1321,
    "gemeinde": 25474,
    "PRE": 15094,
    "▁Sint": 28889,
    "napshot": 14551,
    "Length": 6513,
    "usb": 28685,
    "aff": 3470,
    "des": 2783,
    "▁abb": 22195,
    "▁former": 4642,
    "она": 2953,
    "▁Ress": 12167,
    "Sp": 5592,
    "▁$.": 8184,
    "▁wanting": 24507,
    "▁Bach": 13620,
    "supported": 23765,
    "▁verf": 19020,
    "ivid": 3640,
    "<-": 16406,
    "arel": 17243,
    "ffic": 2416,
    "▁distinguished": 20660,
    "▁Each": 7806,
    "▁incl": 1343,
    "ellen": 4919,
    "there": 12711,
    "adors": 24549,
    "▁lets": 16869,
    "RS": 12445,
    "RGB": 28212,
    "Alpha": 28630,
    "▁their": 1009,
    "ède": 14785,
    "VB": 24281,
    "ac": 562,
    "Ed": 3853,
    "ھ": 31860,
    "atur": 1337,
    "}(\\": 4678,
    "стре": 11226,
    "▁inve": 22808,
    "▁}\\": 17704,
    "ighth": 18919,
    "▁Garc": 19734,
    "▁Marx": 28579,
    "źdz": 22755,
    "▁Father": 17852,
    "\\|_{": 22772,
    "▁fus": 16451,
    "▁\"-": 11663,
    "▁жі": 25872,
    "берг": 27872,
    "▁llamado": 27329,
    "Span": 15495,
    "go": 1484,
    "Sh": 2713,
    "▁XIX": 10634,
    "▁Town": 8421,
    "altra": 24079,
    "▁thats": 20952,
    "▁przew": 29699,
    "▁Str": 3767,
    "frent": 27380,
    "み": 30735,
    "PU": 7056,
    "cko": 27604,
    "▁cím": 22499,
    "zk": 7730,
    "itats": 28039,
    "▁SP": 10937,
    "▁kur": 12802,
    "▁tecn": 20790,
    "ioso": 27864,
    "▁diagonal": 19640,
    "▁duplicates": 20955,
    "ся": 1198,
    "browser": 15965,
    "▁Agent": 28330,
    "▁dog": 11203,
    "тета": 25313,
    "▁meeting": 11781,
    "▁conditional": 15047,
    "▁comple": 1614,
    "Hrsg": 10196,
    "▁hasta": 8012,
    "▁січня": 24708,
    "▁veloc": 9110,
    "▁Ill": 8408,
    "▁Ole": 26132,
    "默": 31735,
    "kov": 9756,
    "▁второй": 27619,
    "adows": 23626,
    "Þ": 30452,
    "coll": 22017,
    "▁Nau": 26700,
    "미": 31362,
    "avoir": 28619,
    "CAA": 22701,
    "Only": 11730,
    "ச": 31384,
    "▁Software": 18540,
    "▁screenshot": 17286,
    "ado": 912,
    "docs": 2640,
    "ames": 1280,
    "▁nasc": 29229,
    "фици": 28101,
    "`'": 20497,
    "▁storm": 14280,
    "▁Power": 9206,
    "rero": 8567,
    "Autow": 23527,
    "▁kwietnia": 27802,
    "<0xE3>": 230,
    "\\|": 7893,
    "▁PDO": 29820,
    "gestellt": 22436,
    "▁lattice": 24094,
    "▁konnte": 11589,
    "▁regret": 28883,
    "▁habían": 28670,
    "▁multimedia": 19004,
    "SH": 7068,
    "▁portrait": 21760,
    "▁seeking": 25738,
    "▁Host": 16956,
    "programming": 28426,
    "▁####": 3191,
    "▁parentheses": 29494,
    "▁assertion": 28306,
    "▁Р": 1483,
    "undle": 4730,
    "vy": 13308,
    "oca": 6400,
    "▁sull": 23416,
    "▁strings": 6031,
    "▁sulle": 28734,
    "ountry": 9729,
    "▁UK": 10261,
    "▁typical": 15662,
    "▁two": 1023,
    "theme": 18193,
    "Ready": 28181,
    "pus": 13364,
    "▁sentences": 25260,
    "▁регі": 29084,
    "▁hab": 2299,
    "▁equations": 10693,
    "iks": 29292,
    "det": 4801,
    "▁bo": 1045,
    "▁Bet": 6313,
    "▁ему": 22785,
    "meister": 11331,
    "▁zab": 22249,
    "osi": 8156,
    "avid": 16093,
    "▁drink": 13748,
    "]{": 3199,
    ")^{\\": 21422,
    "ensive": 6270,
    "▁donna": 23371,
    "▁tower": 19372,
    "▁гор": 24856,
    "▁Ho": 8335,
    "群": 31829,
    "▁both": 1716,
    "▁Avenue": 18874,
    "Append": 18277,
    "fade": 21675,
    "ltal": 26674,
    "onio": 14642,
    "▁increased": 11664,
    "▁even": 1584,
    "вропей": 29029,
    "▁Dia": 22866,
    "endi": 26464,
    "▁Sil": 5664,
    "nak": 8546,
    "▁Why": 3750,
    "▁Deutsch": 4493,
    "diction": 29467,
    "南": 30601,
    "parseInt": 25716,
    "ต": 30618,
    "Մ": 31575,
    "▁regards": 21778,
    "tasks": 20673,
    "▁observable": 25209,
    "▁...": 2023,
    "]=\"": 24927,
    "ങ": 30957,
    "▁Partido": 24202,
    "urer": 9945,
    "▁utility": 19725,
    "bm": 5838,
    "B": 29933,
    "▁Sea": 14070,
    "▁xcode": 24089,
    "öd": 9289,
    "folg": 10132,
    "hé": 19880,
    "||": 8876,
    "buff": 28040,
    "▁+": 718,
    "▁categorie": 25727,
    "icación": 29009,
    "▁``": 4954,
    "foreach": 13150,
    "▁През": 23763,
    "▁$(\\": 12211,
    "▁gained": 17515,
    "сса": 13637,
    "▁lak": 24591,
    "▁sites": 11840,
    "▁reaction": 19848,
    "oups": 4410,
    "▁Unless": 25870,
    "▁století": 27038,
    "▁MTV": 28982,
    "▁Wait": 20340,
    "▁casi": 22682,
    "<0xAF>": 178,
    "gi": 3146,
    "▁Low": 17511,
    "áš": 25784,
    "▁communes": 11984,
    "IndexPath": 27762,
    "▁Gu": 2088,
    "ided": 2618,
    "▁Års": 26338,
    "▁Optional": 28379,
    "▁hoping": 17231,
    "▁Inst": 2799,
    "Root": 10303,
    "imento": 6174,
    "⁸": 30695,
    "ב": 30276,
    "SSN": 13429,
    "▁Cand": 28433,
    "▁km": 2383,
    "▁Company": 6938,
    "▁tells": 10603,
    "▁sorrow": 28543,
    "▁refers": 14637,
    "▁cultiv": 18834,
    "▁blo": 6668,
    "útbol": 19498,
    "▁volunt": 27081,
    "▁letting": 27697,
    "rev": 13478,
    "▁aliment": 20196,
    "ovat": 23067,
    "|^": 15333,
    "▁Philipp": 12325,
    "▁cool": 12528,
    "чение": 12854,
    "▁restricted": 22078,
    "▁titled": 25278,
    "Resources": 13770,
    "▁furent": 24257,
    "▁Ме": 7074,
    "น": 30348,
    "av": 485,
    "iac": 13544,
    "Der": 15383,
    "": 31512,
    "ǔ": 30730,
    "▁Border": 20830,
    "jt": 22779,
    "▁APIs": 23649,
    "rip": 6472,
    "argin": 3930,
    "Rate": 19907,
    "ako": 4614,
    "▁Colleg": 7064,
    "▁апреля": 16550,
    "▁Ша": 16396,
    ">::": 21347,
    "Int": 2928,
    "▁ws": 16904,
    "<0xB2>": 181,
    "cn": 18038,
    "suit": 29658,
    "▁consider": 2050,
    "▁wind": 8805,
    "▁\"${": 11568,
    "тв": 23224,
    "▁dirett": 27410,
    "sson": 12371,
    "▁odkazy": 17871,
    "▁dependencies": 9962,
    "acions": 17249,
    "ently": 2705,
    "▁Georgia": 16762,
    "▁helps": 6911,
    "▁allo": 25169,
    "▁opened": 6496,
    "ąz": 14232,
    "oemd": 26852,
    "▁una": 1185,
    "▁disco": 17021,
    "lo": 417,
    "▁rather": 3265,
    "▁rub": 14051,
    "▁профес": 15240,
    "▁Sam": 3685,
    "adj": 26859,
    "▁fact": 2114,
    "▁Mississippi": 24743,
    "▁Thompson": 22348,
    "}\\,": 15379,
    "▁SN": 21989,
    "▁etwas": 23452,
    "▁пер": 4651,
    "▁substitute": 23764,
    "Dialog": 7647,
    "zor": 29015,
    "▁functionality": 9863,
    "▁север": 23967,
    "▁ober": 27543,
    "rest": 5060,
    "olly": 18368,
    "▁erm": 27398,
    "▁estudios": 29061,
    "▁induced": 20974,
    "▁fick": 22312,
    "iding": 4821,
    "ised": 3368,
    "simple": 12857,
    "▁conhe": 19028,
    "▁af": 2511,
    "ring": 5393,
    "▁seg": 2377,
    "prototype": 16309,
    "\">\r": 10175,
    "бри": 15035,
    "▁Johan": 25551,
    "{-": 8499,
    "▁Aqu": 16020,
    "▁common": 3619,
    "▁As": 1094,
    "▁Sk": 4971,
    "ük": 21495,
    "▁Jahre": 7095,
    "▁cuenta": 21052,
    "▁announ": 7475,
    "вся": 11362,
    "▁mai": 5530,
    "​": 30166,
    "était": 14386,
    "▁doll": 11232,
    "▁Oxford": 11045,
    "._": 3032,
    "frastr": 14867,
    "Action": 4276,
    "othing": 6046,
    "ial": 616,
    "azure": 17688,
    "▁Cow": 21638,
    "J": 29967,
    "sieme": 17339,
    "/-": 24028,
    "▁specification": 21992,
    "▁Prozent": 27163,
    "ється": 8272,
    "▁totalité": 22777,
    "говор": 24823,
    "▁havet": 18052,
    "<0xEE>": 241,
    "origin": 12574,
    "▁point": 1298,
    "▁Рес": 17337,
    "▁roku": 4042,
    "▁Ra": 6981,
    "▁bý": 24964,
    "osto": 5548,
    "location": 5479,
    "qu": 339,
    "▁latin": 25677,
    "sky": 7912,
    "ℓ": 31079,
    "führt": 19738,
    "▁For": 1152,
    "plit": 2830,
    "▁Aut": 5202,
    "▁soul": 10752,
    "▁terminal": 8638,
    "▁observe": 14111,
    "(\"\\": 14182,
    "operatorname": 9158,
    "湖": 31496,
    "▁kost": 23911,
    "pod": 15334,
    "▁departure": 25619,
    "lire": 15406,
    "▁Singapore": 25960,
    "▁dom": 2432,
    "xl": 15524,
    "();": 890,
    "원": 31198,
    "▁loi": 24228,
    "General": 15263,
    "лан": 4453,
    "inks": 19363,
    "▁Object": 4669,
    "▁sechs": 23320,
    "anges": 6916,
    ").": 467,
    "tern": 725,
    "SW": 23066,
    "▁leak": 24993,
    "ști": 15700,
    "▁ł": 27518,
    "▁Kay": 28444,
    "▁Lag": 16952,
    "▁singleton": 27130,
    "▁exemple": 17488,
    "▁після": 19904,
    "▁ці": 20004,
    "▁Hun": 16899,
    "чке": 27346,
    "setText": 12038,
    "▁Luther": 24760,
    "Video": 15167,
    "ijk": 13535,
    "ivos": 12927,
    "▁Tová": 29255,
    "▁там": 29112,
    "▁Alban": 21805,
    "ɫ": 31764,
    "acc": 5753,
    "urm": 17095,
    "▁commonly": 15574,
    "voke": 5744,
    "ît": 13871,
    "ting": 1259,
    "▁majority": 13638,
    "editor": 15204,
    "▁demol": 27745,
    "▁dozen": 24231,
    "▁Erst": 20329,
    "';": 2670,
    "▁les": 966,
    "Ἐ": 31769,
    "▁scri": 27438,
    "▁Ras": 25351,
    "prote": 14676,
    "itle": 1740,
    "lemma": 13846,
    "Lo": 3410,
    "▁Kat": 12553,
    "can": 3068,
    "If": 3644,
    "▁Ал": 18699,
    "▁pré": 7175,
    "▁Db": 24331,
    "▁urs": 19980,
    "Cur": 23902,
    "麻": 31846,
    "▁dues": 27447,
    "▁Similarly": 20175,
    "▁Kir": 5201,
    "itecture": 14819,
    "Make": 9984,
    "```": 28956,
    "▁accessed": 20592,
    "hu": 6905,
    "▁dov": 27698,
    "Di": 12130,
    "▁mé": 8774,
    "assador": 28760,
    "],": 1402,
    "▁sound": 6047,
    "▁wirk": 29335,
    "▁employ": 5703,
    "Receive": 24131,
    "bur": 8399,
    "视": 31568,
    "康": 31577,
    "▁transl": 5578,
    "▁dav": 13260,
    "▁anterior": 14123,
    "ában": 10326,
    "News": 29328,
    "sters": 23080,
    "▁Electric": 26953,
    "楽": 31739,
    "▁rect": 7705,
    "problem": 17199,
    "quit": 28358,
    "▁purch": 10596,
    "▁clim": 10784,
    "Cells": 13418,
    "▁där": 17032,
    "▁innoc": 21458,
    "▁poz": 14079,
    "▁Government": 10354,
    "▁Secretary": 17719,
    "വ": 30800,
    "rys": 18450,
    "ders": 8623,
    "textwidth": 11434,
    "▁covering": 21653,
    "▁étr": 23428,
    "oms": 4835,
    "▁assured": 28715,
    "î": 30058,
    "onomy": 21926,
    "ี": 30691,
    "▁Sci": 5636,
    "▁stood": 8389,
    "\\\\": 1966,
    "▁fon": 10866,
    "▁polski": 26685,
    "Attr": 25098,
    "▁п": 469,
    "▁mic": 20710,
    "tilde": 5891,
    "є": 30056,
    "▁terra": 15087,
    "owania": 18928,
    "Om": 5673,
    "plotlib": 17357,
    "État": 16061,
    "leased": 4611,
    "button": 3092,
    "ص": 30360,
    "▁kallaste": 26675,
    "▁ny": 7098,
    "望": 31839,
    "olo": 3543,
    "▁army": 9987,
    "órico": 26013,
    "▁repe": 5565,
    "pen": 2238,
    "▁gam": 24988,
    "Ḫ": 31672,
    "legend": 26172,
    "▁kir": 18990,
    "buffer": 9040,
    "Digital": 27103,
    "▁powerful": 13988,
    "▁Exit": 25954,
    "▁<?": 6319,
    "}>": 17428,
    "ammen": 7667,
    "▁Auth": 13189,
    "validation": 18157,
    "▁Muham": 27100,
    "▁flo": 5685,
    "▁interest": 4066,
    "replace": 6506,
    "▁pointer": 4879,
    "yan": 10094,
    "estion": 602,
    "Play": 13454,
    "arios": 8596,
    "▁автомо": 26528,
    "○": 31236,
    "ะ": 30823,
    ")){": 18840,
    "▁inici": 21855,
    "▁shapes": 25834,
    "edy": 7584,
    "ми": 989,
    "▁Feb": 26319,
    "▁Manager": 15629,
    "▁geme": 9412,
    "▁parte": 3810,
    "Assembly": 22400,
    "▁Források": 24631,
    "estic": 15931,
    "▁zá": 13758,
    "茶": 31954,
    "дно": 12869,
    "order": 2098,
    "▁dispatch": 13916,
    "▁exclaimed": 17463,
    "ERR": 21662,
    "tk": 11178,
    "▁removing": 11077,
    "omena": 28342,
    "CODE": 16524,
    ")}(": 22302,
    "bere": 13167,
    "▁studying": 23382,
    "▁total": 3001,
    "}(": 2119,
    "kö": 12910,
    "mid": 6563,
    "mee": 17897,
    "▁а": 1097,
    "▁base": 2967,
    "▁likely": 5517,
    "len": 2435,
    "сси": 6988,
    "▁Over": 6811,
    "▁årsnederbörd": 28649,
    "ா": 31015,
    "▁зі": 19938,
    "orno": 16378,
    "yme": 25395,
    "▁versione": 26670,
    "($_": 11081,
    "▁között": 18646,
    "▁Compet": 24620,
    "▁Unidos": 9726,
    "▁aw": 3773,
    "▁formats": 21971,
    "itative": 23378,
    "niu": 21399,
    "Tr": 2308,
    "▁orange": 24841,
    "▁devoted": 24600,
    "et": 300,
    "ork": 548,
    "<0xAC>": 175,
    "▁Kais": 14323,
    "▁hotel": 16730,
    "▁confused": 9613,
    "*.": 10521,
    "區": 31561,
    "▁Paz": 27437,
    "▁desar": 14896,
    "▁type": 1134,
    "archiv": 24121,
    "▁exchange": 14523,
    "Gr": 3338,
    "▁Aug": 22333,
    "▁reprodu": 9483,
    "▁mundo": 13864,
    "太": 30654,
    "sett": 9915,
    "WE": 8851,
    "wad": 13829,
    "jure": 16465,
    "jahr": 24939,
    "rug": 11124,
    "▁concerns": 21838,
    "imin": 8332,
    "cx": 18904,
    "Lng": 25852,
    "▁unterschied": 26802,
    "▁motiv": 17385,
    "▁Neder": 10584,
    "▁чолові": 21316,
    "▁dirig": 10487,
    "vision": 4924,
    "wner": 23007,
    "▁vor": 3764,
    "▁lean": 20793,
    "▁Vector": 16510,
    "про": 5945,
    "▁Whether": 26460,
    "antine": 20578,
    "▁moderne": 24635,
    "uncia": 28027,
    "▁signific": 4991,
    "▁sle": 12844,
    "orage": 6022,
    "▁să": 12381,
    "mile": 26763,
    "ites": 3246,
    "te": 371,
    "мати": 13576,
    "▁guys": 18239,
    "3": 29941,
    "Area": 13799,
    "▁goal": 7306,
    "slice": 18337,
    "▁susp": 8872,
    "▁ві": 8390,
    "TRUE": 20652,
    "▁Sein": 20505,
    "▁дво": 10332,
    "▁receives": 20586,
    "zien": 29397,
    "▁courts": 28033,
    "equality": 13895,
    "▁repub": 23465,
    "▁var": 722,
    "hein": 12880,
    "▁\"'": 13577,
    "Descriptor": 19124,
    "controller": 8299,
    "▁Borg": 20918,
    "algorithm": 20567,
    "▁Amts": 29189,
    "rm": 1758,
    "▁eingesetzt": 15979,
    "▁simulations": 23876,
    "Arg": 8559,
    "▁sow": 19687,
    "▁Гре": 27174,
    "ured": 2955,
    "▁продол": 20646,
    "zial": 10527,
    "aggio": 10044,
    "▁Wat": 14269,
    "joint": 12090,
    "法": 30545,
    "▁Hart": 12321,
    "ългар": 29713,
    "quent": 16011,
    "▁SUM": 22753,
    "学": 30415,
    "▁sobre": 4166,
    "▁warm": 14294,
    "rets": 27487,
    "▁messages": 7191,
    "▁leng": 28537,
    "ance": 749,
    "▁because": 1363,
    "▁Mod": 3382,
    "▁p": 282,
    "▁elle": 4875,
    "▁pointing": 13330,
    "Layout": 3453,
    "▁gev": 22407,
    "git": 5559,
    "AU": 25951,
    "▁minister": 11050,
    "▁doi": 13102,
    "Parent": 9780,
    "<s>": 1,
    "▁Samuel": 15316,
    "Valid": 7211,
    "▁patients": 22069,
    "▁anten": 25504,
    "AtIndexPath": 29809,
    "▁Naj": 18913,
    "▁#[": 14330,
    "pgf": 14918,
    "icate": 9593,
    "▁interested": 8852,
    "▁Bild": 11679,
    "Processor": 18689,
    "Rep": 5612,
    "▁Action": 9123,
    "▁stör": 19588,
    "ych": 3376,
    "▁tart": 13914,
    "anonymous": 25772,
    "▁Marcel": 16633,
    "▁Gött": 28703,
    "opf": 15818,
    "▁Paul": 3739,
    "▁will": 674,
    "alls": 4293,
    "uve": 15008,
    "▁PL": 16507,
    "VAR": 26865,
    "eggi": 28137,
    "ăt": 16998,
    "▁Jur": 16081,
    "▁row": 1948,
    "rey": 8903,
    "▁promised": 22399,
    "ánd": 8712,
    "enum": 18605,
    "▁political": 8604,
    "öld": 22077,
    "▁Ryan": 20916,
    "egos": 21024,
    "▁national": 4797,
    "andal": 24258,
    "nost": 6582,
    "▁raise": 12020,
    "answer": 12011,
    "▁char": 1373,
    "▁сель": 11823,
    "удо": 10903,
    "▁Boot": 13760,
    "▁ta": 11062,
    "ools": 8789,
    "irmingham": 28836,
    "▁ski": 14993,
    "onda": 14287,
    "知": 31043,
    "talet": 25319,
    "prüft": 22918,
    "▁white": 4796,
    "шо": 10093,
    "▁usage": 8744,
    "▁х": 4354,
    "oning": 28259,
    "Ë": 30949,
    "ails": 2234,
    "furt": 13065,
    "▁Card": 9160,
    "▁limitation": 29485,
    "▁rok": 28159,
    "▁Template": 25663,
    "▁status": 4660,
    "▁streams": 20873,
    "▁Expression": 21444,
    "▁Årsmed": 26734,
    "▁Lemma": 11894,
    "実": 31525,
    "▁subm": 11834,
    "▁Writing": 28676,
    "▁Externí": 17981,
    "}-": 7402,
    "anguage": 3000,
    "orte": 10069,
    "aily": 8683,
    "▁naturally": 18180,
    "▁k": 413,
    "▁separate": 5004,
    "endra": 25404,
    "▁az": 2698,
    "()}": 28296,
    "إ": 30754,
    "▁sentence": 10541,
    "emy": 6764,
    "lain": 7420,
    "able": 519,
    "ases": 2129,
    "чь": 19943,
    "▁perm": 3635,
    "QL": 2239,
    "andon": 9214,
    "▁`&": 28073,
    "▁Fer": 7756,
    "nia": 3915,
    "akult": 26189,
    "▁enem": 17377,
    "▁Gesch": 5009,
    "enden": 2162,
    "esper": 27749,
    "▁за": 1077,
    "▁Marian": 24236,
    "▁hills": 22696,
    "iedenis": 28440,
    "▁ide": 1957,
    "ctr": 9988,
    "ван": 3555,
    "ry": 719,
    "<0xCE>": 209,
    "anzen": 25611,
    "USER": 11889,
    "▁террито": 15365,
    ">();": 8295,
    "▁brought": 6296,
    "▁Asp": 26562,
    "▁posted": 8059,
    "ғ": 31077,
    "▁Apost": 22468,
    "▁Font": 10928,
    "▁finite": 8093,
    "▁anos": 14110,
    "sers": 4253,
    "▁Formula": 25515,
    "스": 30784,
    "▁AC": 14614,
    "▁found": 1476,
    "▁parliament": 22765,
    "▁czł": 21390,
    "▁Daniel": 8432,
    "▁repeat": 12312,
    "die": 16217,
    "телей": 11572,
    "ником": 14083,
    "gegeben": 27644,
    "▁nicely": 28138,
    "▁edit": 3863,
    "чи": 1499,
    "▁ru": 5796,
    "▁Geographic": 26304,
    "сня": 20703,
    "▁связи": 26874,
    "▁forec": 29821,
    "▁obt": 14403,
    "▁unnecess": 17128,
    "▁Det": 5953,
    "porter": 18505,
    "oder": 6119,
    "▁musical": 9636,
    "▁ně": 13362,
    "hal": 4077,
    "Generator": 21575,
    "▁Ald": 18242,
    "▁Berg": 9827,
    "rund": 29160,
    "▁konn": 11547,
    "Builder": 5627,
    "▁nos": 7814,
    "▁conseil": 27923,
    "▁UI": 3740,
    "▁powershell": 25532,
    "▁Sur": 6298,
    "▁Burg": 11202,
    "isa": 8069,
    "▁Sant": 4169,
    "ської": 7022,
    "▁With": 2973,
    "ště": 18856,
    "▁Hinter": 23305,
    "▁dinast": 28960,
    "▁kommun": 10433,
    "▁vice": 11289,
    "ремен": 13145,
    "▁Schles": 26416,
    "blue": 9539,
    "▁function": 740,
    "▁stock": 10961,
    "▁round": 4513,
    "üs": 23909,
    "▁controllers": 21385,
    "Material": 24095,
    "rend": 28759,
    "孝": 31875,
    "zet": 4975,
    "▁Под": 20266,
    "▁Always": 29849,
    "▁Rena": 21794,
    "ader": 1664,
    "▁tor": 4842,
    "▁wise": 19396,
    "cole": 10936,
    "sun": 11445,
    "▁premier": 7017,
    "▁handlers": 25795,
    "rec": 3757,
    "▁Neb": 19288,
    "▁powie": 24592,
    "Ա": 31011,
    "ierre": 6349,
    "▁Dorf": 17207,
    "галь": 23003,
    "jähr": 20460,
    "äu": 15583,
    "▁Specific": 21220,
    "rebbe": 22501,
    "▁Anti": 18473,
    "▁DLL": 22474,
    "<0x81>": 132,
    "▁війсь": 25858,
    "▁curv": 27686,
    ".~": 13217,
    "建": 30886,
    "戦": 30863,
    "▁Ray": 9596,
    "utes": 2667,
    "throw": 20539,
    "▁repet": 21159,
    "▁−": 13935,
    "plot": 5317,
    "▁burning": 25535,
    "leep": 5436,
    "▁funds": 29199,
    "▁samen": 22596,
    "話": 31812,
    "▁thumb": 28968,
    "ureau": 13411,
    "▁Hol": 4168,
    "Pan": 23684,
    "lin": 1915,
    "▁neut": 11553,
    "▁sotto": 17217,
    "ন": 30792,
    "ern": 824,
    "▁mon": 1601,
    "▁Poz": 18048,
    "ण": 31377,
    "▁properly": 6284,
    "▁Lap": 20298,
    "▁iz": 5951,
    "reverse": 24244,
    "▁ricon": 26365,
    "▁self": 1583,
    "▁Verm": 17589,
    "ì": 30097,
    "{[": 13970,
    "▁SS": 5886,
    "фри": 22190,
    "=${": 23339,
    "neh": 9113,
    "▁trabajo": 21844,
    "▁russe": 28280,
    "icile": 25123,
    "▁pm": 26354,
    "▁paths": 10898,
    "▁и": 606,
    "▁dynamically": 11200,
    "▁maj": 10067,
    "enda": 8395,
    "ल": 30603,
    "▁Mur": 7487,
    "comot": 23045,
    "შ": 31246,
    "▁otto": 15999,
    "▁Pe": 3938,
    "по": 1268,
    "▁wit": 12309,
    "▁кла": 9955,
    "session": 7924,
    "Button": 3125,
    "≈": 30583,
    "<0x5E>": 97,
    "Date": 2539,
    ".@": 21240,
    "▁Job": 17163,
    "▁paper": 5650,
    "}}$,": 27206,
    "▁however": 3138,
    "ἡ": 31598,
    "¨": 30399,
    "▁News": 10130,
    "ッ": 30317,
    "▁Russia": 12710,
    "▁gesture": 29502,
    "MQ": 25566,
    "▁За": 3982,
    "▁Barcelona": 12408,
    "▁Carter": 22264,
    "otted": 15048,
    "Simple": 15427,
    ")})": 26972,
    "▁Split": 26178,
    "lecht": 28941,
    "сут": 20684,
    "▁le": 454,
    "박": 31736,
    "根": 31393,
    "▁compression": 24221,
    "ceu": 22541,
    "י": 30196,
    "▁Bruno": 20975,
    "₄": 30194,
    "fe": 1725,
    "cedure": 26600,
    "ʁ": 30450,
    "▁Portugal": 12077,
    "postgresql": 29272,
    "▁dich": 12658,
    "▁Viv": 26089,
    "▁aver": 4759,
    "teenth": 19839,
    "▁example": 1342,
    "Ка": 17831,
    "cons": 3200,
    "iss": 790,
    "次": 30936,
    "▁Abd": 17860,
    "▁quindi": 19671,
    "▁implementing": 16049,
    "▁loro": 9905,
    "itet": 7369,
    "▁outras": 29119,
    "▁фев": 14262,
    "DK": 17359,
    "бір": 20257,
    "----------------": 2683,
    "NER": 13865,
    "<0x5F>": 98,
    "'$": 13090,
    "ержа": 14564,
    "▁Mario": 16262,
    "▁plug": 18665,
    "sign": 4530,
    "adv": 17263,
    "SELECT": 6404,
    "oto": 3747,
    "kre": 4109,
    "ift": 2027,
    "attice": 19704,
    "virtual": 18714,
    "▁Cart": 12370,
    "percent": 25376,
    "elihood": 22342,
    "▁Ро": 6083,
    "▁Gemeinden": 24890,
    "▁Target": 17157,
    "▁Creek": 15594,
    "▁losing": 19035,
    "▁pé": 26535,
    "": 31440,
    "▁bell": 22623,
    "GO": 17080,
    "▁serial": 7797,
    "ctors": 14359,
    "find": 2886,
    "▁времени": 22951,
    "▁Mouse": 25992,
    "ланд": 17554,
    "▁Gray": 18956,
    "estival": 6074,
    "ondere": 18241,
    "▁alla": 4082,
    "完": 31366,
    "▁насеље": 14503,
    "ijst": 28793,
    "▁ob": 704,
    "▁txt": 13872,
    "▁roman": 9728,
    "▁grouping": 27270,
    "▁navigate": 23624,
    "▁established": 7841,
    "▁script": 2471,
    "▁integr": 3990,
    "learning": 21891,
    "▁Kre": 7706,
    "itivity": 24858,
    "▁niemieck": 27417,
    "▁ber": 7655,
    "▁$\\": 779,
    "spark": 12597,
    "Pad": 20369,
    "<0x46>": 73,
    "rewrite": 23174,
    "▁Config": 12782,
    "▁fran": 2524,
    "▁Statist": 13070,
    "UM": 5005,
    "że": 6301,
    "▁ess": 3686,
    "äg": 16803,
    "▁founder": 25331,
    "ennes": 9387,
    "link": 2324,
    "▁rgba": 24979,
    "▁>=": 6736,
    "▁scrolling": 23064,
    "iker": 5603,
    "ijn": 3263,
    "▁converts": 29436,
    "▁Einwo": 14429,
    "▁Bay": 6211,
    "DI": 4571,
    "▁Mah": 10082,
    "Invoke": 20731,
    "stoff": 19242,
    "neo": 11496,
    "лові": 18381,
    "▁tak": 1850,
    "otte": 14360,
    "▁entire": 4152,
    "▁programme": 19607,
    "据": 30763,
    "▁wet": 7990,
    "wind": 14800,
    "'}[": 24264,
    "▁code": 775,
    "▁regia": 9211,
    "▁разрабо": 24973,
    "▁donc": 12866,
    "häng": 17738,
    "제": 31306,
    "lad": 4528,
    "▁leading": 8236,
    "▁internally": 25106,
    "▁looking": 3063,
    "▁pse": 10927,
    "▁/": 847,
    "⇒": 30381,
    "◄": 30322,
    "'},": 16675,
    "▁movements": 24147,
    "▁jap": 10215,
    "ERROR": 11432,
    "▁intel": 13856,
    "▁If": 960,
    "Helper": 10739,
    "▁los": 1232,
    "好": 31076,
    "▁Schmidt": 25157,
    "▁Hed": 28561,
    "▁Mitt": 24532,
    "▁sm": 1560,
    "'],": 7464,
    "ocs": 12332,
    "▁Char": 2896,
    "头": 31584,
    "▁Ook": 26392,
    "▁marg": 15276,
    "START": 25826,
    "води": 17272,
    "▁españ": 12349,
    "І": 30090,
    "▁висо": 23744,
    "ція": 11145,
    "ل": 30138,
    "▁Isn": 29489,
    "▁Österreich": 15643,
    "Institut": 24985,
    "gele": 28253,
    "Foundation": 28077,
    "addClass": 20213,
    "program": 8860,
    "▁??": 13626,
    "vention": 7316,
    "▁француз": 27055,
    "▁Kas": 19157,
    "▁scal": 8716,
    "博": 31196,
    "▁zoo": 22424,
    "ension": 2673,
    "▁alpha": 15595,
    "émet": 24700,
    "TS": 9375,
    "PATH": 10145,
    "▁ra": 1153,
    "▁приз": 25660,
    "▁wojew": 22949,
    "▁Gy": 12842,
    "▁Olymp": 6167,
    "▁Jin": 29779,
    "utable": 9246,
    "▁polic": 13665,
    "▁suis": 26099,
    "odel": 27224,
    "▁stati": 23436,
    "odos": 24463,
    "▁поле": 29235,
    "▁године": 8061,
    "▁chi": 18558,
    "▁nouvelle": 15217,
    "▁protagonista": 29609,
    "érer": 29539,
    "▁CG": 8446,
    "richt": 10220,
    "▁string": 1347,
    "見": 31192,
    "sprach": 29339,
    "▁THEN": 8183,
    "▁Virginia": 11653,
    "▁season": 4259,
    "▁trick": 8938,
    "Net": 6779,
    "▁outcome": 21957,
    "Chart": 14732,
    "alles": 26493,
    "verage": 19698,
    "ники": 9645,
    "roke": 10946,
    "▁Sed": 20951,
    "Cred": 15507,
    "ében": 14790,
    "anha": 29014,
    "▁differences": 12651,
    "▁denoted": 27291,
    "▁MySQL": 9254,
    "▸": 31234,
    "▁convers": 9678,
    "引": 31674,
    "▁externas": 18083,
    "▁advoc": 22545,
    "imoine": 26052,
    "₇": 30284,
    "persistence": 28249,
    "catal": 16431,
    "ној": 13717,
    "▁steht": 16324,
    "▁remained": 9488,
    "brand": 16472,
    "”,": 9363,
    "▁França": 29253,
    "▁истории": 20765,
    "▁shoulders": 26671,
    "▁local": 1887,
    "ZygoteInit": 25587,
    "▁serious": 10676,
    "▁наи": 25015,
    "Û": 31210,
    "▁tensorflow": 26110,
    "ccess": 1676,
    "adu": 13467,
    "zas": 16095,
    "human": 26029,
    "jö": 12382,
    "▁Sort": 20025,
    "▁pool": 11565,
    "▁servi": 27299,
    "Nodes": 20284,
    "▁itself": 3528,
    "▁slower": 20312,
    "▁Hom": 15089,
    "▁conten": 16962,
    "▁defines": 17645,
    "▁including": 3704,
    "▁recording": 16867,
    "ɲ": 30849,
    "ябре": 25743,
    "▁erst": 9284,
    "falls": 12559,
    "▁él": 7877,
    "С": 30008,
    "▁Liver": 22469,
    "ŏ": 30476,
    "▁apo": 16798,
    "cuador": 26719,
    "-.": 28753,
    "▁initialize": 11905,
    "Card": 13200,
    "ajo": 7069,
    "script": 2154,
    "▁gez": 17364,
    "An": 2744,
    "HD": 26124,
    "consulté": 5529,
    "▁URL": 3988,
    "vere": 9359,
    "adoop": 18079,
    "ässt": 29171,
    "spring": 4278,
    "▁zoom": 19342,
    "bereich": 27915,
    "▁Л": 1872,
    "wiki": 4594,
    "▁guns": 18788,
    "▁guer": 6109,
    "ˆ": 31597,
    "ゆ": 31621,
    "▁vec": 9649,
    "▁render": 4050,
    "化": 30705,
    "jet": 4026,
    "▁исполь": 11628,
    "rien": 19112,
    "▁nin": 17081,
    "▁зан": 19724,
    "navbar": 21890,
    "hibernate": 12575,
    "дей": 11194,
    "▁ста": 2591,
    "▁condition": 4195,
    "▁recover": 9792,
    "▁preference": 24583,
    "▁твор": 26878,
    "▁satisfies": 17150,
    "▁Studies": 16972,
    "\"?": 8652,
    "▁Nobel": 27813,
    "EF": 29638,
    "esar": 26892,
    "▁ná": 16511,
    "ド": 30335,
    "onde": 13469,
    "share": 13653,
    "▁ArrayList": 9791,
    "▁Student": 15740,
    "enders": 21043,
    "рення": 22757,
    "{.": 26139,
    "广": 31566,
    "meta": 7299,
    "bury": 11059,
    "igung": 11841,
    "球": 31539,
    "oge": 21317,
    "▁constitution": 16772,
    "▁bodies": 17873,
    "}/": 6822,
    "▁Wayback": 7162,
    "▁Cra": 14279,
    "match": 4352,
    "▁september": 18251,
    "▁está": 7919,
    "setminus": 15375,
    "▁être": 7848,
    "Ï": 30789,
    "▁simply": 3763,
    "▁doch": 16008,
    "▁golden": 22843,
    "ље": 7393,
    "▁_{": 7722,
    "▁invest": 13258,
    "cover": 11911,
    "▁`#": 15913,
    "Å": 30129,
    "▁quien": 14310,
    "▁}).": 22719,
    "▁agricult": 18032,
    "телем": 17584,
    "од": 10285,
    "▁To": 1763,
    "▁wx": 26437,
    "ник": 3316,
    "▁Hope": 7963,
    "▁comparison": 10230,
    "FS": 9998,
    "▁erg": 23682,
    "continue": 19878,
    "yg": 4790,
    "(){": 4923,
    "▁mess": 4473,
    "▁information": 2472,
    "Groups": 24020,
    "식": 31895,
    "▁anx": 14919,
    "aciones": 6027,
    "payment": 27825,
    "▁si": 1354,
    "твер": 15757,
    "▁Dr": 4942,
    "마": 31417,
    "Bit": 21591,
    "addEventListener": 16592,
    "▁nav": 6283,
    "ços": 16152,
    "bru": 16670,
    "ULT": 8647,
    "▁ус": 10053,
    "▁deployed": 21168,
    "▁мож": 13333,
    "▁Louis": 5899,
    "▁mom": 16823,
    "▁FR": 23788,
    "▁Fr": 4693,
    "▁rounded": 28240,
    "logic": 19227,
    "▁physical": 9128,
    "ธ": 31547,
    "American": 14689,
    "▁wieder": 7518,
    "▁\"\\<": 20770,
    "imiento": 9043,
    "▁hög": 23928,
    "▁nahe": 28208,
    "ّ": 30857,
    "<0x0C>": 15,
    "▁Cés": 27627,
    "watch": 12344,
    "джи": 22858,
    "Ă": 31468,
    "▁handed": 29692,
    "Pool": 11426,
    "▁blank": 9654,
    "▁ве": 3340,
    "fill": 5589,
    "▁Aer": 18682,
    "▁años": 7396,
    "設": 31770,
    "▁eng": 3033,
    "▁surve": 26946,
    "paths": 24772,
    "▁могу": 22568,
    "ína": 28309,
    "<0x74>": 119,
    "chmark": 16580,
    "љашње": 16056,
    "▁prom": 2504,
    "чний": 14220,
    "łoż": 20156,
    "то": 702,
    "oki": 21025,
    "tain": 2408,
    "atar": 14873,
    "aggi": 15424,
    "fif": 28491,
    "Python": 11980,
    "Setting": 29020,
    "fluss": 26944,
    "▁Color": 9159,
    "pit": 23600,
    "▁chaque": 18402,
    "▁Pav": 20096,
    "enci": 13640,
    "▁datab": 16236,
    "足": 31722,
    "TEST": 18267,
    "(\"": 703,
    "线": 31532,
    "▁bekend": 24955,
    "ło": 5600,
    "▁виде": 21986,
    "cfg": 16859,
    "lands": 5252,
    "▁Ernst": 15969,
    "▁людей": 25787,
    "▁Nat": 19259,
    "▁Й": 14680,
    "iv": 440,
    "▁res": 620,
    "▁mint": 20559,
    "Mult": 6857,
    "▁Of": 4587,
    "▁факуль": 29806,
    "▁Politiker": 15408,
    "exp": 4548,
    "▁sentiment": 19688,
    "▁Liverpool": 24607,
    "ŝ": 31805,
    "▁independence": 21820,
    "量": 31180,
    "<0xCB>": 206,
    "▁datos": 18683,
    "gems": 11900,
    "세": 31578,
    "▁literary": 22937,
    "▁generating": 14655,
    "▁eth": 11314,
    "▁unlikely": 25057,
    "kt": 1193,
    "▁Number": 9681,
    "ints": 9466,
    "concat": 17685,
    "Verlag": 22776,
    "▁slowly": 14205,
    "irk": 6793,
    "现": 31424,
    "▁diff": 2923,
    "▁vérit": 27128,
    "▁divs": 24641,
    "ilis": 23285,
    "▁dello": 14681,
    "▁Emp": 7361,
    "▁Bibliografia": 8858,
    "▁sculpt": 17039,
    "▁retir": 19860,
    "▁pierw": 26657,
    "▁Cru": 11263,
    "tuple": 23583,
    "▁remporte": 27344,
    "фициаль": 16364,
    "▁beneath": 19540,
    "▁disturb": 29543,
    "▁gebied": 26389,
    "▁smile": 17819,
    "▁hö": 12977,
    "xsd": 19168,
    "ibus": 19699,
    "▁ран": 27142,
    "ή": 31668,
    "enc": 3977,
    "▁estilo": 25605,
    "▁fs": 18920,
    "▁films": 12298,
    "compute": 26017,
    "▁Doc": 28197,
    "▁шко": 12351,
    "angers": 13873,
    "語": 30968,
    "wed": 8734,
    "▁alignment": 22239,
    "▁кон": 3920,
    "wert": 16347,
    "▁Political": 25137,
    "ор": 1419,
    "他": 31221,
    "▁Rosen": 28929,
    "tera": 10120,
    "istra": 12496,
    "▁climate": 23622,
    "asso": 9979,
    "▁Archives": 28320,
    "▁bless": 17065,
    "power": 13519,
    "aming": 11500,
    "esch": 1968,
    "ч": 29981,
    "ansen": 29401,
    "▁earth": 8437,
    "prev": 16304,
    "tau": 4722,
    "▁impr": 16921,
    "ographical": 19711,
    "Cr": 20647,
    "ived": 2347,
    "Op": 11746,
    "▁regul": 24378,
    "▁ort": 20289,
    "ut": 329,
    "legen": 14778,
    "▁reflection": 17842,
    "edor": 23286,
    "ues": 1041,
    "fin": 4951,
    "▁meses": 27066,
    "ज": 30871,
    "▁exercise": 15058,
    "▁polity": 24694,
    "▁extensive": 20607,
    "▁Gordon": 16965,
    "Τ": 30414,
    "▁typescript": 23741,
    "▁upon": 2501,
    "▁Orts": 22007,
    "seite": 11485,
    "▁europ": 12793,
    "▁hade": 18876,
    "▁Delete": 21267,
    "▁Dru": 16597,
    "▁auc": 20480,
    "▁là": 18916,
    "▁Germany": 9556,
    "▁¡": 28534,
    "▁Fly": 28738,
    "▁Bere": 13143,
    "▁фі": 18396,
    "▁Rafael": 25661,
    "agen": 5370,
    "▁Our": 8680,
    "Parse": 12914,
    "▁processed": 19356,
    "Pol": 7713,
    "vironment": 3702,
    "▁topological": 25002,
    "annon": 23453,
    "▁NA": 8598,
    "reason": 23147,
    "enter": 5893,
    "angle": 2521,
    "ྱ": 31896,
    "▁jeu": 18308,
    "▁satisfaction": 26470,
    "▁Gree": 18438,
    "親": 31698,
    "<0x07>": 10,
    "▁zp": 24724,
    "▁Win": 8892,
    "iste": 2488,
    "▁lowest": 19604,
    "▁eer": 6380,
    "льных": 25575,
    "▁Kentucky": 24043,
    "▁il": 980,
    "▁favor": 7853,
    "<0xB0>": 179,
    "actions": 7387,
    "eduled": 14989,
    "▁Greece": 25549,
    "arily": 6275,
    "OU": 27269,
    "ног": 18211,
    "▁ster": 16864,
    "safe": 11177,
    "▁[\"": 6796,
    "esis": 6656,
    "ateg": 1845,
    "我": 30672,
    "▁ros": 14652,
    "▁realized": 16387,
    "▁appointed": 10658,
    "padding": 12791,
    "▁vel": 5343,
    "etic": 7492,
    "▁други": 7563,
    "▁hav": 20771,
    "rir": 12416,
    "▁период": 21687,
    "bp": 25288,
    "тором": 28359,
    "acu": 22061,
    "▁musique": 15188,
    "▁Greek": 12311,
    "Definition": 14683,
    "▁tweede": 27460,
    "▁Buffer": 16534,
    "▁owner": 12271,
    "▁können": 12238,
    "ográ": 12414,
    "ісля": 13297,
    "$": 29938,
    "▁mak": 2136,
    "cono": 21441,
    "▁Do": 1938,
    "▁princip": 3420,
    "hrer": 26768,
    "▁cloth": 13950,
    "ophe": 29148,
    "ocz": 19393,
    "▁кіль": 22254,
    "▁winning": 15613,
    "▁compose": 27435,
    "천": 31563,
    "▁called": 2000,
    "Архівовано": 11804,
    "▁track": 5702,
    "віт": 11703,
    "▁Санкт": 28380,
    "▁widget": 11109,
    "▁roof": 17526,
    "Events": 13634,
    "version": 3259,
    "vern": 3228,
    "▁í": 14468,
    "кта": 24871,
    "urchase": 27574,
    "ções": 5616,
    "<0x86>": 137,
    "TD": 24495,
    "▁systems": 6757,
    "라": 31197,
    "érieur": 14508,
    "▁Das": 3713,
    "Long": 8208,
    "chapter": 27349,
    "死": 31580,
    "Each": 9760,
    "▁según": 23831,
    "▁looping": 26113,
    "ὰ": 30933,
    "country": 13509,
    "▁inherited": 23878,
    "incipal": 26706,
    "target": 5182,
    "zess": 28790,
    "▁languages": 10276,
    "Git": 28712,
    "úblic": 7627,
    "Mock": 18680,
    "関": 31606,
    "method": 5696,
    "Set": 2697,
    "▁Alter": 20561,
    "edge": 12864,
    "द": 30694,
    "ходит": 13580,
    "▁profess": 25718,
    "<0xEF>": 242,
    "na": 1056,
    "▁mère": 21428,
    "<0xDD>": 224,
    "NS": 3059,
    "▁again": 1449,
    "Arguments": 26915,
    "▁position": 2602,
    "▁Mississ": 23030,
    "icons": 27078,
    "▁permet": 14924,
    "▁involving": 21677,
    "heet": 4155,
    "()`.": 13595,
    "erea": 25261,
    "Fill": 20876,
    "▁Ор": 12970,
    "▁ampl": 20563,
    "}}\\": 4229,
    "bb": 1327,
    "▁Options": 25186,
    "lapsed": 23384,
    "дор": 13523,
    "UD": 15789,
    "▁listen": 11621,
    "▁Vater": 19828,
    "▁Übers": 19999,
    "▁mest": 22243,
    "коли": 29798,
    "ależ": 19272,
    "▁inclus": 20978,
    "Task": 5398,
    "▁Alg": 11545,
    "▁electrons": 27149,
    "▁sugg": 2424,
    "▁Load": 16012,
    "▁stress": 22884,
    "Options": 5856,
    "▁least": 3203,
    "▁quello": 18316,
    "▁Sub": 3323,
    "pts": 16485,
    "company": 14518,
    "▁sections": 13926,
    "IGN": 17298,
    "▁fle": 9115,
    "▁Historia": 11094,
    "ist": 391,
    "Mus": 14958,
    "▁chairman": 28942,
    "getMessage": 28983,
    "录": 31283,
    "lose": 2226,
    "ju": 4900,
    "sent": 18616,
    "yle": 1508,
    "▁quiet": 11813,
    "begin": 463,
    "▁subsequ": 9602,
    "initely": 18639,
    "obi": 15647,
    "▁day": 2462,
    "ște": 28335,
    "密": 31461,
    "▁ek": 14921,
    "xxx": 12353,
    "ège": 15532,
    "leich": 8200,
    "implies": 21304,
    "▁чем": 8049,
    "▁interess": 26636,
    "Bus": 16890,
    "▁Dal": 9400,
    "▁Whit": 20572,
    "lation": 18411,
    "ქ": 31271,
    "lär": 17605,
    "rieb": 11055,
    "▁Gaz": 15853,
    "트": 31177,
    "ifecycle": 22532,
    "▁Contempor": 27183,
    "▁subclass": 19481,
    "▁svensk": 29249,
    "▁Hudson": 25850,
    "▁pose": 18593,
    "▁contract": 8078,
    "우": 31327,
    "enç": 26686,
    "bij": 19352,
    "volume": 24623,
    "▁pages": 6515,
    "▁onto": 11480,
    "Right": 7341,
    "sqlite": 22793,
    "imum": 12539,
    "▁praw": 20467,
    "▁senior": 16336,
    "eing": 22430,
    "▁elles": 20554,
    "▁vl": 14204,
    "▁puede": 11493,
    "LinearLayout": 15575,
    "-}": 27154,
    "▁Пред": 25115,
    "▁present": 2198,
    "▁Ti": 18439,
    "acher": 11665,
    "▁къ": 23839,
    "ham": 3391,
    "▁NBA": 21517,
    "▁Steph": 27265,
    "▁docs": 10561,
    "▁narod": 28028,
    "▁proves": 28281,
    "antly": 10835,
    "сну": 25729,
    "пас": 19074,
    "essa": 9297,
    "▁perd": 11113,
    "//": 458,
    "ун": 5822,
    "▁Harrison": 26954,
    "▁selecting": 18851,
    "▁absor": 17977,
    "선": 31345,
    "▁Kl": 12043,
    "▁Leo": 22533,
    "국": 31293,
    "▁fat": 9950,
    "▁denen": 17209,
    "▁notamment": 13214,
    "со": 2223,
    "kiej": 27700,
    "роб": 11945,
    "igt": 5523,
    "▁candidates": 21669,
    "вших": 23265,
    "Thanks": 16894,
    "▁His": 3600,
    "▁Sprache": 29634,
    "▁Cub": 28618,
    "▁organ": 2894,
    "▁Pref": 27611,
    "▁Bevölker": 19683,
    "craft": 17293,
    "▁Bil": 20347,
    "igr": 4481,
    "▁altro": 27704,
    "reu": 24868,
    "aker": 5790,
    "▁kick": 24817,
    "▁district": 6474,
    "anche": 20372,
    "王": 30462,
    "▁blow": 13031,
    "▁same": 1021,
    "题": 31596,
    "▁=\"": 29465,
    "ROP": 29366,
    "址": 31702,
    "▁även": 14134,
    "rown": 4708,
    "▁uk": 18293,
    "▁unto": 20550,
    "▁també": 15610,
    "▁Add": 3462,
    "CV": 15633,
    "ном": 2815,
    "ION": 2725,
    "missing": 27259,
    "Tests": 24376,
    "iami": 18612,
    "▁faint": 24732,
    "▁Bre": 5826,
    "Menu": 6823,
    "▁Organ": 9205,
    "▁septembre": 9355,
    "sche": 5955,
    "тей": 14469,
    "を": 30396,
    "ec": 687,
    "etal": 26310,
    "▁serie": 7080,
    "▁boundary": 10452,
    "▁HE": 17714,
    "▁crít": 20007,
    "headers": 13662,
    "herr": 21205,
    "Dat": 16390,
    "▁panel": 9451,
    "▁another": 1790,
    "idents": 16719,
    "▁commander": 22079,
    "▁extreme": 18677,
    "▁Spider": 26778,
    "iance": 8837,
    "■": 30725,
    "C": 29907,
    "▁Crit": 15976,
    "▁reader": 9591,
    "▁amor": 24550,
    "▁assass": 20105,
    "▁mother": 5637,
    "▁épisode": 28406,
    "vre": 12675,
    "ze": 911,
    "iop": 21260,
    "▁miser": 27788,
    "ʊ": 30599,
    "hidden": 10892,
    "▁Statistics": 27098,
    "▁rien": 21181,
    "▁Alfred": 12299,
    "▁inqu": 25501,
    "▁ka": 13560,
    "よ": 30787,
    "istry": 6020,
    "▁trait": 22917,
    "▁власти": 28614,
    "▁österreich": 20383,
    "▁García": 21034,
    "▁cela": 18729,
    "management": 21895,
    "iellement": 18029,
    "org": 990,
    "ln": 3083,
    "▁Lub": 19278,
    "PUT": 12336,
    "▁simplify": 21092,
    "▁merely": 13586,
    "\"`": 6937,
    "▁Durante": 13912,
    "▁spielte": 18681,
    "▁musste": 25607,
    "ме": 1488,
    "▁aquest": 14038,
    "▁annot": 9732,
    "γ": 30197,
    "▁reject": 12560,
    "ischof": 16084,
    "！": 30584,
    "Row": 4301,
    "до": 1802,
    "▁aplic": 20760,
    "▁ME": 22986,
    "▁одно": 17636,
    "▁Rick": 24218,
    "▁E": 382,
    "lab": 8205,
    "atu": 8088,
    "ụ": 31620,
    "▁apresent": 24677,
    "cial": 1455,
    "▁В": 939,
    "▁recommendation": 29303,
    "‘": 30086,
    "actér": 16027,
    "▁momento": 14341,
    "рёх": 22726,
    "▁enemies": 22595,
    "elines": 24210,
    "▁impact": 10879,
    "▁developing": 14338,
    "onica": 26082,
    "Cloud": 20442,
    "▁równ": 17805,
    "▁Nederlandse": 25004,
    "фіцій": 26146,
    "▁Его": 26950,
    "cnt": 20047,
    "▁kön": 9487,
    "▁prim": 1903,
    "tn": 6277,
    "▁откры": 17282,
    "▁\"...": 29804,
    "bo": 833,
    "voor": 21525,
    "▁Vel": 12019,
    "▁San": 3087,
    "ത": 30550,
    "Store": 9044,
    "▁:": 584,
    "▁effectively": 17583,
    "▁capit": 11934,
    "loped": 27238,
    "ittle": 1992,
    "▁TO": 7495,
    "▁все": 6495,
    "urable": 21115,
    "ählt": 15684,
    "▁confident": 24332,
    "mysql": 7938,
    "urn": 595,
    "sk": 808,
    "kim": 20903,
    "▁persone": 29116,
    "acon": 23074,
    "9": 29929,
    "▁afraid": 13421,
    "jší": 20707,
    "▁somewhere": 9051,
    "ity": 537,
    "▁contents": 8118,
    "▁similar": 2788,
    "▁appears": 5692,
    "▁evil": 16126,
    "▁clicked": 11484,
    "▁maison": 18234,
    "▁complement": 19595,
    "▁Mat": 5345,
    "▁Ту": 16251,
    "▁Estados": 9702,
    "▁those": 1906,
    "▁header": 4839,
    "▁weit": 11181,
    "▁feeling": 11223,
    "ATION": 8098,
    "state": 3859,
    "▁geom": 23216,
    "othy": 20336,
    "▁command": 1899,
    "▁можно": 26634,
    "бли": 5116,
    "oux": 13375,
    "▁posto": 17614,
    "▁triumph": 24124,
    "▁Simon": 11254,
    "AAAA": 23184,
    "it": 277,
    "▁Syl": 19628,
    "Fi": 18800,
    "▁sight": 11126,
    "▁emb": 7232,
    "▁damals": 28740,
    "ië": 19425,
    "ucht": 10236,
    "NUMBER": 23207,
    "lines": 9012,
    "▁stolet": 22041,
    "schema": 11010,
    "engono": 23677,
    "aby": 10798,
    "▁akt": 11305,
    "▁anticip": 23483,
    "urope": 3214,
    "▁indicating": 23941,
    "▁disk": 8086,
    "emetery": 22875,
    "▁transmission": 22713,
    "▁PMID": 25485,
    "▁Sel": 8365,
    "▁reconst": 17789,
    "つ": 30773,
    "mir": 11038,
    "nad": 28486,
    "▁Mul": 21193,
    "▁Qual": 15146,
    "▁ptr": 23246,
    "▁северо": 28113,
    "N": 29940,
    "▁cosm": 27973,
    "Since": 23036,
    "lij": 7267,
    "ider": 1241,
    "navigation": 15466,
    "դ": 31387,
    "nehm": 25543,
    "essen": 9957,
    "▁stead": 28325,
    "▁sensitive": 20502,
    "▁Il": 1720,
    "▁discovery": 20699,
    "▁Correct": 28518,
    "Ἰ": 31726,
    "od": 397,
    "▁nested": 9322,
    "▁concent": 10484,
    "▁compatible": 15878,
    "mathfrak": 7237,
    "IC": 2965,
    "nie": 2786,
    "lesia": 17516,
    "skih": 26896,
    "▁Queens": 18909,
    "vari": 5927,
    "aje": 8339,
    "ostęp": 20900,
    "▁negli": 20059,
    "fa": 5444,
    "ктиче": 28616,
    "Q": 29984,
    "bü": 28252,
    "ско": 1130,
    "▁gender": 23346,
    "ughing": 29700,
    ":/": 8419,
    "▁horn": 25341,
    "aki": 9940,
    "])": 2314,
    "idos": 4396,
    "▁described": 5439,
    "Mar": 7083,
    "▁goog": 27304,
    "▁ak": 11208,
    "▁draft": 18195,
    "ала": 24036,
    "▁it": 372,
    "▁prototype": 22267,
    "▁Atlanta": 26484,
    "cu": 4979,
    "rival": 15081,
    "▁passenger": 28507,
    "▁титу": 27125,
    "₆": 30238,
    "<0xAA>": 173,
    "em": 331,
    "ieck": 16776,
    "▁Soul": 27339,
    "APP": 20576,
    "▁entities": 16212,
    "▁Pres": 4360,
    "Α": 30292,
    "Christ": 18687,
    "rig": 8966,
    "▁сайте": 16752,
    "IK": 23328,
    "▁cup": 18002,
    "▁forward": 6375,
    "OB": 14824,
    "▁possessed": 25622,
    "▁Gro": 6070,
    "▁geboren": 24617,
    "▁avant": 10042,
    "▁integer": 6043,
    "̂": 31500,
    "noindent": 17695,
    "▁walls": 14603,
    "▁capacity": 13284,
    "▁desenvol": 20599,
    "▁exc": 5566,
    "dots": 7778,
    "▁Moon": 17549,
    "лта": 13313,
    "▁:-": 8956,
    "ück": 3675,
    "▁channel": 8242,
    "▁percentage": 19649,
    "bourg": 17247,
    "▁configuration": 5285,
    "DataFrame": 17271,
    "▁Fact": 26748,
    "▁officially": 22444,
    "AGE": 10461,
    "▁Jun": 8378,
    "▁ruby": 9453,
    "сла": 12329,
    "otimes": 9356,
    "Report": 13020,
    "icult": 3953,
    "▁ladies": 22281,
    "▁bât": 21592,
    "amples": 9422,
    "▁islands": 24191,
    "ang": 574,
    "生": 30486,
    "Interface": 10448,
    "ormal": 2759,
    "타": 31925,
    "▁runs": 6057,
    "▁some": 777,
    "Ze": 24625,
    "umer": 4680,
    "▁Stad": 10347,
    "▁Anton": 5774,
    "ɯ": 31983,
    "ін": 4754,
    "▁так": 4553,
    "ย": 30549,
    "▁Russ": 4719,
    "atch": 905,
    "POST": 5438,
    "sert": 1940,
    "cart": 13823,
    "▁Ref": 9897,
    "amma": 2735,
    "cussion": 17348,
    "fasst": 25536,
    "▁Ter": 5061,
    "erek": 20400,
    "▁Australian": 9870,
    "▁oficial": 9535,
    "zin": 23374,
    "▁\\[": 5539,
    "▁também": 10409,
    "▁grâce": 23068,
    "▁mechanism": 13336,
    "▁primarily": 19434,
    "<0x32>": 53,
    "▁Liga": 9180,
    "ás": 1569,
    "edad": 20483,
    "4": 29946,
    "рела": 19893,
    "rare": 25983,
    "▁lengths": 27497,
    "▁Lev": 20708,
    "▁rest": 1791,
    "▁millimeter": 26491,
    "▁Portály": 20609,
    "uration": 2633,
    "▁Progress": 20018,
    "ум": 20984,
    "▁состоя": 13882,
    "cipe": 24044,
    "▁instantiate": 25112,
    "▁executing": 14012,
    "val": 791,
    "okes": 23195,
    "ina": 1099,
    "adamente": 22536,
    "▁sect": 21149,
    "umph": 19149,
    "pie": 12343,
    "ссий": 14833,
    "RE": 1525,
    "▁Lanc": 24994,
    "남": 31754,
    "dire": 20146,
    "white": 10921,
    "▁Sac": 15573,
    "▁TE": 17067,
    "▁involves": 20789,
    "хи": 3899,
    "▁Handle": 29273,
    "cov": 24542,
    "▁daughter": 8750,
    "▁jeho": 17002,
    "apolis": 25332,
    "▁woll": 27007,
    "▁techniques": 13698,
    "▁голо": 27187,
    "packages": 8318,
    "▁heavy": 9416,
    "▁Administr": 24510,
    "▁figur": 28477,
    "▁gar": 7171,
    "autorité": 11074,
    "ollary": 21982,
    "▁inserted": 15478,
    "▁justify": 26922,
    "▁грома": 23463,
    "ér": 1064,
    "▁pd": 10518,
    "▁зву": 29351,
    "▁partition": 8877,
    "▁library": 3489,
    "▁Dieser": 24727,
    "▁stri": 10076,
    "Ê": 30403,
    "▁Tourn": 23720,
    "tim": 9346,
    "lef": 25874,
    "▁Journal": 8237,
    "原": 30667,
    "▁Found": 7460,
    "▁Rece": 24328,
    "нова": 8240,
    "oter": 17084,
    "names": 7039,
    "param": 3207,
    "村": 30402,
    "▁chief": 9087,
    "▁energy": 5864,
    "icro": 2357,
    "bib": 18508,
    "prod": 10633,
    "▁Mittel": 14848,
    "▁learned": 10972,
    "▁Nell": 26450,
    "abile": 18119,
    "ogram": 13342,
    "üh": 8757,
    "▁Rev": 11459,
    "▁│": 11879,
    "▁Hyper": 26078,
    "ount": 792,
    "alem": 12698,
    "ández": 19610,
    "▁confer": 21388,
    "▁конце": 20776,
    "▁stayed": 27661,
    "▁lleg": 10953,
    "d": 29881,
    "ция": 5274,
    "anted": 9714,
    "ätt": 11204,
    "▁**": 3579,
    "dbo": 21627,
    "vat": 9046,
    "▁Rio": 11611,
    "佐": 31315,
    "▁chart": 8727,
    "\").": 2564,
    "▁complex": 4280,
    "▁Begriffe": 19379,
    "▁Bos": 10211,
    "▁verz": 23457,
    "▁Спољашње": 16110,
    "▁arbeitete": 22547,
    "blockquote": 1443,
    "пре": 5784,
    "▁order": 1797,
    "рем": 27659,
    "itzerland": 27198,
    "▁Hil": 12338,
    "ula": 2497,
    "▁attributed": 29393,
    "anych": 19442,
    "▁Media": 8213,
    "=\"/": 13802,
    "invalid": 20965,
    "▁Mon": 2598,
    "▁hint": 13182,
    "▁shift": 9500,
    "▁acid": 22193,
    "▁scen": 5763,
    "▁mobil": 27227,
    "▁Williams": 11648,
    "▁Play": 7412,
    "▁lim": 2485,
    "ory": 706,
    "XML": 9165,
    "édition": 24773,
    "Os": 24768,
    "▁sitting": 16246,
    "五": 30904,
    "▁памя": 22836,
    "▁black": 4628,
    "▁observer": 22944,
    "Directory": 9882,
    "▁haben": 10290,
    "▁Davis": 15225,
    "▁Logger": 28468,
    "ltre": 18591,
    "▁shut": 12522,
    "esten": 26826,
    "▁\"": 376,
    "▁Admin": 10229,
    "▁entr": 9953,
    "止": 31981,
    "yz": 12339,
    "rum": 5848,
    "otrop": 28467,
    "нитель": 25163,
    "▁von": 1005,
    "ператор": 26059,
    "▁combining": 29299,
    "▁Rol": 8731,
    "▁society": 12459,
    "Y": 29979,
    "▁threat": 28469,
    "▁nginx": 19376,
    "▁лю": 6331,
    "▁operation": 5858,
    "▁ж": 5571,
    "▁Facebook": 13327,
    "lacement": 9552,
    "<0x04>": 7,
    "转": 31415,
    "Sing": 10873,
    "non": 5464,
    "▁горо": 9546,
    "▁dread": 21005,
    "介": 31633,
    "information": 19678,
    "▁what": 825,
    "▁never": 2360,
    "▁Во": 5123,
    "▁VB": 21045,
    "Week": 22606,
    "Г": 30040,
    "gruppe": 25218,
    "▁explo": 16035,
    "▁отме": 28032,
    "aud": 15052,
    "▁pentru": 13250,
    "▁свої": 25625,
    "▁Children": 20986,
    "▁CP": 28505,
    "ds": 6289,
    "près": 5435,
    "▁Work": 5244,
    "▁Straße": 22667,
    "▁cort": 13979,
    "▁Terra": 20839,
    "▁patron": 18259,
    "▁torn": 10146,
    "änder": 13178,
    "arsi": 16665,
    "米": 31902,
    "leid": 24503,
    "mal": 5156,
    "ева": 23540,
    "yes": 3582,
    "▁Intent": 11171,
    "iné": 17856,
    "▁gods": 27379,
    "ks": 2039,
    "▁систе": 14245,
    "ething": 1408,
    "▁Arbeits": 24966,
    "▁dynamic": 7343,
    "▁има": 15707,
    "written": 17625,
    "ließ": 8621,
    ">\\": 14247,
    "fix": 5878,
    "▁édition": 28823,
    "▁several": 3196,
    "employee": 26143,
    "oggle": 9804,
    "▁квітня": 26334,
    "endum": 29670,
    "▁Arm": 8481,
    "yk": 12072,
    "▁Mai": 6868,
    "▁Mexican": 24777,
    "Eng": 8100,
    "▁Ox": 9471,
    "▁Az": 4709,
    "orth": 2072,
    "ṃ": 31019,
    "deutsch": 14659,
    "cancel": 20713,
    "▁дов": 26313,
    "▁voltage": 11749,
    "▁alloc": 6643,
    "ческая": 25656,
    "▁lett": 11343,
    "ене": 5755,
    "▁Julius": 23762,
    "When": 10401,
    "▁retra": 29578,
    "▁sd": 28972,
    "문": 31406,
    "▁sin": 4457,
    "机": 31429,
    "▁ora": 21481,
    "▁Mare": 21678,
    "▁Those": 16025,
    "▁&\\": 8682,
    "▁extrem": 9413,
    "лов": 3176,
    "▁Image": 7084,
    "▁Eg": 14304,
    "▁opts": 29111,
    "фі": 9005,
    ")».": 25756,
    "Virtual": 21287,
    "₃": 30174,
    "▁Bash": 29677,
    "addr": 10030,
    "py": 2272,
    "▁conception": 26192,
    "tac": 21229,
    "▁Lisa": 29420,
    "▁shown": 4318,
    "loster": 20421,
    "estra": 8505,
    "▁deep": 6483,
    "▁intu": 26877,
    "▁Dj": 27467,
    "ling": 1847,
    "▁NaN": 18780,
    "riter": 5385,
    "▁Ве": 7296,
    "google": 3608,
    "abase": 1733,
    "▁Japanese": 10369,
    "ocument": 4463,
    "▁Sp": 1706,
    "ORY": 18929,
    "▁tít": 12946,
    "▁et": 634,
    "~$": 16643,
    "liv": 17843,
    "▁'/": 8207,
    "ursive": 25397,
    "Ad": 3253,
    "务": 31358,
    "▁acted": 27320,
    "▁decode": 21822,
    "▁rode": 20514,
    "Azure": 28413,
    "▁MAC": 26750,
    "Take": 26772,
    "hd": 16440,
    "inf": 7192,
    "▁stell": 14781,
    "▁mus": 2301,
    "acco": 17970,
    "Ξ": 31827,
    "两": 31977,
    "▁Beck": 19573,
    "▁Ру": 8978,
    "▁andere": 9900,
    "▁functions": 3168,
    "▁supplied": 19056,
    "racy": 10068,
    "ţ": 30382,
    "ná": 13980,
    "ют": 4394,
    "ков": 2530,
    "▁Flo": 26043,
    "school": 27041,
    "▁Polsce": 24411,
    "ienie": 23898,
    "▁durch": 3494,
    "▁общи": 24761,
    "▁Moreover": 12808,
    "ਰ": 31604,
    "ematic": 19217,
    "▁essere": 10026,
    "▁gen": 2531,
    "itt": 986,
    "▁Bad": 9178,
    "▁Cam": 5500,
    "curl": 18963,
    "▁broke": 14455,
    "은": 31354,
    "++)": 4862,
    "▁Normdaten": 11193,
    "Handler": 4598,
    "後": 31220,
    "里": 30755,
    "▁к": 1186,
    "▁setup": 6230,
    "▁sortie": 26558,
    "▁onCreate": 14813,
    "井": 30945,
    "ils": 2719,
    "stdio": 23656,
    "aments": 20060,
    "њи": 20171,
    "ARCHAR": 15364,
    "sef": 28604,
    "Ġ": 31937,
    "▁thous": 7693,
    "▁Sultan": 27874,
    "ografi": 29153,
    "▁Europe": 4092,
    "holder": 7694,
    "县": 30684,
    "getName": 19629,
    "▁previous": 3517,
    "▁Campe": 13592,
    "Sample": 17708,
    "▁wouldn": 7656,
    "▁prefix": 10944,
    "Content": 3916,
    "▁Squad": 18827,
    "▁outputs": 14391,
    "TO": 4986,
    "▁Trying": 24428,
    "ả": 30643,
    "#": 29937,
    "▁Luft": 17276,
    "omy": 16103,
    "▁numerical": 16259,
    "ait": 1249,
    "ových": 27522,
    "notes": 16953,
    "limited": 29044,
    "▁feas": 28326,
    "▁windows": 5417,
    "complex": 19676,
    "▁coordinate": 14821,
    "Tem": 5776,
    "ṯ": 31752,
    "郎": 30762,
    "roller": 1825,
    "▁perturb": 22786,
    "▁pipeline": 16439,
    "▁Selbst": 27232,
    "ес": 4449,
    "▁diversi": 29851,
    "▁Vi": 10630,
    "locale": 23337,
    "luss": 13596,
    "▁buildings": 13814,
    "▁enorm": 18886,
    "▁speak": 7726,
    "В": 30012,
    "▁вели": 11968,
    "unge": 19440,
    "ква": 11691,
    "ienne": 7081,
    "ните": 12897,
    "{{\\": 16195,
    "マ": 30388,
    "&#": 9137,
    "real": 6370,
    "zę": 28764,
    "▁middle": 7256,
    "▁unusual": 22910,
    "UL": 13309,
    "▁Default": 13109,
    "ച": 31106,
    "▁Bang": 14320,
    "“.": 9533,
    "▁passwords": 27630,
    "ioni": 3688,
    "opera": 22984,
    "▁placed": 7180,
    "▁ass": 1223,
    "▁Québec": 22427,
    "▁cura": 24725,
    "▁assemb": 24367,
    "▁Util": 22310,
    "▁percent": 10151,
    "ckets": 9737,
    "▁clearly": 9436,
    "SION": 13381,
    "▁ends": 10614,
    "▁року": 4577,
    "Link": 6595,
    "GN": 20728,
    "мирова": 28391,
    "Three": 28575,
    "▁artificial": 23116,
    "ópez": 24140,
    "ppel": 17344,
    "ก": 30425,
    "Wait": 15716,
    "▁mongodb": 23290,
    "▁Wagner": 25439,
    "стю": 19834,
    "▁Fem": 19361,
    "owanie": 21752,
    "▁\"\"\"": 9995,
    "▁Ext": 7338,
    "는": 31081,
    "ieves": 17180,
    "agt": 21416,
    "ylvan": 13431,
    "▁WHERE": 5754,
    "oł": 27311,
    "▁worked": 3796,
    "▁LIKE": 22962,
    "uing": 26420,
    "▁responsibility": 23134,
    "omini": 26621,
    "▁matplotlib": 22889,
    "▁vorg": 28669,
    "▁stored": 6087,
    "cmd": 9006,
    "ică": 19008,
    "ensional": 8180,
    ".=": 25019,
    "umed": 21571,
    "▁Step": 16696,
    "▁peu": 7006,
    "sect": 8803,
    "▁Material": 17582,
    "▁nej": 17315,
    "▁территории": 20804,
    "▁towards": 7113,
    "₂": 30124,
    "vano": 13288,
    "Fil": 3434,
    ".\")": 23157,
    "dictionary": 27126,
    "assen": 11257,
    "ре": 587,
    "imation": 7715,
    "▁Ward": 21910,
    "него": 18461,
    "▁Abstract": 25513,
    "▁tema": 23312,
    "стей": 25854,
    "▁hex": 15090,
    "▁Namen": 14635,
    "цию": 13603,
    "NEW": 28577,
    "бора": 23243,
    "▁tid": 10668,
    "▁politique": 11398,
    "▁Olimp": 25975,
    "▁Tommy": 27036,
    "chem": 14969,
    "onymous": 11428,
    "▁cinco": 21357,
    "▁longitud": 25579,
    "▁Bened": 20265,
    "ґ": 30190,
    "▁філь": 29146,
    "▁instanceof": 28919,
    "▁symmetry": 18446,
    "▁дерев": 20229,
    "ardin": 21473,
    "▁privile": 14828,
    "▁Front": 13960,
    "erdings": 18547,
    "▁hosts": 18982,
    "icki": 26894,
    "ńskiej": 26659,
    "▁sword": 22378,
    "▁small": 2319,
    "▁evaluated": 19030,
    "▁rapid": 10952,
    "▁Inc": 9266,
    "atus": 2389,
    "▁están": 21654,
    "symbol": 18098,
    ")$,": 5767,
    "▁Mass": 7360,
    "▁tomb": 20450,
    "omega": 4787,
    "▁address": 3211,
    "▁${": 6435,
    "園": 31179,
    "▁pendant": 13180,
    "тами": 14331,
    "▁allerdings": 22761,
    "ctl": 16948,
    "▁trigger": 7135,
    "थ": 31927,
    "Off": 6880,
    "▁oblig": 10788,
    "▁retired": 16528,
    "b": 29890,
    "▁Beginn": 27847,
    "▁nat": 14033,
    "amb": 1117,
    "▁Britannica": 18940,
    "íp": 28304,
    "▁што": 26462,
    "ément": 15471,
    "▁Open": 4673,
    "burg": 3074,
    "▁support": 2304,
    "(__": 22168,
    "▁IM": 22313,
    "▁On": 1551,
    "Plot": 20867,
    "Execution": 20418,
    "oup": 1132,
    "▁incoming": 23235,
    "▁indirect": 26377,
    "lying": 5890,
    "achim": 24039,
    "▁append": 9773,
    "▁Ча": 16829,
    "nil": 8834,
    "RIPT": 24290,
    "▁Pedro": 13286,
    "▁langue": 25407,
    "ospod": 23245,
    "▁management": 10643,
    "▁resolved": 11527,
    "▁proportion": 18618,
    "▁Francis": 5845,
    "▁repeating": 28769,
    "чный": 19705,
    "▁authority": 14329,
    "▁faithful": 27057,
    "yj": 17472,
    "▁product": 3234,
    "▁Budapest": 16185,
    "yaml": 25162,
    "циональ": 12671,
    "ació": 12076,
    "atge": 26775,
    "us": 375,
    "Font": 9824,
    ",”": 3995,
    "<0xF0>": 243,
    "}$.": 4311,
    "jor": 3418,
    "▁Magyar": 15910,
    "<>();": 27258,
    "▁Aur": 23266,
    "▁listade": 7917,
    "▁obtain": 4017,
    "▁standard": 3918,
    "▁Try": 3967,
    "▁direkt": 27701,
    "▁feels": 23880,
    "hen": 3169,
    "▁slä": 6870,
    "square": 17619,
    "ர": 30966,
    "_{\\": 1665,
    "У": 30053,
    "raham": 22084,
    "y": 29891,
    "signed": 7433,
    "steller": 14640,
    "▁Ple": 19777,
    "▁clean": 5941,
    "pub": 5467,
    "⊤": 31771,
    "ielt": 9304,
    "▁Nied": 24052,
    "коном": 20950,
    ")->": 19969,
    "▁pels": 29549,
    "nen": 4566,
    "▁información": 29717,
    "icky": 18219,
    "LL": 2208,
    "bd": 6448,
    "▁volt": 5583,
    "▁introduced": 9129,
    "▁ax": 4853,
    "`.`": 27870,
    "drawable": 13131,
    "rupt": 6685,
    "izado": 17566,
    "▁scaling": 21640,
    "▁crashes": 21985,
    "▁moder": 17768,
    "▁trabaj": 16069,
    "▁picked": 18691,
    "▁directeur": 26114,
    "rolling": 22155,
    "▁period": 3785,
    "gebras": 28200,
    "built": 16145,
    "так": 19038,
    "▁Biography": 17093,
    "ậ": 31142,
    "HER": 4448,
    "ikz": 9510,
    "▁bounded": 12635,
    "▁implementation": 5314,
    "ince": 1239,
    "Now": 10454,
    "▁jaren": 23877,
    "ők": 23420,
    "▁Sv": 15012,
    "stein": 5465,
    "▁welche": 19526,
    "▁tend": 10331,
    "idor": 23377,
    "▁Polen": 28500,
    "ively": 3598,
    "▁intens": 12838,
    "liament": 9745,
    "Decimal": 23307,
    "bling": 21435,
    ".$$": 19470,
    "keep": 17462,
    "▁Amer": 2163,
    "▁Road": 9321,
    "ط": 30367,
    "պ": 31790,
    "▁infl": 4414,
    "▁Ż": 14589,
    "▁churches": 26014,
    "▁against": 2750,
    "▁todos": 10843,
    "▁SY": 28962,
    "▁wrapping": 28489,
    "▁cambio": 26007,
    "▁Retrieved": 25427,
    "▁Mans": 20594,
    "PDF": 8493,
    "▁Charlot": 19260,
    "▁flags": 13449,
    "vor": 5267,
    "\\": 29905,
    "▁cors": 27672,
    "izon": 18162,
    "iri": 12737,
    "▁commun": 3817,
    "ammed": 28913,
    "ക": 30385,
    "rások": 22636,
    "▁stor": 2840,
    "▁partly": 22669,
    "Dynamic": 24001,
    "▁principales": 21349,
    "box": 1884,
    "▁Jose": 5043,
    "ska": 4621,
    "}}=": 28419,
    "orn": 1398,
    "▁много": 15169,
    "анг": 4747,
    "creen": 5576,
    "db": 2585,
    "▁features": 5680,
    "erna": 10989,
    "lice": 5897,
    "▁sudden": 8327,
    "omer": 12392,
    "Timer": 14745,
    "every": 17991,
    "▁out": 714,
    "▁Male": 27208,
    "pow": 12248,
    "▁stones": 25702,
    "▁gewann": 17479,
    "▁Ri": 21710,
    "▁my": 590,
    "rained": 22042,
    "▁budget": 23562,
    "▁time": 931,
    "=\"${": 19070,
    "▁Integr": 17100,
    "▁sounds": 10083,
    "wendung": 27621,
    "<0x18>": 27,
    "gang": 8029,
    "Notification": 12958,
    "ходить": 23368,
    "▁squares": 25256,
    "▁П": 971,
    "▁rare": 10812,
    "▁надморској": 21836,
    "▁septiembre": 9199,
    "née": 24697,
    "▁mapped": 20545,
    "enska": 24958,
    "cker": 4937,
    "▁beside": 17620,
    "▁interesting": 8031,
    "▁len": 7431,
    "▁recursive": 16732,
    "дения": 28161,
    "▁becoming": 14171,
    "▁[\\": 12452,
    "mos": 7681,
    "出": 30544,
    "▁nobody": 23196,
    "leans": 25210,
    "▁figured": 14788,
    "<0x34>": 55,
    "enschapp": 9217,
    "Illustration": 12614,
    "CG": 11135,
    "▁daher": 29430,
    "▁predicted": 25383,
    "▁foi": 4732,
    "ibr": 4626,
    "▁mayor": 9105,
    "▁progetti": 7188,
    "▁avoir": 11469,
    "Donald": 28080,
    "Products": 25767,
    "▁duplicate": 7929,
    "engelsk": 29669,
    "✅": 31681,
    "atory": 7606,
    "▁Ruth": 23130,
    "▁Minor": 21987,
    "tat": 8101,
    "▁Pract": 29124,
    "과": 31906,
    "▁illustrated": 26848,
    "▁dort": 11529,
    "icial": 5611,
    "bot": 7451,
    "动": 30846,
    "фер": 25637,
    "phi": 2876,
    "pin": 12687,
    "▁am": 626,
    "bild": 10271,
    "▁characters": 4890,
    "inae": 17174,
    "▁frère": 26083,
    "▁affili": 23736,
    "▁proced": 6449,
    "reland": 11209,
    ".(": 14030,
    "adora": 15441,
    "quier": 16026,
    "▁maximum": 7472,
    "▁bew": 16435,
    "▁applications": 8324,
    "run": 3389,
    "▁ft": 11791,
    "<0x4F>": 82,
    "▁#####": 16101,
    "Main": 6330,
    "▁ship": 7751,
    "arding": 20272,
    "temp": 7382,
    "▁este": 4404,
    "▁XIXe": 28250,
    "Information": 20350,
    "▁право": 13728,
    "▁log": 1480,
    "▁Cuando": 27351,
    "venir": 15470,
    "▁ар": 5339,
    "aug": 2987,
    "▁demi": 23690,
    "▁apparten": 27119,
    "strap": 5698,
    "ee": 3905,
    "žit": 20882,
    "▁backend": 14998,
    "▁business": 5381,
    "asse": 5793,
    "zett": 21060,
    "▁Avec": 26383,
    "Ver": 6565,
    "▁Product": 10969,
    "▁→": 10309,
    "даго": 27726,
    "▁Testament": 29198,
    "▁Joe": 11131,
    "居": 31924,
    "▁quote": 14978,
    "▁unless": 6521,
    "pez": 14001,
    "▁Friedrich": 9542,
    "tol": 25027,
    "ء": 30992,
    "▁specific": 2702,
    "▁Cependant": 27816,
    "reibung": 20989,
    "engo": 22260,
    "▁shooting": 27904,
    "▁Const": 5798,
    "endif": 15224,
    "▁Last": 9208,
    "ML": 1988,
    "utzt": 26216,
    "eti": 16577,
    "WN": 16048,
    "reiche": 23296,
    "▁toen": 22441,
    "▁pending": 28235,
    "▁губер": 19062,
    ")\",": 19123,
    "▁Tag": 10522,
    "▁repre": 14767,
    "icional": 18394,
    "ье": 12295,
    "▁muerte": 22316,
    "amed": 2795,
    "ো": 31864,
    "elian": 27185,
    "▁agua": 22989,
    "umin": 9735,
    "azz": 7511,
    "édia": 13292,
    "oper": 3372,
    "Rot": 21281,
    "▁snapshot": 22395,
    "▁Limited": 28873,
    "▁Question": 894,
    "ave": 1351,
    "張": 31504,
    "Res": 1666,
    "nde": 17720,
    "Py": 19737,
    "▁realiz": 8869,
    "▁филь": 13320,
    "aset": 24541,
    "▁summer": 11801,
    "ound": 618,
    "▁Ott": 13476,
    "業": 31564,
    "▁mostly": 11149,
    "cell": 3729,
    "▁Sebastian": 26631,
    "owane": 17537,
    "Map": 3388,
    "labels": 21134,
    "walt": 12056,
    "▁just": 925,
    "ssh": 15269,
    "yo": 9029,
    "▁most": 1556,
    "Future": 20154,
    "▁Twitter": 20147,
    "▁ří": 25610,
    "icted": 18186,
    "▁NEW": 29091,
    "};": 3400,
    "▁genre": 16151,
    "ому": 22870,
    "groupId": 9688,
    "▁Middle": 14253,
    "aram": 11269,
    "limits": 12514,
    "audi": 28863,
    "▁High": 5057,
    "▁soil": 22473,
    "ieb": 10789,
    "yman": 21909,
    "ecz": 27750,
    "calcul": 15807,
    "Scene": 23472,
    "▁VIAF": 9604,
    "▁sulla": 12615,
    "/(": 14571,
    "rece": 13556,
    "▁Erz": 17390,
    "▁stars": 10819,
    "asset": 24129,
    "取": 30683,
    "ación": 2709,
    "flug": 24545,
    "▁clear": 2821,
    "ilder": 2700,
    "▁beide": 23847,
    "▁qued": 18061,
    "sequ": 6831,
    "▁workflow": 27321,
    "Render": 10716,
    "Bounds": 18526,
    "nel": 9139,
    "λ": 30142,
    "▁insp": 8681,
    "ouc": 29049,
    "!=": 19216,
    "▁название": 24143,
    "▁również": 20316,
    ".](": 24630,
    "▁З": 2419,
    "strij": 22783,
    "▁Pass": 6978,
    "▁parl": 24590,
    "orphism": 28611,
    "èce": 10491,
    "aron": 5022,
    "▁Ley": 25933,
    "▁flav": 21054,
    "▁Stud": 5088,
    "▁Record": 14164,
    "▁væ": 28340,
    "дя": 5640,
    "▁Shakespe": 22476,
    "ossa": 20634,
    "Switch": 24995,
    "ächs": 29437,
    "submit": 7892,
    "▁land": 2982,
    "▁introduce": 14944,
    "▁use": 671,
    "blem": 1031,
    "▁Song": 9362,
    "▁Singap": 21538,
    "目": 30895,
    "▁duas": 27544,
    "▁Luis": 12583,
    "<0x2C>": 47,
    "array": 2378,
    "▁acquaint": 19395,
    "▁projection": 18246,
    "Pat": 11457,
    "▁substant": 20446,
    "atti": 11556,
    "▁reb": 15121,
    "▁ihrem": 19067,
    "▁met": 1539,
    "gesch": 7754,
    "▁thinking": 7291,
    "▁„": 1768,
    "▁Study": 29301,
    "▁finished": 7743,
    "println": 5248,
    "▁O": 438,
    "▁nobles": 26784,
    "ßen": 6256,
    "Ł": 30153,
    "▁planet": 15754,
    "]}": 12258,
    "Style": 5568,
    "▁empir": 29190,
    "▁stations": 16355,
    "▁friend": 5121,
    "▁fuer": 8470,
    "▁duration": 14385,
    "▁Е": 3337,
    "шка": 13785,
    "▁relationships": 21702,
    "▁Rhein": 19009,
    "gment": 19422,
    "Resol": 12375,
    "TX": 28627,
    "▁davon": 24925,
    "adin": 28214,
    "INTER": 23845,
    "ved": 1490,
    "▁ISO": 17723,
    "▁ISSN": 15781,
    "▁organis": 17459,
    "▁atoms": 28422,
    "\".$": 22681,
    "▁dop": 22357,
    "хів": 9198,
    "ście": 18391,
    "Ö": 30094,
    "▁allow": 2758,
    "vt": 21908,
    "▁importantes": 24151,
    "▁immedi": 5799,
    "▁przeci": 29572,
    "▁explicitly": 9479,
    "▁pens": 10420,
    "Connection": 5350,
    "ánt": 25258,
    "стви": 7926,
    "ダ": 30617,
    "▁map": 2910,
    "▁Terry": 27571,
    "day": 3250,
    "()`](": 23098,
    "ired": 2859,
    "▁Fame": 21808,
    "▁extr": 17541,
    "=\"<?": 25076,
    "红": 31869,
    "ears": 15451,
    "]->": 28895,
    "間": 31069,
    "▁Esta": 14192,
    "ствовал": 26684,
    "нала": 24896,
    "▁temp": 5694,
    "Query": 3010,
    "व": 30610,
    "anc": 4564,
    "▁tib": 29344,
    "richtung": 27022,
    "▁recurs": 8304,
    "łod": 25073,
    "▁Pale": 26412,
    "▁Govern": 6769,
    "̱": 31574,
    "▁▁▁▁▁▁▁": 4706,
    "▁corresponds": 16161,
    "jas": 14196,
    "SS": 1799,
    "▁reste": 18062,
    "ouch": 3222,
    "告": 31785,
    "▁Excel": 11388,
    "era": 1572,
    "colog": 21553,
    "▁også": 27337,
    "ppy": 23717,
    "▁Januar": 7116,
    "组": 31263,
    "命": 31237,
    "集": 30893,
    "undial": 12079,
    "▁köz": 7591,
    "Dist": 13398,
    "Control": 4809,
    "ер": 780,
    "▁Position": 20627,
    "▁abbre": 29759,
    ">": 29958,
    "That": 7058,
    "jer": 6846,
    "▁Lors": 19551,
    "▁водо": 20783,
    "向": 31331,
    "▁kw": 9049,
    "ar": 279,
    "Results": 12191,
    "▁nem": 6583,
    "▁Sri": 24019,
    "рий": 10598,
    "aging": 6751,
    "zm": 14018,
    "▁clock": 12006,
    "^{(": 7650,
    "▁Sc": 2522,
    "▁sott": 29139,
    "▁Гри": 20264,
    "Split": 18772,
    "send": 6717,
    "▁con": 378,
    "IL": 6227,
    "schule": 15361,
    "▁муніципалі": 22835,
    "▁ios": 10615,
    "』": 31005,
    "ски": 1305,
    "▁бы": 2188,
    "gon": 28517,
    "жной": 25385,
    "oro": 5801,
    "ниш": 13837,
    "▁Bibli": 3351,
    "recogn": 29423,
    "onden": 16043,
    "pet": 10963,
    "▁asc": 12066,
    "ills": 6090,
    "zález": 24387,
    "▁opera": 14495,
    "▁decided": 8459,
    "▁income": 17869,
    "brace": 13842,
    "▁reading": 5183,
    "argv": 19218,
    "available": 16515,
    "▁squad": 10023,
    "Symbol": 14730,
    "vex": 13809,
    "▁simple": 2560,
    "▁xml": 4903,
    "▁champ": 18480,
    "DF": 4037,
    "▁Š": 9042,
    "▁Regiment": 17982,
    "▁Junior": 15897,
    "зар": 28680,
    "mittel": 20664,
    "delta": 4181,
    "▁eleven": 28121,
    "▁[{": 15974,
    "amente": 2503,
    "▁octobre": 9419,
    "▁){": 29545,
    "▁weap": 16154,
    "▁arg": 1852,
    "cdot": 3822,
    "unk": 2960,
    "▁Android": 5669,
    "wr": 15866,
    "▁Inner": 25665,
    "▁engines": 24000,
    "▁te": 734,
    "▁Grace": 23350,
    "▁substring": 28228,
    "DIR": 9464,
    "ega": 2442,
    "ف": 30241,
    "▁instinct": 26508,
    "▁Municipal": 21327,
    "System": 3924,
    "▁usually": 5491,
    "▁arist": 28672,
    "▁Status": 16034,
    "von": 23696,
    "ampf": 16817,
    "▁благо": 22327,
    "▁ensure": 9801,
    "versary": 27547,
    "▁github": 18546,
    "▁particle": 16445,
    "▁fonts": 23849,
    "放": 31182,
    "▁dé": 1437,
    "жды": 24057,
    "▁replacing": 15270,
    "AS": 3289,
    "▁них": 15904,
    "▁firing": 25948,
    "▁threw": 18318,
    "▁racc": 25533,
    "Input": 4290,
    "ác": 25968,
    "▁murm": 25234,
    "▁ave": 8992,
    "lacht": 14791,
    "ны": 933,
    "▁demon": 8033,
    "▁Oficina": 29460,
    "ждения": 18479,
    "}$": 1042,
    "Sur": 18498,
    "ὁ": 31219,
    "hov": 23294,
    "atically": 19574,
    "▁Ontario": 21718,
    "▁gol": 15192,
    "quantity": 22640,
    "▁acqu": 10695,
    "大": 30257,
    "ynchron": 9524,
    "elin": 24446,
    "Emp": 10495,
    "▁influ": 7112,
    "龍": 31239,
    "kazy": 12752,
    "▁validation": 8845,
    "丁": 31968,
    "▁públic": 15893,
    "long": 5426,
    "ktop": 6883,
    "efficient": 8462,
    "John": 11639,
    "▁Dios": 28626,
    "xml": 3134,
    "▁scarcely": 20558,
    "▁Despite": 19454,
    "rho": 4650,
    "▁girls": 14000,
    "▁game": 3748,
    "ка": 642,
    "iga": 4324,
    "▁проду": 23092,
    "▁remains": 9242,
    "(*)": 22798,
    "▁violence": 21448,
    "▁})": 5615,
    "Editor": 15280,
    "▁Ark": 19444,
    "事": 30745,
    "}\\)": 14786,
    "presentation": 26081,
    "etime": 5410,
    "ivers": 1536,
    "▁central": 6555,
    "Args": 7883,
    "▁Hop": 20727,
    "il": 309,
    "ientras": 15054,
    "▁database": 2566,
    "LOC": 16652,
    "ním": 13057,
    "tail": 18237,
    "leqslant": 23501,
    "▁резу": 12250,
    "DEF": 24405,
    "▁denotes": 20169,
    "ifts": 17741,
    "night": 11147,
    "▁опреде": 20658,
    "black": 8517,
    "enschaft": 7008,
    "▁све": 19939,
    "<0xE6>": 233,
    "geschichte": 18602,
    "$$": 3997,
    "zel": 10533,
    "hoz": 19362,
    "itect": 4496,
    "efe": 25790,
    "▁совер": 28485,
    "................": 25285,
    "▁анг": 16775,
    "▁hand": 1361,
    "▁TLS": 27658,
    "чно": 4913,
    "▁СССР": 12383,
    "anu": 15623,
    "▁Exp": 12027,
    "▁fö": 10621,
    "▁Aven": 28943,
    "▁brick": 28645,
    "itis": 23448,
    "▁shield": 28761,
    "▁letech": 25052,
    "▁behavior": 6030,
    "▁However": 2398,
    "▁Lin": 4342,
    "▁проек": 16054,
    "ског": 20214,
    "▁Сере": 23903,
    "SV": 7597,
    "▁während": 12829,
    "ela": 3100,
    "▁lider": 29110,
    "itmap": 10137,
    "▁strong": 4549,
    "▁recogn": 5936,
    "▁`|": 21839,
    "▁Con": 1281,
    "sheets": 19360,
    "бра": 8355,
    "▁Render": 26000,
    "▁landscape": 24400,
    "prü": 10991,
    "optim": 20640,
    "aler": 18362,
    "empt": 3456,
    "▁Dol": 11201,
    "iskt": 28404,
    "atif": 25572,
    "▁tele": 4382,
    "▁Raymond": 21380,
    "Mont": 24665,
    "▁encoding": 8025,
    "ध": 31437,
    "▁is": 338,
    "▁Laura": 21671,
    "Marie": 23572,
    "frica": 18961,
    "ijo": 19550,
    "▁arrested": 24383,
    "description": 8216,
    "₀": 30220,
    "▁publications": 25964,
    "崎": 31416,
    "▁coord": 29311,
    "<0x9D>": 160,
    "training": 26495,
    "apter": 3314,
    "▁marine": 23585,
    "▁Ear": 5290,
    "▁weapons": 25340,
    "▁álbum": 13473,
    "pointer": 17226,
    "ès": 2093,
    "Exit": 24365,
    "chron": 5904,
    "UR": 4574,
    "oni": 5271,
    "].[": 15555,
    "问": 31658,
    "▁particularly": 10734,
    "iller": 5495,
    "▁rendering": 15061,
    "▁RewriteCond": 24935,
    "‖": 31523,
    "<0xD9>": 220,
    "▁Ver": 1798,
    "isions": 12112,
    "▁se": 409,
    "▁historic": 22879,
    "Some": 9526,
    "▁manière": 26722,
    "=\"@+": 9438,
    "icy": 4245,
    "▁zurück": 9964,
    "ψ": 30559,
    "Enc": 8566,
    "▁Prin": 12069,
    "▁мі": 4811,
    "▁acknowled": 24084,
    "▁Span": 7948,
    "mbH": 17701,
    "▁print": 1596,
    "тных": 26063,
    "▁IDE": 15004,
    "won": 12620,
    "▁unter": 3662,
    "ordre": 19809,
    "atos": 4507,
    "▁tem": 1350,
    "▁Société": 21903,
    "▁selector": 11764,
    "▁elif": 25342,
    "▁rails": 18090,
    "orp": 26423,
    "tra": 3018,
    "Ş": 30309,
    "clock": 13058,
    "▁bapt": 27257,
    "hrte": 27426,
    "▁allocate": 23632,
    "\\{\\": 24976,
    "▁quotes": 11839,
    "Identity": 18415,
    "▁pandas": 11701,
    "▁×": 13105,
    "▁Lucas": 24243,
    "銀": 31825,
    "▁мы": 26907,
    "▁pyg": 19484,
    "▁subsequently": 17602,
    "▁Casa": 19326,
    "eared": 21128,
    "▁afin": 18934,
    "лки": 7574,
    "▁National": 3086,
    "imper": 26039,
    "Domain": 15951,
    "▁partitions": 23629,
    "writing": 16554,
    "▁hold": 4808,
    "]);": 5691,
    "▁iterator": 20380,
    "sono": 27554,
    "位": 30956,
    "ATCH": 14789,
    "▁nom": 2245,
    "▁fans": 24909,
    "▁get": 679,
    "▁дру": 4849,
    "▁carte": 20206,
    "▁og": 3671,
    "ultats": 19718,
    "▁W": 399,
    "listener": 25894,
    "ნ": 30632,
    "bildung": 20541,
    "iore": 19258,
    "▁ie": 19282,
    "ální": 17844,
    "istration": 8306,
    "eed": 12613,
    "vid": 8590,
    "LEASE": 14063,
    "▁Democratic": 19083,
    "▁principle": 12502,
    "▁murder": 13406,
    "▁anonymous": 21560,
    "▁guerra": 9798,
    "▁bind": 7868,
    "▁communic": 7212,
    "preis": 28506,
    "▁android": 1442,
    "Category": 10900,
    "sig": 18816,
    "▁Watch": 24274,
    "ane": 1662,
    "▁článku": 24353,
    "▁Nur": 25651,
    "bes": 5707,
    "isting": 15423,
    "від": 24317,
    "▁TH": 3446,
    "▁Os": 6657,
    "ustral": 12135,
    "ourg": 18041,
    "ulaire": 25290,
    "rence": 17540,
    "phal": 17206,
    "▁count": 2302,
    "gericht": 20665,
    "alert": 12888,
    "ason": 1658,
    "▁dub": 15416,
    "scribe": 13086,
    "▁integral": 10160,
    "▁actor": 11339,
    "ById": 4499,
    "▁Is": 1317,
    "▁составля": 13227,
    "ber": 495,
    "▁einer": 3422,
    "▁settlement": 16493,
    "▁displayed": 8833,
    "clojure": 24812,
    "▁Country": 15456,
    "car": 4287,
    "Hold": 29144,
    "▁install": 2601,
    "рите": 23314,
    "▁pixels": 17036,
    "▁cens": 19343,
    "changed": 15033,
    "▁gruppo": 18081,
    "aste": 4350,
    "tx": 7508,
    "жива": 13204,
    "▁begg": 25945,
    "only": 6194,
    "<0x6A>": 109,
    "▁trad": 3534,
    "▁бі": 16312,
    "▁Japan": 5546,
    "ET": 2544,
    "cean": 11956,
    "▁accurate": 16232,
    "▁tired": 23407,
    "▁%>": 6580,
    "dec": 7099,
    "▁offici": 29158,
    "▁residence": 25488,
    "asticsearch": 20291,
    "Api": 11713,
    "рит": 28717,
    "▁dataframe": 12205,
    "▁squ": 10674,
    "▁indicate": 12266,
    "▁Root": 28272,
    "yer": 7598,
    "▁pet": 5697,
    "odore": 29221,
    "ћ": 30093,
    "istiche": 29000,
    "▁Kirk": 26424,
    "▁копия": 24723,
    "▁growth": 14321,
    "Ph": 4819,
    "once": 10646,
    "elled": 14356,
    "éal": 21659,
    "alen": 10066,
    "▁Ul": 10103,
    "▁durant": 13933,
    "дом": 8418,
    "ough": 820,
    "▁xx": 15473,
    "▁began": 4689,
    "場": 31045,
    "▁mang": 25016,
    "ʿ": 30271,
    "▁": 29871,
    "*)": 7528,
    "▁Historical": 20315,
    "▁sous": 5898,
    "▁grab": 17229,
    "▁Resource": 18981,
    "avy": 5301,
    "▁мене": 27324,
    "▁///": 4363,
    "мей": 14444,
    "▁Castro": 28339,
    "▁pocket": 24589,
    "cross": 19128,
    "▁checks": 12747,
    "▁Fra": 7347,
    "▁Accept": 29848,
    "▁$": 395,
    "▁fully": 8072,
    "▁Bulgar": 29405,
    "▁wondering": 9873,
    "▁ital": 4698,
    "▁LIN": 21724,
    "▁Toast": 15891,
    "струк": 20361,
    "lês": 21042,
    "O": 29949,
    "news": 15753,
    "▁темпера": 25596,
    "▁beim": 10005,
    "▁HashMap": 23073,
    "▁Berlin": 5115,
    "▁aware": 9543,
    "▁dw": 11988,
    "oust": 18291,
    "eline": 5570,
    "std": 4172,
    "▁sexual": 18287,
    "шення": 25093,
    "▁Astronom": 27348,
    "▁md": 22821,
    "う": 30465,
    "▁indicated": 18694,
    "ivamente": 11778,
    "▁friendship": 27994,
    "There": 8439,
    "▁changing": 6480,
    "▁cancel": 12611,
    "Sigma": 10142,
    "▁mile": 17967,
    "▁mir": 10078,
    "▁CA": 12766,
    "▁сту": 13224,
    "▁depends": 7111,
    "▁prede": 27978,
    "Abstract": 9118,
    "▁comedy": 26228,
    "▁near": 2978,
    "Field": 3073,
    "▁Česk": 22081,
    "▁janvier": 8891,
    "▁byla": 14905,
    "▁iOS": 10012,
    "▁amet": 27315,
    "zec": 17938,
    "▁deviation": 29522,
    "glass": 29050,
    "▁outside": 5377,
    "inos": 8226,
    "▁lb": 27981,
    "¿": 30158,
    "▁Iter": 20504,
    "市": 30461,
    "kunft": 27488,
    "▁influen": 13787,
    "mez": 21660,
    "Seconds": 27535,
    "实": 31195,
    "izing": 5281,
    "▁Hat": 25966,
    "▁hol": 8753,
    "лю": 2583,
    "▁approximate": 26368,
    "▁AT": 15531,
    "techn": 21695,
    "namespace": 22377,
    "▁Turn": 9603,
    "▁twelve": 17680,
    "ח": 30428,
    "▁important": 4100,
    "utlich": 22251,
    "urus": 17142,
    "▁JVM": 26919,
    "▁sind": 3937,
    "▁Laur": 14019,
    "▁astero": 20058,
    "ńst": 14782,
    "Method": 4062,
    "▁exhaust": 27096,
    "▁flex": 8525,
    "hpp": 29623,
    "ři": 18844,
    "={": 3790,
    "▁Tree": 15472,
    "}{\\": 3331,
    "▁chapter": 16385,
    "▁pattern": 4766,
    "▁assess": 24809,
    "\\,\\": 15013,
    "▁quelques": 13545,
    "▁webpack": 28285,
    "ᴇ": 31297,
    "ம": 30930,
    ")+": 7240,
    "▁Us": 10783,
    "<0xE9>": 236,
    "▁Mind": 20152,
    "orient": 12236,
    "lob": 2127,
    "▁Years": 23857,
    "▁deser": 16964,
    "licher": 9195,
    "ruf": 26822,
    "▁dokument": 27530,
    "▁Пав": 23646,
    "▁lig": 14172,
    "Deb": 10251,
    "開": 31404,
    "Est": 12787,
    "insic": 28594,
    "lip": 3466,
    "ográfica": 23916,
    "ug": 688,
    "▁uniformly": 26018,
    "icrosoft": 2995,
    "∞": 30306,
    "▁aveva": 14490,
    "▁zone": 10640,
    "▁pied": 15957,
    "<0xE1>": 228,
    "SE": 1660,
    "▁clin": 24899,
    "▁recommend": 6907,
    "ert": 814,
    "▁represented": 9875,
    "ally": 635,
    "▁identity": 10110,
    "▁Gra": 4989,
    "▁narr": 15474,
    "prob": 22795,
    "▁cast": 4320,
    "▁Stack": 10292,
    "ream": 1633,
    "▁ursprüng": 24904,
    "соб": 17393,
    "ennessee": 21539,
    "▁Attribute": 23833,
    "▁części": 24177,
    "▁пора": 28227,
    "oute": 2663,
    "▁Cache": 28540,
    "▁Anyone": 26407,
    "ഞ": 31956,
    "jos": 14736,
    "▁Ned": 23375,
    "}}}\\": 20388,
    "rup": 17827,
    "hm": 7184,
    "▁persons": 12407,
    "▁Download": 25553,
    "▁cha": 10329,
    "▁printed": 13350,
    "plots": 26762,
    "ill": 453,
    "▁Uncle": 29108,
    "▁reputation": 19821,
    "▁nelle": 12447,
    "ư": 30416,
    "Cho": 15954,
    "သ": 31922,
    "▁Dopo": 18352,
    "oss": 2209,
    "Rows": 10661,
    "▁venne": 12749,
    "▁junt": 25296,
    "▁Napoleon": 24265,
    "Љ": 30488,
    "RT": 13079,
    "▁erschien": 25316,
    "ël": 13929,
    "dart": 11353,
    "}\")": 27195,
    "ných": 28216,
    "▁notable": 18697,
    "▁colors": 11955,
    "▁unders": 23400,
    "▁mut": 5478,
    "▁Binding": 25799,
    "fficial": 7880,
    "▁moments": 19462,
    "дами": 29742,
    "▁Фе": 19477,
    "▁dbo": 26895,
    "▁alcan": 21629,
    "▁Sied": 24965,
    "i": 29875,
    "Controls": 17825,
    "сите": 9440,
    "skap": 24892,
    "▁Franklin": 21504,
    "▁Tab": 11090,
    "▁statistical": 24148,
    "▁Single": 16740,
    "▁surprised": 18014,
    "STRING": 20785,
    "vera": 28279,
    "<0x82>": 133,
    "arga": 21899,
    "selenium": 27373,
    "タ": 30369,
    "IOException": 20477,
    "aison": 8376,
    "<0xA7>": 170,
    "enne": 4584,
    "De": 2772,
    "▁supply": 11421,
    "อ": 30351,
    "▁hot": 7375,
    "▁alte": 22924,
    "utors": 29560,
    "ു": 30442,
    "bis": 18809,
    "▁played": 5318,
    "▁Andreas": 21186,
    "▁possibly": 10075,
    "ā": 30107,
    "▁bias": 24003,
    "▁жовтня": 25460,
    "рес": 19961,
    "▁Ke": 4813,
    "▁segundo": 14729,
    "▁який": 16629,
    "▁sim": 1027,
    "▁temporal": 25406,
    "review": 27828,
    "ategories": 14404,
    "▁available": 3625,
    "▁briefly": 23359,
    "▁présente": 22847,
    "elle": 1808,
    "frique": 24361,
    "uses": 6394,
    "求": 31376,
    "▁lle": 19804,
    "▁publié": 28884,
    "AR": 1718,
    "isf": 4492,
    "inter": 1639,
    "▁step": 4331,
    "▁début": 13222,
    "▁continent": 25523,
    "▁tribes": 29201,
    "▁Фи": 13038,
    "chn": 3049,
    "▁French": 5176,
    "▁expressed": 13384,
    "}\\": 1012,
    "▁Schriftsteller": 24118,
    "▁MM": 28880,
    "amo": 10178,
    "rees": 11003,
    "льной": 25883,
    "▁soit": 12852,
    "гии": 27186,
    "▁mes": 4883,
    "related": 12817,
    "rito": 9296,
    "▁construction": 7632,
    "arbe": 23536,
    "▁Marg": 11649,
    "asha": 26840,
    "pu": 3746,
    "zburg": 21647,
    "mond": 8315,
    "▁'_": 22868,
    "dst": 22992,
    "▁Future": 16367,
    "und": 870,
    "▁jelent": 23962,
    "▁bits": 9978,
    "▁Kompon": 27860,
    "▁woj": 9237,
    "▁Wit": 24363,
    "▁koji": 21016,
    "cknow": 15415,
    "ocoa": 22531,
    "germeister": 25382,
    "cel": 2242,
    "▁~[": 18173,
    "etro": 29551,
    "Sequence": 20529,
    "▁pour": 1671,
    "er": 261,
    "▁silence": 15142,
    "▁treatment": 14502,
    "`](": 7072,
    "▁NASA": 24206,
    "<0x57>": 90,
    "▁compt": 18741,
    "▁egy": 5524,
    "▁ogni": 18579,
    "ầ": 30884,
    "торы": 5090,
    "▁faut": 21668,
    "▁quart": 10256,
    "ador": 3136,
    "▁build": 2048,
    "▁Controller": 15830,
    "▁zijn": 4053,
    "Vis": 6116,
    "your": 8066,
    "▁Local": 9959,
    "Enum": 16854,
    "<0xFF>": 258,
    "ceil": 27696,
    "▁\"\"": 5124,
    ",...,": 27062,
    "▁sex": 7916,
    "že": 11590,
    "ves": 1960,
    "▁votes": 18952,
    "WF": 29686,
    "▁License": 19245,
    "▁sail": 14892,
    "▁Чер": 15605,
    "▁cron": 18863,
    "▁SELECT": 5097,
    "Act": 2865,
    "▁output": 1962,
    "lov": 5590,
    "xs": 10351,
    "lla": 13520,
    "▁Rab": 16155,
    "▁instanti": 13213,
    "Pro": 1184,
    "first": 4102,
    "▁bei": 2862,
    "▁curious": 12758,
    "дня": 16282,
    "tax": 20725,
    "▁quoted": 23153,
    "▁BBC": 14129,
    "▁scales": 23431,
    "▁Moh": 12929,
    "ingly": 11687,
    "▁имени": 21959,
    "ori": 4170,
    "▁facil": 16089,
    "LT": 5850,
    "▁unos": 22660,
    "▁outline": 27887,
    "▁preferred": 16389,
    "▁morte": 14825,
    "lac": 4620,
    "▁Syntax": 21306,
    "右": 31803,
    "▁sou": 3669,
    "ję": 10274,
    "▁tête": 17949,
    "itudes": 20816,
    "▁Zur": 16318,
    "▁Tir": 27810,
    "ord": 536,
    "▁link": 1544,
    "refresh": 22379,
    "▁loops": 12104,
    "≤": 30248,
    "▁levels": 11174,
    "長": 30899,
    "eff": 12352,
    "Bob": 29362,
    "нциклопеди": 19962,
    "vector": 8111,
    "▁sehen": 27500,
    "▁bib": 29727,
    "пла": 18478,
    "ш": 30002,
    "▁layout": 5912,
    "▁Mira": 29422,
    "▁manufact": 12012,
    "▁июня": 16819,
    "edit": 5628,
    "стори": 25084,
    "tests": 21150,
    "先": 31244,
    "ー": 30185,
    "ful": 1319,
    "ignment": 10194,
    "={{": 28493,
    "rypt": 4641,
    "▁alphabet": 22968,
    "reet": 4521,
    "▁These": 4525,
    "存": 30946,
    "▁entfer": 15153,
    "php": 1961,
    "▁Fich": 15898,
    "In": 797,
    "aman": 13533,
    "▁Martin": 6502,
    "▁аль": 12668,
    "▁coun": 2613,
    "зна": 4372,
    "ora": 2207,
    "ступил": 28270,
    "▁Вар": 27058,
    "ategory": 3326,
    "▁ан": 14519,
    "報": 31519,
    "▁Arbeit": 17561,
    "дного": 27505,
    "auté": 18560,
    "▁своих": 29614,
    "▁exec": 2279,
    "iza": 6619,
    "“)": 25035,
    "▁plus": 2298,
    "▁spare": 29337,
    "▁над": 8082,
    "▁kamen": 28587,
    "ゃ": 31312,
    "▁rate": 6554,
    "ske": 26050,
    "▁одной": 25816,
    "▁offices": 25222,
    "irm": 3568,
    "▁команди": 19137,
    "≡": 30616,
    "▁lar": 2203,
    "orb": 11831,
    "xaml": 29510,
    "▁lot": 3287,
    "педи": 8947,
    "enti": 7268,
    "▁Must": 19928,
    "▁necessity": 24316,
    "unta": 16138,
    "▁featured": 15000,
[...]
