{
  "vocab": {
    "allas": 15892,
    "cke": 10055,
    "▁\\{": 9991,
    "▁Пари": 23988,
    "nea": 14011,
    "▁NEW": 29091,
    "▁Address": 16428,
    "▁sil": 4047,
    "▁obey": 26449,
    "▁profes": 13091,
    "▁Phill": 21856,
    "▁courts": 28033,
    "uben": 21341,
    "Mount": 27648,
    "▁Lob": 27741,
    "▁ami": 18926,
    "▁vý": 9660,
    "ART": 8322,
    "ność": 17917,
    "▁Seven": 26647,
    "▁česk": 21270,
    "▁титу": 27125,
    "île": 26917,
    "hus": 14116,
    "Pal": 18210,
    "▁grey": 18345,
    "▁Chine": 29142,
    "ську": 25018,
    "zeichnet": 8549,
    "▁Buff": 22274,
    "лог": 15157,
    "quantity": 22640,
    "publish": 23679,
    "こ": 30589,
    "▁deal": 5376,
    "▁%>": 6580,
    "▁февраля": 17672,
    "strings": 19651,
    "▁mieszkańców": 28589,
    "▁scientific": 16021,
    "▁prev": 12379,
    "<0x40>": 67,
    "▁выпу": 16840,
    "Lat": 13992,
    "há": 19990,
    "間": 31069,
    "井": 30945,
    "▁solves": 24307,
    "prime": 10080,
    "avigation": 5437,
    "▁gau": 13395,
    "▁optim": 5994,
    "▁última": 19463,
    "▁debugging": 13490,
    "▁свой": 24913,
    "▁virtual": 6901,
    "▁Wor": 19662,
    "▁trat": 9248,
    "▁throws": 8026,
    "▁Colors": 29183,
    "Rep": 5612,
    "▁Ko": 8224,
    "Ъ": 31147,
    "cov": 24542,
    "'=>": 16826,
    "Graphics": 17290,
    "▁Unity": 20872,
    "▁overrid": 20831,
    "ゴ": 30987,
    "sheets": 19360,
    "▁dé": 1437,
    "stüt": 20617,
    "▁crashes": 21985,
    "▁hé": 22500,
    "antic": 7716,
    "▁settled": 17141,
    "▁gentleman": 16615,
    "▁#[": 14330,
    "cols": 22724,
    "observ": 26739,
    "┌": 31002,
    "HR": 20938,
    "▁transmit": 22649,
    "学": 30415,
    "▁января": 15650,
    ".]": 5586,
    ")'": 16029,
    "ierz": 15952,
    "Acc": 7504,
    "▁redirects": 28937,
    "*,": 15966,
    "▁reconoc": 28546,
    "▁lé": 22109,
    "èces": 17893,
    "oshi": 26434,
    "▁neighbourhood": 29643,
    "VAR": 26865,
    "NER": 13865,
    "▁shout": 21272,
    "Type": 1542,
    "▁that": 393,
    "连": 31903,
    "▁proposed": 7972,
    "aws": 10467,
    "▁cam": 3949,
    "希": 31841,
    "NotFound": 17413,
    "Include": 29419,
    "▁Joe": 11131,
    "▁Palest": 22053,
    "▁svensk": 29249,
    "ív": 13906,
    "▁\"\\": 6634,
    "inject": 21920,
    "▁altern": 5136,
    "▁dere": 14923,
    "orial": 9020,
    "▁ав": 5484,
    "▁cur": 3151,
    "inx": 14668,
    "eny": 15274,
    "▁rings": 28774,
    "х": 29988,
    "pine": 26215,
    "華": 31187,
    "Next": 9190,
    "▁chrome": 16735,
    "▁Share": 26849,
    "md": 3487,
    "▁«": 859,
    "glise": 18548,
    "rola": 18789,
    "onna": 11586,
    "ло": 843,
    "rinn": 18023,
    "Label": 4775,
    "▁medical": 16083,
    "ít": 2468,
    "Al": 2499,
    "Den": 29315,
    "pond": 2818,
    "fit": 9202,
    "ANG": 19453,
    "▁mér": 27442,
    "▁tribes": 29201,
    "ával": 19147,
    "star": 8508,
    "！": 30584,
    "icz": 5175,
    "▁neck": 18873,
    "NUMBER": 23207,
    "▁angular": 6401,
    "▁Савез": 26194,
    "▁ko": 5812,
    "owan": 24136,
    "▁Card": 9160,
    "thy": 21155,
    "▁satisfy": 15523,
    "▁Ann": 8081,
    "边": 31993,
    "▁bazie": 24951,
    "▁strat": 26742,
    "▁funcion": 21802,
    "legen": 14778,
    "▁dès": 21975,
    "staw": 14665,
    "Excel": 22926,
    "▁jan": 5496,
    "Џ": 30282,
    "▁Bibliografia": 8858,
    "<0x12>": 21,
    "▁Reb": 12936,
    "▁національ": 28973,
    "redirect": 17886,
    "Login": 11049,
    "▁municipio": 17523,
    "▁closure": 18424,
    "▁Your": 3575,
    "▁--": 1192,
    "▁Alliance": 29855,
    "▁corn": 26343,
    "efficient": 8462,
    "東": 30591,
    "▁tempt": 25782,
    "orrow": 22396,
    "▁Major": 11019,
    "▁nouve": 10984,
    "▁trasfer": 27370,
    "▁Kar": 3467,
    "▁NaN": 18780,
    "▁vita": 14284,
    "ров": 2899,
    "otos": 15788,
    "▁gem": 7055,
    "▁Term": 11814,
    "([": 4197,
    "су": 2937,
    "▁puede": 11493,
    "▁ці": 20004,
    "Move": 16619,
    "icro": 2357,
    "ním": 13057,
    "дно": 12869,
    "▁Ans": 21877,
    "▁міста": 25191,
    "▁viewed": 24774,
    "=\\": 2013,
    "▁estimates": 21875,
    "▁sign": 1804,
    "label": 1643,
    "▁associ": 4067,
    "▁Vi": 10630,
    "чки": 11245,
    "▁onClick": 14478,
    "▁prompt": 9508,
    "▁différentes": 28374,
    "им": 9430,
    "▁Each": 7806,
    "natural": 25047,
    "▁nuevo": 15671,
    "encer": 22687,
    "empio": 27667,
    "▁внут": 27165,
    "uid": 5416,
    "▁Prés": 29310,
    "▁Cad": 21542,
    "▁тер": 10539,
    "門": 31075,
    "▁Franc": 28382,
    "rium": 16241,
    "pmatrix": 12571,
    "дён": 22841,
    "▁anonymous": 21560,
    "▁Column": 12481,
    "▁oro": 28979,
    "odn": 22452,
    "idae": 3898,
    "▁wieku": 21777,
    "UI": 3120,
    "Root": 10303,
    "▁свобо": 29814,
    "för": 9255,
    "▁Olympic": 19025,
    "▁вре": 5599,
    "zk": 7730,
    "▁structure": 3829,
    "lier": 4926,
    "▁tag": 4055,
    "▁Pil": 14970,
    "irect": 1088,
    "▁Tools": 27564,
    "ником": 14083,
    "▁Gros": 28006,
    "▁incor": 6178,
    "ná": 13980,
    "▁стан": 5151,
    "▁bel": 1339,
    "atre": 6064,
    "Term": 14343,
    "template": 6886,
    "NF": 22498,
    "gc": 27354,
    "ious": 2738,
    "AI": 23869,
    "▁Actually": 12823,
    "слі": 15487,
    "▁equation": 6306,
    "На": 19193,
    "▁cor": 1034,
    "UMN": 29127,
    "wię": 15152,
    "▁anc": 10359,
    "▁klub": 14715,
    "DOC": 28665,
    "▁txt": 13872,
    "▁gru": 4500,
    "▁seeking": 25738,
    "omega": 4787,
    "▁созда": 14507,
    "jus": 18597,
    "▁cinéma": 19384,
    "Num": 8009,
    "▁base": 2967,
    "rollers": 11897,
    ")}.": 29512,
    "flu": 25044,
    "nitt": 9898,
    "zeta": 11327,
    "▁reached": 7450,
    "▁aprile": 18998,
    "▁Business": 15197,
    "▁huge": 12176,
    "ével": 27145,
    "▁Tennis": 29010,
    "能": 30815,
    "izar": 15356,
    "rek": 22218,
    "▁promised": 22399,
    "▁lleg": 10953,
    "neur": 16115,
    "reib": 12207,
    "Status": 5709,
    "quisition": 23493,
    "\"`": 6937,
    "program": 8860,
    "ucion": 28762,
    "IB": 8979,
    "Rece": 10380,
    "त": 30475,
    "▁pro": 410,
    "oa": 19807,
    "лта": 13313,
    "лия": 9844,
    "▁talk": 5193,
    "temperaturen": 16013,
    "▁Pakistan": 21215,
    "故": 31969,
    "prefix": 13506,
    "▁entfer": 15153,
    "soft": 2695,
    "▁nieuwe": 25126,
    "atern": 25744,
    "▁gi": 4005,
    "▁surtout": 26154,
    "▁Cow": 21638,
    "持": 31695,
    "▁continues": 18172,
    "Capt": 21133,
    "days": 16700,
    "right": 1266,
    "adding": 4676,
    "▁Tar": 11740,
    "ogle": 1882,
    ".@": 21240,
    "▁prede": 27978,
    "ivers": 1536,
    "itage": 16639,
    "▁Hern": 25962,
    "▁explan": 7309,
    "▁GO": 21947,
    "▁Jordan": 18284,
    "elte": 14248,
    "pril": 3193,
    "▁passes": 14517,
    "lit": 19411,
    "assign": 16645,
    "тка": 19972,
    "▁janvier": 8891,
    "▁histor": 3603,
    "ree": 929,
    "▁criticism": 29035,
    "lex": 2506,
    "▁%,": 19778,
    "▁Creative": 26635,
    "▁Prem": 6097,
    "▁answered": 7699,
    "島": 30721,
    "▁incorpor": 11039,
    "val": 791,
    "судар": 9840,
    "▁Articles": 12952,
    "▁ciudad": 9866,
    "▁литера": 23082,
    "aaaa": 27137,
    ".,": 1696,
    "users": 7193,
    "▁builds": 23315,
    "▁elect": 3546,
    "▁believe": 4658,
    "слов": 26443,
    "▁exit": 6876,
    "▁backing": 27436,
    "▁popup": 18218,
    "░": 30833,
    "微": 31935,
    "▁stim": 20436,
    "ja": 1764,
    "▁Mes": 16457,
    "<0xBC>": 191,
    "▁ис": 9971,
    "▁November": 3979,
    "▁dear": 9425,
    "incie": 25597,
    "länd": 16442,
    "OC": 20166,
    "▁успе": 19823,
    "Binary": 25196,
    "▁Name": 4408,
    "▁zem": 20534,
    "bbi": 14663,
    "▁implementing": 16049,
    "▁closely": 16467,
    "▁aute": 14604,
    "▁recognition": 19679,
    "▁exc": 5566,
    "▁competition": 13888,
    "USE": 17171,
    "久": 31347,
    "▁\"...": 29804,
    "▁spr": 7689,
    "roy": 4727,
    "▁building": 5214,
    "Face": 23360,
    "mine": 24669,
    "2": 29906,
    "▁сла": 28638,
    "boldmath": 16751,
    "▁russe": 28280,
    "▁minister": 11050,
    "uminate": 27024,
    "▁Vietnam": 18444,
    "▁lets": 16869,
    "▁vär": 28412,
    "▁comm": 844,
    "▁stretch": 16116,
    "anonymous": 25772,
    "auf": 4987,
    "ș": 30065,
    "ър": 6512,
    "▁ships": 13968,
    "▁broken": 9391,
    "ika": 4106,
    "Side": 23908,
    "leading": 25369,
    "цію": 21728,
    "bl": 2204,
    "▁long": 1472,
    "▁ві": 8390,
    "RGB": 28212,
    "▁Head": 12252,
    "▁nörd": 23810,
    "math": 755,
    "▁Wis": 15756,
    "сла": 12329,
    "▁ne": 452,
    "middle": 17662,
    "▁exists": 4864,
    "▁transactions": 22160,
    "▁Quando": 26425,
    "char": 3090,
    "▁retain": 11551,
    "agent": 14748,
    "▁nam": 6869,
    "burgh": 13903,
    "ired": 2859,
    "▁latter": 7480,
    "▁round": 4513,
    "▁STR": 29486,
    "▁реда": 16537,
    "vs": 4270,
    "명": 31976,
    "Organ": 27356,
    "itute": 12356,
    "fter": 906,
    "priv": 22534,
    "▁temper": 6238,
    "PASS": 25711,
    "▁cri": 14783,
    "▁Lear": 19530,
    "▁женщи": 22465,
    "▁Exchange": 24004,
    "rei": 5803,
    "ání": 10497,
    "({": 3319,
    "▁нав": 21879,
    "▁fully": 8072,
    "Bl": 10358,
    "Current": 7583,
    "rails": 9912,
    "▁janu": 10111,
    "▁начале": 26266,
    "▁Campion": 22494,
    "PG": 16903,
    "olit": 27298,
    "bow": 17729,
    "▁pid": 23107,
    "▁veg": 12461,
    "▁corpor": 17266,
    "▁Central": 8068,
    "▁shame": 28503,
    "ções": 5616,
    "▁tätig": 24198,
    "language": 11675,
    "▁ani": 26448,
    "▁constants": 17727,
    "▁Tage": 24302,
    "hrer": 26768,
    "▁voce": 25888,
    "▁daher": 29430,
    "ym": 962,
    "ful": 1319,
    "ilen": 17022,
    "Meta": 19346,
    "▁Antonio": 9630,
    "▁vis": 1998,
    "▁refuge": 25447,
    "uario": 22223,
    "вар": 10912,
    "Trans": 4300,
    "⋅": 30394,
    "▁mix": 6837,
    "geber": 29492,
    "quot": 23083,
    "gre": 7979,
    "usr": 4855,
    "pace": 3535,
    "▁Meteor": 29573,
    "▁installer": 27786,
    "eqref": 4915,
    "▁Jersey": 14500,
    "▁considered": 5545,
    "▁some": 777,
    "riage": 9081,
    "▁techniques": 13698,
    "plugin": 8582,
    "З": 30060,
    "ąż": 19151,
    "▁não": 8145,
    "▁author": 4148,
    "estaur": 22837,
    "iao": 29653,
    "esses": 15322,
    "=\"$": 18965,
    "oir": 6390,
    "varepsilon": 6018,
    "+\"": 13578,
    "▁Progress": 20018,
    "▁decla": 5237,
    "small": 9278,
    "▁Wel": 10458,
    "▁stal": 28367,
    "▁proget": 6342,
    "▁vál": 12196,
    "ろ": 31206,
    "?](": 10846,
    "pring": 2339,
    "walk": 20919,
    "▁situ": 2990,
    "penas": 21275,
    "サ": 30615,
    "▁Nak": 20962,
    "▁possess": 22592,
    "▁худо": 13205,
    "▁fright": 22739,
    "▁tri": 3367,
    "▁eingesetzt": 15979,
    "єм": 23802,
    "eval": 14513,
    "▁W": 399,
    "device": 10141,
    "▁embar": 21620,
    "markt": 16325,
    "thers": 3341,
    "loy": 2376,
    "atta": 14975,
    "▁successfully": 8472,
    "igneur": 22849,
    "interface": 13248,
    "▁original": 2441,
    "文": 30333,
    "▁Prize": 20604,
    "▁ein": 1011,
    "rim": 5632,
    "▁religious": 12962,
    "▁blocked": 24370,
    "ater": 1008,
    "fach": 23193,
    "▁initialize": 11905,
    "▁supplies": 28075,
    "▁Vict": 7229,
    "▁Ant": 5459,
    "getMessage": 28983,
    "тт": 27369,
    "▁Ford": 14601,
    "%;": 8874,
    "ierte": 5423,
    "choose": 21803,
    "Static": 17046,
    "▁overlay": 27292,
    "ending": 2548,
    "³": 30168,
    "▁bigger": 16600,
    "iod": 2660,
    "▁CPU": 10808,
    "Gre": 25120,
    "ب": 30177,
    "▁bas": 2362,
    "": 31512,
    "unker": 27560,
    "optera": 23672,
    "▁bin": 9016,
    "▁ress": 18475,
    "ографи": 8755,
    "▁Fund": 13249,
    "Controls": 17825,
    "▁surprise": 16671,
    "forms": 9514,
    "reme": 10291,
    "或": 31391,
    "Jose": 26473,
    "always": 21936,
    "total": 7827,
    "],": 1402,
    "▁Sultan": 27874,
    "Core": 9203,
    "ципа": 18596,
    "inity": 13593,
    "▁Metal": 24992,
    "▁titolo": 22147,
    "▁Quart": 24664,
    "argo": 7921,
    "▁служ": 17746,
    "▁Israel": 11996,
    "▁anybody": 16357,
    "auth": 5150,
    "getText": 18516,
    "▁PS": 11323,
    "Esp": 15784,
    "▁afford": 21750,
    "lemagne": 18453,
    "▁Clar": 15183,
    "uso": 10648,
    "рі": 3020,
    "▁Ober": 8067,
    "$$": 3997,
    "isseur": 25490,
    "▁theories": 25841,
    "▁happening": 10464,
    "▁packages": 9741,
    "ím": 5487,
    "mod": 1545,
    "▁остан": 28180,
    "▁Hello": 15043,
    "重": 30908,
    "`](": 7072,
    "▁messages": 7191,
    "rypted": 14740,
    "▁Calendar": 26431,
    "лин": 8279,
    "IM": 7833,
    "Name": 1170,
    "ристи": 15932,
    "▁teaching": 18819,
    "▁commonly": 15574,
    "▁verso": 19803,
    "anna": 9713,
    "▁GC": 19983,
    "esto": 4778,
    "▁завер": 24587,
    "▁Nau": 26700,
    "▁sacrific": 26285,
    "gom": 27157,
    "▁Kevin": 19323,
    "gen": 1885,
    "Hel": 7658,
    "收": 31997,
    "EAR": 26441,
    "rac": 945,
    ":%": 16664,
    "<0x05>": 8,
    "▁relatively": 13774,
    "tra": 3018,
    "rug": 11124,
    "port": 637,
    "ент": 3648,
    "ORY": 18929,
    "▁regiment": 23058,
    "Device": 11501,
    "▁коми": 19161,
    "▁ри": 12591,
    "▁service": 2669,
    "▁Queen": 10470,
    "▁running": 2734,
    "ces": 778,
    "▁Сред": 25481,
    "oti": 15297,
    "ált": 18507,
    "▁Bis": 16818,
    "AtIndexPath": 29809,
    "▁копия": 24723,
    "kań": 16022,
    "oca": 6400,
    "▁mens": 18664,
    "▁distrib": 22965,
    "▁weak": 8062,
    "미": 31362,
    "▁Berliner": 25912,
    "Pixel": 29637,
    "▁partie": 8691,
    "Ant": 13448,
    "▁browser": 4714,
    "<0x34>": 55,
    "lst": 20155,
    "сия": 21290,
    "▁lengths": 27497,
    "▁${": 6435,
    "▁Miller": 16498,
    "▁Machine": 6189,
    "лки": 7574,
    "▁municip": 5536,
    "▁neural": 19677,
    "based": 6707,
    "convert": 13441,
    "▁IS": 8519,
    "▁arch": 3190,
    "ína": 28309,
    "Interface": 10448,
    "▁Club": 5977,
    "FFFF": 22098,
    "▁Board": 12590,
    "▁Alabama": 26911,
    "ћ": 30093,
    "бря": 5542,
    "L": 29931,
    "auté": 18560,
    "rep": 3445,
    "CONFIG": 25903,
    "▁probability": 6976,
    "成": 30494,
    "▁Alb": 16197,
    "▁Джерела": 24971,
    "▁Ill": 8408,
    "起": 31558,
    "RU": 28283,
    "▁dessin": 27869,
    "capt": 17885,
    "▁\"\"\"": 9995,
    "▁Mari": 27161,
    "▁viss": 22003,
    "▁mn": 28597,
    "mathbb": 1995,
    "svn": 27517,
    "▁is": 338,
    "metros": 28204,
    "setopt": 28393,
    "▁incident": 15134,
    "▁screen": 4315,
    "athedral": 21471,
    "▁conditional": 15047,
    "ppen": 7785,
    "➖": 31779,
    "▁ce": 2257,
    "▁rail": 8367,
    "ritt": 12123,
    "hens": 26791,
    "ős": 14773,
    "▁`&": 28073,
    "▁ell": 12302,
    "mc": 14047,
    "kl": 6321,
    "osition": 4490,
    "▁All": 2178,
    "▁significant": 7282,
    "▁Кара": 28969,
    "othek": 17663,
    "amerikan": 11596,
    "▁само": 8761,
    "()));": 20465,
    "▁Wien": 12899,
    "▁pairs": 11000,
    ".«": 29719,
    "க": 30700,
    "aped": 10501,
    "▁gravit": 26618,
    "明": 30592,
    "gebra": 5869,
    "ielt": 9304,
    "schemas": 11993,
    "gas": 25496,
    "▁bad": 4319,
    "zeug": 13289,
    "▁Sydney": 16198,
    "▁Platform": 28096,
    "rab": 4201,
    "дова": 11577,
    "▁println": 22088,
    "vey": 6950,
    "▁Lim": 9628,
    "▁Music": 6125,
    "<0xD4>": 215,
    "ump": 3427,
    "▁Res": 2538,
    ",\"": 1699,
    "reso": 28857,
    "coln": 16575,
    "idal": 23670,
    "'>": 11041,
    "▁quick": 4996,
    "▁IB": 15731,
    "aused": 15244,
    "▁z": 503,
    "cow": 20587,
    "▁chemical": 22233,
    "wei": 26599,
    "▁къ": 23839,
    "▁\"*": 26345,
    "iende": 28114,
    "etime": 5410,
    "▁appears": 5692,
    "enable": 12007,
    "Gesture": 24110,
    "▁within": 2629,
    "▁synth": 14710,
    "▁participated": 25223,
    "▁pandas": 11701,
    "onda": 14287,
    "▁rat": 7548,
    "Web": 3609,
    "nah": 8723,
    "▁Од": 29770,
    "vens": 9852,
    "▁nation": 5233,
    "ного": 1868,
    "No": 3782,
    "gor": 21208,
    "гани": 10574,
    "ví": 9584,
    "љашње": 16056,
    "▁Schiff": 22325,
    "▁cav": 18346,
    "▁Ur": 8918,
    "istory": 2668,
    "⊙": 30738,
    "▁begins": 16410,
    "▁Dom": 7809,
    "▁onCreate": 14813,
    "clipse": 8719,
    "제": 31306,
    "Opt": 20624,
    "dam": 16846,
    "▁Partei": 27239,
    "▁extracted": 23892,
    "ska": 4621,
    "<0x8D>": 144,
    "▁IR": 23292,
    "Sheet": 10654,
    "▁Feder": 7351,
    "▁issues": 5626,
    "esso": 6777,
    "criptor": 11709,
    "▁Identity": 27486,
    "▁Mik": 13803,
    "▁Deutschen": 12406,
    "▁muz": 23948,
    "存": 30946,
    "▁aufgrund": 25670,
    "ய": 31481,
    "▁slope": 24968,
    "▁primarily": 19434,
    "▁зада": 27341,
    "ième": 9397,
    "ombres": 20934,
    "SSN": 13429,
    "fun": 7692,
    "▁thoroughly": 26606,
    "▁book": 3143,
    "▁same": 1021,
    "▁Gr": 1632,
    "зько": 28471,
    "▁Vertrag": 29396,
    "▁Reg": 2169,
    "乡": 30574,
    "running": 21094,
    "vars": 16908,
    "▁Veg": 17236,
    "▁parameters": 4128,
    "earch": 2842,
    "்": 30380,
    "SH": 7068,
    "$": 29938,
    "ards": 3163,
    "▁changes": 3620,
    "gin": 5359,
    "▁stars": 10819,
    "▁profit": 21665,
    "▁Famil": 6280,
    "▁maintain": 7344,
    "ponents": 9340,
    "▁Document": 10854,
    "▁veces": 24063,
    "ții": 15042,
    "▁lowest": 19604,
    "▁gig": 19340,
    "▁Marse": 29626,
    "▁geometry": 16303,
    "FLA": 18823,
    "otte": 14360,
    "▁brig": 16724,
    "▁votes": 18952,
    "▁Mode": 21864,
    "▁Storm": 24444,
    "igny": 22771,
    "views": 7406,
    "need": 26180,
    "▁assembly": 11470,
    "▁entstand": 16875,
    "rh": 19046,
    "▁Provinz": 23114,
    "▁stupid": 20239,
    "▁auth": 4817,
    "ked": 17713,
    "лад": 27155,
    "▁Element": 10619,
    "fp": 18091,
    "▁dataset": 8783,
    "▁zaw": 15098,
    "lesia": 17516,
    "▁recursion": 20437,
    "кси": 11153,
    "<0xF4>": 247,
    "Width": 6110,
    "▁;;": 11533,
    "₃": 30174,
    "▁alg": 3093,
    "ér": 1064,
    "▁церкви": 25623,
    "++){": 16284,
    ">\\<^": 26498,
    "Ì": 30729,
    "▁hol": 8753,
    "▁Map": 7315,
    "ɹ": 31513,
    "▁\\<": 3551,
    "gon": 28517,
    "北": 30662,
    "▁sender": 10004,
    "し": 30326,
    "▁estudio": 29039,
    "▁comfort": 13016,
    "óż": 19497,
    "raz": 9504,
    "кер": 28946,
    "point": 3149,
    "ธ": 31547,
    "▁tier": 26485,
    "olan": 26510,
    "ifice": 28833,
    "▁обу": 27572,
    "▁things": 2712,
    "▁▁▁▁▁▁▁▁▁▁▁▁": 632,
    "▁AWS": 15540,
    "zi": 2526,
    "▁Patri": 23168,
    "▁Genomsnittlig": 28650,
    ",": 29892,
    "▁liga": 28714,
    ")]": 4638,
    "single": 14369,
    "/'": 22208,
    "▁Si": 6101,
    "irus": 22693,
    "▁presence": 10122,
    "inci": 2173,
    "atrice": 17417,
    "▁consequences": 27721,
    "arter": 4254,
    "▁spectral": 23161,
    "Outlet": 29377,
    "vě": 22946,
    "▁уча": 6810,
    "▁Dean": 23263,
    "нения": 15530,
    "▁sens": 4771,
    "▁Sohn": 15148,
    "▁drove": 26603,
    "sym": 11967,
    "ября": 7368,
    "ium": 1974,
    "▁hitting": 29425,
    "▁based": 2729,
    "▁Four": 12458,
    "Views": 23825,
    "▁Rück": 15582,
    "▁fotograf": 26185,
    "角": 31432,
    "LINE": 18521,
    "▁valuable": 21114,
    "ached": 3791,
    "rent": 7771,
    "▁styles": 11949,
    "written": 17625,
    "▁Chinese": 10013,
    "▁Sozial": 25094,
    "▁wys": 19789,
    "tf": 13264,
    "▁Ju": 5342,
    "movie": 27362,
    "▁defeated": 16235,
    "▁tradu": 27219,
    "Dr": 25639,
    "igration": 16783,
    "owed": 20937,
    "▁validation": 8845,
    "▁Лон": 29774,
    "ente": 2016,
    "▁Aqu": 16020,
    "Operation": 10925,
    "ución": 16249,
    "▁її": 21288,
    "cii": 18869,
    "▁entwick": 20151,
    "▁Politiker": 15408,
    "▁ground": 5962,
    "[]{": 24406,
    "gradle": 13196,
    "▁protect": 12566,
    "aggreg": 26193,
    "▁Ди": 8804,
    "▁fear": 8866,
    "www": 1636,
    "OnClickListener": 15909,
    "▁hers": 7955,
    "佐": 31315,
    "empty": 6310,
    "ücke": 17959,
    "▁'%": 14210,
    "▁Brasile": 28220,
    "▁Га": 8544,
    "模": 31382,
    "/:": 24676,
    "inet": 10157,
    "▁höch": 27783,
    "▁conflic": 9476,
    "▁scient": 9638,
    "▁fif": 8461,
    "imi": 10233,
    "IC": 2965,
    "▁vuel": 22126,
    "▁Rad": 4957,
    "▁trim": 17151,
    "▁largely": 18425,
    "Variable": 16174,
    "gleich": 19867,
    "ite": 568,
    "々": 31765,
    "hmen": 28822,
    "▁recovery": 24205,
    "▁University": 3014,
    "▁свои": 26348,
    "y": 29891,
    "▁Cap": 5915,
    "▁Май": 24314,
    "h": 29882,
    "▁Krist": 17773,
    "ografi": 29153,
    "▁Olimp": 25975,
    "/-": 24028,
    "▁Ye": 10134,
    "▁július": 27646,
    "▁nej": 17315,
    "ẓ": 31630,
    ">&": 19250,
    "▁inj": 10899,
    "спе": 16966,
    "ugby": 12691,
    "▁поло": 15960,
    "ா": 31015,
    "变": 31462,
    "бер": 7279,
    "▁(\\<": 21765,
    "abestanden": 17916,
    "IK": 23328,
    "~": 30022,
    "FORM": 19094,
    "GL": 7239,
    "props": 11030,
    "He": 3868,
    "▁posted": 8059,
    "germeister": 25382,
    "ého": 6690,
    "ak": 557,
    "▁life": 2834,
    "ef": 1389,
    "▁pén": 26520,
    "aki": 9940,
    "▁thrust": 29684,
    "▁formal": 11595,
    "borg": 14203,
    "sw": 2774,
    "▁try": 1018,
    "BC": 5371,
    "yaume": 20030,
    "▁ради": 14898,
    "▁exceptions": 15283,
    "undert": 7635,
    "▁Anyone": 26407,
    "asz": 12617,
    "▁Second": 6440,
    "▁merged": 19412,
    "enten": 19889,
    "▁laat": 23385,
    "▁Nr": 11100,
    "unte": 17316,
    "ultado": 2727,
    "▁Census": 20121,
    "▁intent": 7609,
    "rist": 2021,
    "▁ю": 8053,
    "span": 9653,
    "iellement": 18029,
    "ової": 27312,
    "гли": 16796,
    "ف": 30241,
    "embly": 5789,
    "NULL": 10074,
    "К": 30014,
    "github": 3292,
    ">\";": 16871,
    "▁friends": 7875,
    "▁instance": 2777,
    "▁otto": 15999,
    "ży": 7558,
    "▁Eliz": 12457,
    "▁году": 3294,
    "▁стар": 14871,
    "})^": 28813,
    "▁vég": 17751,
    "ustration": 11036,
    "asm": 11625,
    "illes": 7545,
    "▁immedi": 5799,
    "्": 30296,
    "▁circul": 18342,
    "▁encounter": 11735,
    "had": 21312,
    "▁spin": 10917,
    "▁pin": 12534,
    "▁importing": 28348,
    "소": 31189,
    "▁вто": 15046,
    "lige": 27084,
    "matrix": 5344,
    "Nov": 25363,
    "▁reach": 6159,
    "$\\": 4535,
    "omed": 27067,
    "▁Ген": 24271,
    "▁latin": 25677,
    "heimer": 27400,
    "▁leng": 28537,
    "▁кор": 13511,
    "类": 30832,
    "fasst": 25536,
    "▁sizes": 15786,
    "▁manifold": 25941,
    "▁Č": 7696,
    "zahl": 17301,
    "kappa": 9876,
    "ε": 30151,
    "ebru": 3205,
    "oug": 692,
    "acters": 21706,
    "▁Mark": 4485,
    "▁есть": 12795,
    "down": 3204,
    "▁duc": 20879,
    "mo": 4346,
    "<0xA7>": 170,
    "▁sezon": 20271,
    "смо": 23675,
    "▁politique": 11398,
    "▁certific": 23199,
    "etzung": 23078,
    "▁укра": 26993,
    "чик": 28407,
    "▁appropri": 7128,
    "▁гг": 23317,
    "▁extr": 17541,
    "▁walls": 14603,
    "▁mesh": 27716,
    "▁aug": 11307,
    "▁weiter": 9352,
    "Inflater": 17107,
    "energy": 27548,
    "▁bon": 10814,
    "▁Football": 8914,
    "imir": 17216,
    "dat": 4130,
    "바": 31963,
    "parse": 5510,
    "ugno": 15961,
    "▁forma": 5954,
    "Pr": 4040,
    "Brain": 22097,
    "▁spectrum": 18272,
    ".),": 9774,
    "▁обла": 5055,
    "进": 31174,
    "▁analyze": 27599,
    "▁Using": 5293,
    "weak": 25129,
    "perl": 22032,
    "▁spher": 26903,
    "▁conten": 16962,
    "writer": 13236,
    "utsch": 2434,
    "▁disse": 29340,
    "▁being": 1641,
    "того": 12716,
    "▁cols": 28730,
    "▁links": 2988,
    "▁assass": 20105,
    "▁puntos": 28780,
    "Category": 10900,
    "ർ": 31585,
    "▁cada": 9747,
    "▁rest": 1791,
    "▁sie": 2686,
    "▁tk": 18883,
    "▁Kinder": 15857,
    "▁surg": 25300,
    "??": 8773,
    "▁hrab": 28617,
    "лее": 9751,
    "most": 3242,
    "DOCTYPE": 21300,
    "alin": 25977,
    "▁play": 1708,
    "▁Canada": 7400,
    "sce": 22774,
    "т": 29932,
    "Many": 14804,
    "▁Affairs": 26049,
    "▁CL": 17332,
    "▁Ri": 21710,
    "pf": 7810,
    "▁composition": 15259,
    "▁фон": 15779,
    "▁animated": 17524,
    "vous": 23088,
    "▁Рас": 29355,
    ".....": 18598,
    "▁involves": 20789,
    "▁von": 1005,
    ".\"": 1213,
    "▁Og": 20807,
    "Ä": 30125,
    "λ": 30142,
    "▁Stop": 22303,
    "▁returning": 7863,
    "▁sounds": 10083,
    "▁closest": 21438,
    "▁Års": 26338,
    "▁entferne": 21173,
    "▁Alternatively": 20360,
    "six": 28319,
    "義": 31131,
    "Save": 11371,
    "▁Sug": 25589,
    "Les": 24560,
    "▁embedded": 15685,
    "▁!": 1738,
    "дия": 18000,
    "▁pipe": 14282,
    "▁beginning": 6763,
    "▁Britannica": 18940,
    "▁helps": 6911,
    "iformes": 25430,
    "▁operation": 5858,
    ">,": 10202,
    "▁junior": 20183,
    "▁improv": 13153,
    "ulse": 19994,
    "ographie": 4437,
    "▁Bart": 12245,
    "yellow": 29136,
    "ry": 719,
    "bottom": 8968,
    "modal": 15601,
    "▁resources": 7788,
    "认": 31439,
    "Sal": 20392,
    "▁output": 1962,
    "isms": 12903,
    "▁México": 14756,
    "▁pode": 13279,
    "▁anys": 15558,
    "}=\\": 8738,
    "▁covers": 18469,
    "▁Prof": 6175,
    "aint": 2365,
    "▁__": 4770,
    "▁ging": 12773,
    "▁gg": 20775,
    "▁Hy": 9665,
    "▁Ice": 26998,
    "shot": 8962,
    "Co": 7967,
    "▁stead": 28325,
    "应": 31370,
    "▁registry": 21235,
    "Hub": 16046,
    "▁async": 7465,
    "vert": 1765,
    "▁seus": 11018,
    "ToList": 21254,
    "▁(\"": 4852,
    "elta": 2554,
    "coming": 11506,
    "xspace": 13007,
    "bindung": 25988,
    "<0x65>": 104,
    "alling": 27855,
    "jq": 28695,
    "ips": 4512,
    "igger": 3567,
    "STAT": 17816,
    "▁insgesamt": 26696,
    "yme": 25395,
    "可": 30682,
    "城": 30626,
    "namespace": 22377,
    "▁Security": 14223,
    "▁condem": 24905,
    "▁simply": 3763,
    "dbc": 11140,
    "▁away": 3448,
    "▁hub": 19766,
    "Http": 5506,
    "UNT": 10356,
    "▁деся": 26661,
    "owanie": 21752,
    "く": 30568,
    "▁Carter": 22264,
    "▁pointers": 12589,
    "QUEST": 14130,
    "▁literary": 22937,
    "▁estaba": 16620,
    "▁LI": 17705,
    "▁economy": 26504,
    "dor": 22571,
    "Е": 30070,
    "▁expert": 17924,
    "ederbörd": 12731,
    "oslov": 24022,
    "third": 22585,
    "values": 5975,
    "ochastic": 28225,
    "我": 30672,
    "▁мы": 26907,
    "▁Our": 8680,
    "rant": 21867,
    "ż": 30042,
    "command": 6519,
    "▁Committee": 12930,
    "▁wicht": 21393,
    "▁Wissenschaft": 18359,
    "▁mid": 7145,
    "▁mort": 5758,
    "docker": 14695,
    "▁Lang": 10476,
    "ھ": 31860,
    "umb": 3774,
    "adi": 10129,
    "金": 30659,
    "▁par": 610,
    "ony": 2592,
    "stad": 17569,
    "▁Uri": 21670,
    "▁railway": 14113,
    "alone": 18785,
    "jąc": 23341,
    "▁upon": 2501,
    "▁Referências": 11162,
    "лев": 18226,
    "yd": 2941,
    "ption": 683,
    "öffentlich": 26207,
    "鉄": 31509,
    "▁constructed": 13319,
    "▁calling": 5432,
    "essional": 15750,
    "▁comple": 1614,
    "▁Nether": 22528,
    "▁verw": 9540,
    "▁Apple": 12113,
    "⍵": 31591,
    "ieved": 6402,
    "LT": 5850,
    "▁class": 770,
    "▁édition": 28823,
    "ță": 17544,
    "▁grown": 21633,
    "adors": 24549,
    "▁definition": 5023,
    "操": 31904,
    "ITH": 13054,
    "▁да": 3574,
    "▁quel": 7594,
    "▁presidente": 14666,
    "▁+": 718,
    "▁shooting": 27904,
    "▁bg": 25989,
    "▁другие": 28018,
    "s": 29879,
    "▁мате": 23470,
    "▁THE": 6093,
    "▁alberga": 19441,
    "ershell": 27456,
    "lapsed": 23384,
    "ora": 2207,
    "solute": 14977,
    "istant": 22137,
    "▁saying": 5934,
    "▁termine": 20202,
    "▁anno": 12327,
    "▁midst": 29214,
    "located": 28809,
    "englisch": 7131,
    "▁Па": 5390,
    "▁elaborate": 19430,
    "éroï": 22462,
    "Desktop": 17600,
    "▁fit": 6216,
    "▁Efter": 28300,
    "Italia": 20988,
    "▁Pat": 4121,
    "▁Canad": 9145,
    "quick": 24561,
    "cond": 1116,
    "▁administrative": 19185,
    "▼": 30736,
    "STR": 10810,
    "нев": 27984,
    "Wh": 8809,
    "▁Stream": 13763,
    "▁between": 1546,
    "ateurs": 14075,
    "input": 2080,
    "String": 1231,
    "▁mont": 7629,
    "▁constitution": 16772,
    "▁stats": 22663,
    "engine": 10599,
    "Middle": 25411,
    "▁evol": 15220,
    "▁expr": 22010,
    "ellow": 4743,
    "▁nave": 21102,
    "密": 31461,
    "TEXT": 16975,
    "ază": 26037,
    "null": 4304,
    "▁unicode": 29104,
    "▁meets": 28103,
    "▁fund": 5220,
    "uga": 26281,
    "чан": 22083,
    "▁november": 14530,
    "▁университе": 15545,
    "▁hoof": 17992,
    "▁Schweiz": 22703,
    "▁radio": 7155,
    "issance": 9948,
    "ility": 1793,
    "▁feels": 23880,
    "question": 12470,
    "▁etwas": 23452,
    "▁graduated": 23588,
    "▁Cort": 20290,
    "▁ass": 1223,
    "jal": 12429,
    "walt": 12056,
    "rass": 26771,
    "slug": 29517,
    "▁nord": 6218,
    "崎": 31416,
    "▁Narod": 24322,
    "бен": 21487,
    "▁Dynamic": 27747,
    "▁searching": 11975,
    "Import": 17518,
    "чного": 12290,
    "▁Techn": 8364,
    "minister": 15962,
    "odio": 16057,
    "ರ": 31861,
    "}}{\\": 12431,
    "▁thinks": 22405,
    "Memento": 13922,
    "NO": 6632,
    "Õ": 30983,
    "chte": 10948,
    "▁lar": 2203,
    "substring": 20363,
    "▁се": 1586,
    "▁Santiago": 18135,
    "ύ": 30308,
    "raj": 10665,
    ".}": 5003,
    "LEASE": 14063,
    "▁Helen": 21758,
    "cc": 617,
    "▁Хронологи": 26964,
    "ormal": 2759,
    "▁overflow": 11969,
    "▁vectors": 12047,
    "же": 1498,
    "▁start": 1369,
    "▁Mexico": 12568,
    "Js": 25498,
    "▁Kob": 28014,
    "▁backwards": 28953,
    "▁komm": 15985,
    "ppel": 17344,
    "aum": 25330,
    "▁involving": 21677,
    "night": 11147,
    "enburg": 22284,
    "▁execut": 6704,
    "(@": 10394,
    "▁ver": 1147,
    "▁cx": 28232,
    "▁mo": 2730,
    "▁Fernández": 27158,
    "DP": 11191,
    "▁Portal": 28612,
    "▁assemble": 24940,
    "GEN": 24647,
    "draw": 4012,
    "embros": 26557,
    "classes": 13203,
    "▁pose": 18593,
    "ikon": 10344,
    "ское": 7757,
    "▁identical": 13557,
    "Found": 9692,
    "▁Racing": 22582,
    "▁Hels": 23278,
    "▁Burg": 11202,
    "▁Jen": 21116,
    "▁Mat": 5345,
    "дя": 5640,
    "▁figura": 27316,
    "়": 31552,
    "iments": 7862,
    "▁DB": 6535,
    "orus": 16566,
    "▁nur": 5595,
    "ScrollView": 28556,
    "nett": 20764,
    "▁illegal": 27302,
    "▁Identifier": 20286,
    "OH": 23170,
    "▁measures": 15366,
    "▁leg": 2814,
    "▁torn": 10146,
    "▁UITableView": 20197,
    "card": 7543,
    "omething": 9153,
    "`).": 12913,
    "▁tick": 16892,
    "▁Gén": 26236,
    "▁спи": 27768,
    "▁Corpor": 12767,
    "honneur": 28522,
    "▁appreciate": 11188,
    "▁Green": 7646,
    "▁опреде": 20658,
    "üge": 28978,
    "▁nou": 28313,
    "stable": 13844,
    "▁Trad": 18375,
    "ниче": 9578,
    "▁raise": 12020,
    "essed": 11517,
    "spot": 17500,
    "▁december": 13034,
    "九": 31321,
    "там": 25544,
    "▁didnt": 28950,
    "ovo": 6962,
    "▁landing": 25325,
    "错": 31745,
    "▁towards": 7113,
    "predict": 27711,
    "plus": 11242,
    "рёх": 22726,
    "rust": 23575,
    "helm": 9421,
    "▁convert": 3588,
    "▁který": 18625,
    "сор": 25998,
    "']);": 17077,
    "`,": 1673,
    "se": 344,
    "ヨ": 31958,
    "basic": 16121,
    "Express": 27404,
    "▁ios": 10615,
    "lose": 2226,
    "▁collabor": 11465,
    "▁signature": 12608,
    "fault": 27934,
    "▁dre": 14724,
    "Her": 18650,
    "ulpt": 14185,
    "▁onderwerp": 23543,
    "Executor": 13366,
    "Ext": 5647,
    "▁anten": 25504,
    "▁розташ": 28365,
    "Args": 7883,
    "▁Muslim": 23772,
    "extensions": 24299,
    "ema": 2603,
    "▁conclude": 17668,
    "▁Л": 1872,
    "▁SM": 13766,
    "urent": 24811,
    "oure": 25664,
    "▁Material": 17582,
    "▁lex": 19566,
    "avoir": 28619,
    "Sw": 10840,
    "amos": 14054,
    "▁Polen": 28500,
    "▁purchased": 20848,
    "adores": 7447,
    "▁speaking": 13590,
    "</s>": 2,
    "Rect": 7364,
    "<0xA8>": 171,
    "geme": 19371,
    "▁diese": 10009,
    "▁ul": 9238,
    "imb": 19977,
    "mag": 11082,
    "▁sensible": 25182,
    "manager": 12847,
    "▁pec": 13209,
    "▁governor": 20221,
    "": 31440,
    "▁enables": 28936,
    "▁rad": 2971,
    "▁Home": 8778,
    "bug": 6152,
    "▁ON": 6732,
    "ought": 1774,
    "▁IEnumerable": 23555,
    "▁Electron": 28251,
    "cop": 9708,
    "▁`-": 9370,
    "▁mouvement": 25924,
    "放": 31182,
    "▁gemeins": 21650,
    "加": 30666,
    "▁Inv": 15518,
    "▁cerca": 16995,
    "▁sentiment": 19688,
    "▁який": 16629,
    "▁requirement": 11809,
    "治": 31032,
    "▁OF": 8079,
    "▁regex": 6528,
    "▁Represent": 16314,
    "▁Ord": 16557,
    "ā": 30107,
    "parameter": 15501,
    "▁encourag": 18443,
    "▁spaces": 8162,
    "▁Room": 25114,
    "ῶ": 30737,
    "▁Wies": 27178,
    "vee": 27202,
    "▁street": 11952,
    "▁Ti": 18439,
    "Days": 25991,
    "▁e": 321,
    "▁política": 18504,
    "atory": 7606,
    "▁addresses": 14157,
    "jav": 9494,
    "▁элект": 22876,
    "itar": 3673,
    "['": 1839,
    "cp": 6814,
    "▁dummy": 20254,
    "▁pian": 16782,
    "▁cop": 5614,
    "▁readers": 22176,
    "▁Arbeit": 17561,
    "Life": 26754,
    "cloud": 9274,
    "rii": 22515,
    "।": 31776,
    "onne": 7293,
    "▁há": 14859,
    "▁Api": 29749,
    "▁dire": 2970,
    "safe": 11177,
    "Doc": 14526,
    "▁VARCHAR": 21748,
    "▁spons": 21955,
    "▁visibility": 26401,
    "пы": 8384,
    "▁turned": 6077,
    "irl": 5168,
    "Ħ": 31870,
    "▁GROUP": 15345,
    "ensis": 6322,
    "▁XXX": 22615,
    "▁след": 25399,
    "d": 29881,
    "archar": 20523,
    "viders": 29454,
    "Ag": 14769,
    "▁conscious": 19861,
    "jl": 29606,
    "naire": 15421,
    "<0xDB>": 222,
    "However": 17245,
    "消": 31276,
    "endency": 5197,
    "▁gehör": 10429,
    "▁Gor": 18686,
    "Future": 20154,
    "Delay": 24996,
    "itel": 7454,
    "▁prue": 28854,
    "后": 30822,
    "ровано": 27260,
    "▁américain": 17153,
    "ains": 2708,
    "idents": 16719,
    "▁records": 6475,
    "agna": 15713,
    "▁Classic": 24300,
    "yr": 4316,
    "▁World": 2787,
    "▁Hinter": 23305,
    "▁Elisabeth": 26761,
    "uli": 14549,
    "▁let": 1235,
    "▁own": 1914,
    "ġ": 31058,
    "▁gained": 17515,
    "▁erfolgte": 23982,
    "erved": 9841,
    "ческий": 14760,
    "▁ng": 8736,
    "▁cond": 2148,
    "ピ": 31172,
    "▁million": 7284,
    "tion": 12757,
    "ères": 5908,
    "Connect": 17918,
    "▁Khan": 18915,
    "getElement": 6014,
    "binary": 19541,
    "нім": 28501,
    "▁sorrow": 28543,
    "dd": 1289,
    "ńska": 27123,
    "▁infant": 28056,
    "prü": 10991,
    "▁położ": 28458,
    "▁awk": 13689,
    "i": 29875,
    "less": 2222,
    "▁Audiod": 12479,
    "Ù": 31078,
    "▁¿": 18613,
    "▁influen": 13787,
    "foo": 5431,
    "Application": 4873,
    "▁той": 23879,
    "▁тор": 18068,
    "▁attacked": 22630,
    "▁embedding": 23655,
    "Count": 3981,
    "rero": 8567,
    "ober": 4950,
    "▁crime": 17268,
    "<0x3F>": 66,
    "▁caught": 12624,
    "▁polít": 9707,
    "▁prakt": 28683,
    "ishing": 14424,
    "▁ni": 6836,
    "lot": 8276,
    "▁navigate": 23624,
    "ходя": 14375,
    "orientation": 20659,
    "▁ill": 4486,
    "▁conven": 9973,
    "Board": 28397,
    "▁nome": 9235,
    "Duration": 18984,
    "–": 29994,
    "▁использова": 17442,
    "iből": 26378,
    "▁Judge": 26817,
    "ishop": 9835,
    "▁Pu": 12129,
    "▁inicial": 24879,
    "▁Reino": 25067,
    "Liter": 24938,
    "▁television": 11456,
    "mal": 5156,
    "▁dia": 9766,
    "aze": 28334,
    "arily": 6275,
    "▁sync": 16523,
    "▁nom": 2245,
    "Comm": 5261,
    "▁Les": 2664,
    "deutsch": 14659,
    "arbeit": 15564,
    "บ": 30526,
    "othing": 6046,
    "®": 30342,
    "agh": 21705,
    "▁Republik": 26587,
    "chrome": 18114,
    "▁С": 857,
    "史": 30911,
    "▁ж": 5571,
    "inf": 7192,
    "▁mp": 22326,
    "izada": 18954,
    "▁officiel": 14798,
    "amour": 27419,
    "▁Lis": 15285,
    "▁siglo": 14521,
    "otimes": 9356,
    "▁Por": 7102,
    "wrap": 6312,
    "▁Barcel": 11112,
    "SN": 19296,
    "дна": 8987,
    "Key": 2558,
    "▁fame": 27965,
    "▁fork": 27350,
    "HH": 27590,
    "▁Arn": 13767,
    "Theorem": 28831,
    "unden": 9784,
    "proof": 8017,
    "onk": 23345,
    "▁Specifically": 26321,
    "Ö": 30094,
    "\\%": 8958,
    "▁generic": 10035,
    "▁pac": 22906,
    "тина": 22033,
    "▁...": 2023,
    "▁plenty": 20947,
    "仁": 31337,
    "▁Weg": 17412,
    "agues": 21628,
    "▁casa": 10245,
    "▁fé": 19431,
    "瀬": 31933,
    "▁attributes": 8393,
    "UITableView": 23209,
    "▁Cinema": 27306,
    "rown": 4708,
    "▁Ga": 10415,
    "irie": 24135,
    "cmp": 21058,
    "▁amb": 3181,
    "Bar": 4297,
    "▁DVD": 15191,
    "请": 31088,
    "▁р": 8201,
    "array": 2378,
    "▁est": 707,
    "▁$$\\": 6118,
    "▁Had": 14302,
    "▁eeuw": 24509,
    "▁Вар": 27058,
    "igkeit": 9918,
    "occup": 16770,
    "▁dí": 19559,
    "they": 19562,
    "forum": 23343,
    "oking": 17223,
    "▁abund": 18666,
    "arna": 11441,
    "Iterator": 20277,
    "atisf": 27685,
    "▁Dieser": 24727,
    "▁ли": 3550,
    "este": 4196,
    "equality": 13895,
    "▁marker": 17456,
    "▁local": 1887,
    "▁whom": 6029,
    "aves": 5989,
    "▁строи": 22493,
    "ax": 1165,
    "▁apost": 18115,
    "={{": 28493,
    "туры": 15934,
    "ску": 6903,
    "icana": 12679,
    "paces": 22459,
    "sh": 845,
    "▁joy": 15331,
    "uchte": 21690,
    "▁kter": 8134,
    "ISO": 29096,
    "IGHT": 22530,
    "▁meilleur": 26713,
    "▁defence": 28399,
    "lease": 1511,
    "мі": 3272,
    "ackage": 2229,
    "rad": 3665,
    "▁template": 4472,
    "sudo": 15360,
    "▁Aut": 5202,
    "▁Boot": 13760,
    "zeg": 28530,
    "▁evident": 13602,
    "▁Se": 922,
    "▁scène": 20244,
    "quelle": 19443,
    "aille": 8284,
    "▁belongs": 14393,
    "▁estadoun": 17383,
    "岡": 31446,
    "▁Gü": 26315,
    "▁rendering": 15061,
    "Decimal": 23307,
    "']['": 16215,
    "schau": 29172,
    "▁spel": 18389,
    "osen": 7749,
    "Subject": 20622,
    "тому": 23356,
    "╔": 31351,
    "erno": 24887,
    "azine": 8985,
    "},\\": 7570,
    ">=": 18572,
    "▁Matth": 27471,
    "▁impress": 21210,
    "castle": 27193,
    "▁vier": 8545,
    "cess": 985,
    "werb": 25284,
    "osz": 13165,
    "▁losses": 28495,
    "▁Vol": 3684,
    "周": 31109,
    "furt": 13065,
    "▁missed": 13726,
    "▁reasoning": 24481,
    "quis": 7680,
    "▁collections": 16250,
    "АН": 27875,
    "Environment": 18649,
    "objects": 12650,
    "<0x16>": 25,
    "▁explore": 26987,
    "prev": 16304,
    "▁befindet": 16960,
    "▁definitely": 11630,
    "▁Anton": 5774,
    "fic": 9639,
    "▁Véase": 17866,
    "icular": 16311,
    "▁finger": 19917,
    ".~\\": 8770,
    "ris": 3780,
    "▁Seg": 6667,
    "▁imperial": 26990,
    "▁développ": 16797,
    "▁MongoDB": 29004,
    "Super": 19111,
    "tree": 8336,
    "▁java": 2115,
    "▁manip": 11525,
    "▁eval": 19745,
    "zar": 26687,
    "inese": 8233,
    "itatea": 26513,
    "▁cross": 4891,
    "сан": 24901,
    "ся": 1198,
    "theta": 3416,
    "▁outline": 27887,
    "▁Rece": 24328,
    "сти": 1415,
    "▁nasc": 29229,
    "ana": 1648,
    "ți": 10037,
    "iare": 27388,
    "▁ev": 3415,
    "vers": 874,
    "antin": 13027,
    "▁programmer": 27922,
    "]);": 5691,
    "ordered": 21693,
    "▁Third": 18008,
    ")$,": 5767,
    "jön": 29858,
    "▁août": 10158,
    "Ids": 21943,
    "▁Francis": 5845,
    "▁før": 27462,
    "inned": 27464,
    "▁була": 17480,
    "xico": 13821,
    "▁vain": 15722,
    "ifies": 11057,
    "ário": 12288,
    "commons": 22382,
    "pg": 4061,
    "dev": 3359,
    "▁Mediabestanden": 28574,
    "▁rewrite": 10683,
    "▁tran": 22024,
    "▁hate": 26277,
    "▁ranked": 26642,
    "▁surfaces": 28001,
    "▁alone": 7432,
    "oved": 8238,
    "ś": 30045,
    "▁explicit": 6261,
    "常": 31190,
    "▁>": 1405,
    "▁prospect": 27289,
    "нение": 16990,
    "▁Verlag": 9757,
    "Sito": 28409,
    "▁urb": 23499,
    "▁fis": 16436,
    "▁которые": 15261,
    "ство": 3501,
    "╌": 30772,
    "}</": 16040,
    "▁Jahrh": 8258,
    "quad": 3425,
    "apple": 11548,
    "▁simult": 15030,
    "▁regia": 9211,
    "▁Einwohner": 17940,
    "elijke": 6945,
    "ours": 2470,
    "UserName": 28129,
    "ute": 1082,
    "Michael": 24083,
    "jna": 27983,
    "----------": 28400,
    "▁}": 500,
    "▁aggreg": 11404,
    "úblic": 7627,
    "reci": 4361,
    "avig": 3723,
    "▁prowad": 28949,
    "reverse": 24244,
    "ʹ": 30820,
    "atform": 4585,
    "▁Yu": 27669,
    "◄": 30322,
    "▁рів": 27676,
    "▁McG": 22805,
    "▁Mitglieder": 29864,
    "▁promote": 27391,
    ")),": 8243,
    "ktet": 7153,
    "▁Lau": 25092,
    "▁bord": 12796,
    "▁batch": 9853,
    "Resources": 13770,
    "dess": 19521,
    "macro": 25254,
    "▁диа": 26487,
    ">`": 13885,
    "▁..": 6317,
    "▁uploaded": 20373,
    "ᾶ": 31778,
    "issues": 12175,
    "▁Valley": 13939,
    "▁drug": 15721,
    "▁duas": 27544,
    "spaces": 22854,
    "ellig": 9347,
    "rote": 4859,
    "▁annual": 17568,
    "umin": 9735,
    "round": 14486,
    "atin": 21203,
    "iada": 29018,
    "лё": 13459,
    "▁foo": 7953,
    "ensed": 21144,
    "iframe": 22000,
    "▁Oak": 24132,
    "cknow": 15415,
    "▁Size": 21179,
    "▁Storia": 19719,
    "▁дви": 16186,
    "vd": 27491,
    "sc": 1557,
    "ා": 31712,
    "ordin": 4194,
    "▁Wat": 14269,
    "▁make": 1207,
    "▁DEFAULT": 22236,
    "▁допо": 27245,
    "▁Re": 830,
    "▁déput": 26799,
    "üg": 11673,
    "bibliothek": 24275,
    "▁Schw": 9234,
    "▁Santos": 24813,
    "чка": 10546,
    "▁land": 2982,
    "▁тре": 8847,
    "▁transition": 9558,
    "look": 6914,
    "▁images": 4558,
    "▁ubuntu": 16338,
    "▁size": 2159,
    "▁ана": 21424,
    "▁Aug": 22333,
    "▁Nash": 24848,
    "▁confir": 12388,
    "Updated": 29248,
    "▁Arab": 10387,
    "▁parallel": 8943,
    "▁borders": 28199,
    "annes": 22393,
    "▁asks": 19514,
    "▁зву": 29351,
    "え": 30914,
    "▁Graham": 22196,
    "▁Schul": 12988,
    "▁Dup": 18733,
    "▁horse": 10435,
    "▁banda": 13790,
    "▁специаль": 29477,
    "▁certain": 3058,
    "▁чемпиона": 15895,
    "▁mai": 5530,
    "iterator": 17609,
    "▁које": 28824,
    "$-": 4388,
    "▁preferred": 16389,
    "▁protein": 26823,
    "▁Cs": 24277,
    "▁truly": 19781,
    "▁Jorge": 21801,
    "▁balance": 17346,
    "ích": 18353,
    "▁Zeitschrift": 29386,
    "▁dif": 958,
    "Ł": 30153,
    "▁Black": 6054,
    "▁might": 1795,
    "▁Interest": 23829,
    "▁Kop": 27476,
    "iros": 17177,
    "正": 30724,
    "▁Develop": 10682,
    "▁trick": 8938,
    "own": 776,
    "ecause": 5658,
    "▁opt": 3523,
    "▁é": 904,
    "▁sat": 3290,
    "プ": 30605,
    "▁garden": 16423,
    "ством": 14754,
    "rios": 13095,
    "▁foram": 15305,
    "hen": 3169,
    "▁views": 8386,
    "vt": 21908,
    "▁submitted": 18397,
    "▁Early": 11095,
    "▁Dun": 11566,
    "▁setting": 4444,
    "ْ": 30741,
    "▁João": 26117,
    "▁anti": 9418,
    "û": 30095,
    "▁На": 2372,
    "▁server": 1923,
    ",-": 6653,
    "▁lots": 14568,
    "▁gro": 4071,
    "ék": 5859,
    "▁suite": 9460,
    "▁css": 5997,
    "จ": 30991,
    "▁Marian": 24236,
    "ified": 2164,
    "Repos": 10913,
    "Order": 7514,
    "▁oct": 4725,
    "▁datos": 18683,
    "▁де": 2263,
    "昌": 31713,
    "▁switching": 21293,
    "▁цер": 13195,
    "course": 15775,
    "player": 9106,
    "▁multimedia": 19004,
    "ție": 12989,
    "▁Украи": 19189,
    "go": 1484,
    "╝": 31269,
    "▁call": 1246,
    "ri": 374,
    "▁conflict": 14529,
    "Dictionary": 11513,
    "pect": 1103,
    "orio": 10893,
    "store": 8899,
    "▁color": 2927,
    "}\\\\": 9952,
    "▁trained": 16370,
    "ú": 30030,
    "кры": 10300,
    "Dig": 14991,
    "▁sv": 3731,
    "න": 31609,
    "писан": 25736,
    "Once": 26222,
    "amerikanischer": 17996,
    "Default": 4592,
    "ail": 737,
    "edom": 11607,
    "▁Düsseldorf": 28901,
    "logs": 20756,
    "▁saw": 4446,
    "они": 18582,
    "▁Pho": 21884,
    "▁gestion": 26805,
    "▁Franz": 11694,
    "▁IV": 6599,
    "ґ": 30190,
    "▁logo": 20194,
    "Rich": 25627,
    "▁aproxim": 22422,
    " ": 30363,
    "▁unf": 29395,
    "▁Александр": 18084,
    "▁arbeitete": 22547,
    "▁nov": 2420,
    "дон": 19096,
    "▁humans": 25618,
    "\\]": 18899,
    "▁voj": 21414,
    "lua": 29448,
    "▁Greg": 12051,
    "Job": 11947,
    "rable": 18104,
    "ners": 8397,
    "то": 702,
    "▁recon": 8265,
    "▁bug": 6494,
    "лії": 27376,
    "ness": 2264,
    "produ": 5498,
    "▁Stanisław": 29329,
    "arks": 17862,
    "传": 31471,
    "▁Remember": 22738,
    "▁trap": 26505,
    "▁campus": 24165,
    "layout": 2680,
    "▁…": 16088,
    "ńskiej": 26659,
    "▁vac": 11757,
    "▁Frid": 23706,
    "Interval": 12506,
    "▁Teatro": 22737,
    "iler": 3955,
    "▁scripts": 12078,
    "los": 5409,
    "َ": 30323,
    "▁puts": 15223,
    "▁expla": 3641,
    "гда": 9077,
    "▁rou": 16053,
    "▁csv": 11799,
    "▁thee": 14904,
    "▁roads": 25320,
    "▁Geographic": 26304,
    "lando": 28514,
    "thick": 27996,
    "波": 31529,
    "onder": 8417,
    "▁activities": 14188,
    "]]": 5262,
    "യ": 30674,
    "▁Barcelona": 12408,
    "▁Life": 4634,
    "▁expres": 29150,
    "▁tracking": 23110,
    "▁истории": 20765,
    "▁rever": 24187,
    "br": 1182,
    ")=": 3892,
    "child": 5145,
    "▁UNION": 25919,
    "▁Ro": 1528,
    "▁whose": 5069,
    "▁Either": 20370,
    "▁Organisation": 25783,
    "ática": 17781,
    "MI": 10403,
    "▁***": 18610,
    "communic": 27820,
    "每": 31951,
    "NG": 9312,
    "riminal": 28479,
    "ember": 1096,
    "ür": 1276,
    "тв": 23224,
    "▁гене": 13014,
    "▁Supreme": 22569,
    "▁instruct": 18690,
    "▁allocated": 19591,
    "-)": 15805,
    "heid": 9722,
    "kow": 7000,
    "nie": 2786,
    "▁anche": 5978,
    "▁monde": 9122,
    "▁Wiener": 27301,
    "▁equal": 5186,
    "▁Ziel": 22846,
    "▁Valle": 25324,
    "▁temple": 17567,
    "▁rotation": 13733,
    "▁regnig": 28642,
    "خ": 30321,
    "▁Twitter": 20147,
    "▁shield": 28761,
    "▁liter": 4631,
    "<0x88>": 139,
    "ített": 28242,
    "▁risp": 22475,
    "scar": 14494,
    "ху": 12735,
    "▁identified": 15659,
    "erd": 2018,
    "▁maison": 18234,
    "▁fair": 6534,
    "▁Lad": 19955,
    "гла": 8438,
    "atherine": 16490,
    "▁край": 28355,
    "ден": 4466,
    "▁lb": 27981,
    "<0x9C>": 159,
    "▁Biographie": 9762,
    "'''": 12008,
    "The": 1576,
    "ê": 30037,
    "▁npm": 12480,
    "ull": 913,
    "jections": 24247,
    "▁updating": 13271,
    "faces": 8726,
    "infty": 3411,
    "▁Kü": 19276,
    "ouve": 6223,
    "▁Titel": 16959,
    "▁Tried": 29547,
    "▁seg": 2377,
    "secure": 24216,
    "color": 2780,
    "▁Сов": 15624,
    "jourd": 18997,
    "ག": 31208,
    "▁must": 1818,
    "inación": 22919,
    "Lond": 26682,
    "nofollow": 4043,
    "supp": 19303,
    "<0xE9>": 236,
    "▁neat": 28539,
    "біль": 21057,
    "ultan": 19992,
    "▁risk": 12045,
    "IZ": 26664,
    "▁sentence": 10541,
    "▁Same": 19491,
    "▁Things": 28706,
    "aug": 2987,
    "Pay": 15467,
    "<0x33>": 54,
    "▁élect": 19507,
    "$}}%": 25069,
    "▁General": 4593,
    "ulos": 19733,
    "▁Fernseh": 24226,
    "asures": 25414,
    "▁nouveau": 13164,
    "▁окру": 9414,
    "▁cultura": 22124,
    "▁accepted": 9259,
    "case": 4878,
    "pert": 10700,
    "eur": 5411,
    "▁caus": 3269,
    "Ə": 31127,
    "жды": 24057,
    "▁behavior": 6030,
    ".)": 1846,
    "▁asp": 7051,
    "▁czas": 15062,
    "mov": 13529,
    "▁React": 9537,
    "介": 31633,
    "andbox": 26738,
    "▁доку": 24196,
    "▁Tow": 22578,
    "▁sheet": 9869,
    "▁Spark": 20814,
    "ними": 9822,
    "<0xCC>": 207,
    "▁жизни": 23101,
    "▁exposed": 19884,
    "▁les": 966,
    "▁Fuß": 11212,
    "=${": 23339,
    "'):": 29374,
    "▁VB": 21045,
    "его": 20189,
    "▁(!": 5384,
    "▁Datenbank": 18748,
    "letter": 15670,
    "ńst": 14782,
    "▁That": 2193,
    "▁Arena": 26053,
    "ishes": 17006,
    "▁charts": 24469,
    "输": 31573,
    "▁ook": 7666,
    "▁Î": 11683,
    "▁uses": 3913,
    "▁vorg": 28669,
    "folg": 10132,
    "▁di": 652,
    "änger": 13655,
    "Pi": 12197,
    "▁fake": 25713,
    "sheet": 9855,
    "bir": 20397,
    "∀": 30315,
    "mis": 26737,
    "▁prove": 6356,
    "лле": 9997,
    "ок": 26242,
    "cia": 1512,
    "▁Names": 14706,
    "▁Alberto": 21065,
    "▁secondary": 16723,
    "owany": 11853,
    "vn": 18564,
    "uent": 8122,
    "▁producing": 20811,
    "LED": 20566,
    "vid": 8590,
    "щен": 11130,
    "▁wc": 28678,
    "func": 9891,
    ">;": 25867,
    "atore": 6082,
    "▁gallery": 23363,
    "▁Step": 16696,
    "testing": 13424,
    "夢": 31592,
    "istiques": 20385,
    "boldsymbol": 5916,
    "Left": 8091,
    "▁epis": 6010,
    "▁abroad": 28177,
    "▁inne": 26451,
    "▁nagy": 18338,
    "▁freedom": 16082,
    "▁Pan": 6518,
    "校": 31071,
    "adém": 15335,
    "▁texture": 18459,
    "▁N": 405,
    "▁propor": 24719,
    "égr": 27083,
    "subseteq": 11725,
    "▁trakten": 18328,
    "▁values": 1819,
    "▁capitale": 27073,
    "ząd": 17527,
    "icas": 5070,
    "dr": 7707,
    "ced": 1133,
    "▁editing": 16278,
    "▁Admin": 10229,
    "ister": 1531,
    "itori": 18382,
    "pton": 12533,
    "▁ui": 14313,
    "Serv": 6889,
    "ionales": 28509,
    "Kind": 11885,
    "▁Er": 1425,
    "相": 30990,
    "▁ist": 1752,
    "wp": 11912,
    "apping": 20304,
    "uling": 19478,
    "▁Vladimir": 27880,
    "▁reven": 20957,
    "iego": 9383,
    "<0x4E>": 81,
    "ays": 1036,
    "bled": 27225,
    "▁servlet": 29285,
    "▁пози": 21527,
    "rai": 17016,
    "▁Last": 9208,
    "▁parts": 5633,
    "▁take": 2125,
    "▁Neg": 12610,
    "▁yellow": 13328,
    "ład": 8650,
    "urch": 2458,
    "▁comments": 6589,
    "enso": 8013,
    "▁diversos": 22961,
    "erson": 1330,
    "▁около": 17244,
    "жет": 29333,
    "▁това": 18077,
    "Space": 14936,
    "nten": 13712,
    "их": 15139,
    "Jul": 27501,
    "ión": 3175,
    "▁Nicol": 13488,
    "▁Problem": 11583,
    "uint": 13470,
    "idade": 5558,
    "Rout": 24254,
    "aha": 25613,
    "▁Font": 10928,
    "▁staff": 13925,
    "▁titre": 13275,
    "▁septiembre": 9199,
    "▁również": 20316,
    "Handle": 13554,
    "▁ic": 16077,
    "ych": 3376,
    "▁curl": 11051,
    "istent": 9696,
    "emy": 6764,
    "▁tm": 27702,
    "▁Xml": 24409,
    "Mill": 19169,
    "母": 31763,
    ":\\\\": 22298,
    "ể": 31957,
    "deg": 12163,
    "textsc": 18967,
    "▁while": 1550,
    "Note": 9842,
    "▁mar": 1766,
    "success": 8698,
    "`:": 6998,
    "▁gun": 13736,
    "▁typing": 19229,
    "▁bran": 20531,
    "cloudflare": 28260,
    "COM": 19795,
    "▁Light": 12790,
    "né": 5483,
    "▁cursor": 10677,
    "▁jelent": 23962,
    "URN": 24015,
    "除": 31152,
    "面": 30806,
    "ر": 30156,
    "université": 26759,
    "▁Lind": 17277,
    "rian": 6392,
    "▁complete": 4866,
    "▁фо": 17767,
    "\":": 1115,
    "▁advent": 17623,
    "▁Manh": 29093,
    "ϵ": 31309,
    "▁below": 2400,
    "~~~~": 14087,
    "▁decl": 4845,
    "▁Germ": 7287,
    "好": 31076,
    "▁Tax": 17847,
    "ί": 30873,
    "ymnas": 21812,
    "▁divis": 8572,
    "sm": 3844,
    "▁Henry": 6498,
    "▁described": 5439,
    "▁you": 366,
    "ер": 780,
    "▁TR": 10014,
    "▁två": 16148,
    "cf": 6854,
    "▁moments": 19462,
    "eteor": 26375,
    "▁career": 6413,
    "▁Arch": 2595,
    "aco": 11216,
    "▁Democr": 14189,
    "ɔ": 30247,
    "▁Sm": 4116,
    "нет": 24050,
    "fas": 13629,
    "▁między": 29815,
    "▁Він": 26937,
    "▁Lap": 20298,
    "ך": 31339,
    "▁##": 444,
    "ʌ": 31278,
    "▁Bi": 3457,
    "atically": 19574,
    "AT": 1299,
    "▁Db": 24331,
    "Ḫ": 31672,
    "▁dokument": 27530,
    "ield": 969,
    "▁representations": 22540,
    "venir": 15470,
    "▁Sk": 4971,
    "▁Taiwan": 27807,
    "▁episodio": 21973,
    "▁immagini": 12000,
    "▁Kö": 9879,
    "imo": 4200,
    "aru": 18071,
    "ral": 1705,
    "EGIN": 17958,
    "▁ред": 17484,
    "▁scope": 6874,
    "▁cinema": 24615,
    "오": 31346,
    "▁/\\": 18826,
    "]": 29962,
    "NI": 12916,
    "▁Proof": 18319,
    "erie": 10681,
    "length": 2848,
    "▁heads": 15883,
    "▁bez": 11151,
    "▁Seems": 22648,
    "▁Runtime": 24875,
    "▁dom": 2432,
    "▁containers": 22637,
    "▁sizeof": 13810,
    "▁odd": 7736,
    "▁resp": 4613,
    "dig": 7501,
    "while": 8000,
    "▁races": 19830,
    "asant": 13186,
    ")..": 20149,
    "ély": 19800,
    "im": 326,
    "arct": 27014,
    "ression": 23881,
    "nou": 22897,
    "▁ú": 3720,
    "▁Fue": 14692,
    "▁États": 12503,
    "pa": 3274,
    "meck": 23636,
    "ще": 2402,
    "▁Brandenburg": 29330,
    "ió": 3556,
    "▁natural": 5613,
    "▁git": 6315,
    "▁anywhere": 12214,
    "▁slider": 23889,
    "unicip": 4376,
    "▁shortcut": 21697,
    "▁Email": 22608,
    "co": 1111,
    "▁.=": 16295,
    "AS": 3289,
    "chron": 5904,
    "▁mouse": 9495,
    "▁addition": 6124,
    "▁accepts": 21486,
    "anno": 7665,
    "▁violent": 24252,
    "線": 31357,
    "▁Egypt": 12892,
    "ce": 346,
    "▁Bac": 29070,
    "HTML": 7020,
    "▁assumptions": 20813,
    "лла": 17502,
    "insert": 7851,
    "▁all": 599,
    "default": 4381,
    "▁program": 1824,
    "▁harm": 10311,
    "▁Sound": 14976,
    "▁Frame": 12218,
    "}^\\": 10206,
    "bah": 28758,
    "typen": 21360,
    "▁Ost": 11334,
    "▁cried": 10680,
    "▁französ": 14221,
    "▁Thread": 10480,
    "Turn": 27407,
    "▁posterior": 13446,
    "vo": 1365,
    "▁intention": 16392,
    "▁$(\".": 17575,
    "-,": 15767,
    "▁Bereich": 25405,
    "▁Ts": 19089,
    "▁взя": 25121,
    "▁\"'": 13577,
    "▁расположен": 25576,
    "▁poz": 14079,
    "agrant": 29592,
    "plots": 26762,
    "▁justify": 26922,
    "▁dalla": 7286,
    "ḏ": 31946,
    "lax": 21222,
    "▁Иван": 14303,
    "▁properties": 4426,
    "▁Vere": 9380,
    "lä": 9231,
    "▁seul": 20536,
    "▁solutions": 6851,
    "那": 31356,
    "cción": 6941,
    "anych": 19442,
    "▁Browser": 27088,
    "ietnam": 16062,
    "UIView": 26726,
    "▁tres": 9941,
    "▁Richmond": 28662,
    "▁mouth": 13394,
    "▁yourself": 7535,
    "%)": 10997,
    "ุ": 30803,
    "emetery": 22875,
    "▁pes": 8928,
    "▁newline": 25899,
    "NP": 25500,
    "flags": 15764,
    "▁iss": 1721,
    "ніципалі": 20422,
    "▁diffus": 25876,
    "cross": 19128,
    "lying": 5890,
    "umerate": 11351,
    "▁Ст": 24781,
    "▁SELECT": 5097,
    "éső": 29464,
    "▁pow": 4764,
    "ක": 31865,
    "sz": 3616,
    ",.": 7671,
    "▁Stad": 10347,
    "ooth": 6983,
    "▁Beth": 23408,
    "ensk": 8185,
    "▁satisfies": 17150,
    "upp": 14889,
    "▁fecha": 29100,
    "▁historian": 27629,
    "▁coefficients": 16127,
    "cile": 21873,
    "rance": 11115,
    "▁adopted": 16356,
    "▁spé": 18142,
    "▁perce": 17189,
    "▁Max": 5918,
    "▁firefox": 26590,
    "▁stay": 7952,
    "updated": 21402,
    "tel": 28497,
    "▁`__": 21326,
    "▁kilometres": 24016,
    "▁together": 4208,
    "▁scales": 23431,
    "▁diag": 7936,
    "▁mate": 15358,
    "▁étaient": 15777,
    "̍": 31891,
    "ból": 26976,
    "Binding": 9270,
    "ház": 24910,
    "▁Nature": 17677,
    "anned": 11310,
    "▁looping": 26113,
    "▁WPF": 23678,
    "▁Media": 8213,
    "€": 30181,
    "\\<^": 10553,
    "сть": 2321,
    "▁voir": 8689,
    "useum": 5021,
    "▁dove": 10897,
    "LIN": 23714,
    "▁oficial": 9535,
    "▁encuent": 10671,
    "oul": 5059,
    "соб": 17393,
    "▁qui": 1750,
    "▁Kot": 27961,
    "▁extending": 23771,
    "ϊ": 31832,
    "一": 30287,
    "textbf": 4534,
    "▁synd": 22898,
    "previous": 24957,
    "Hold": 29144,
    "▁rob": 10832,
    "▁teor": 23680,
    "ḥ": 30327,
    "ült": 12100,
    "▁coordinates": 10350,
    "▁Charlie": 20283,
    "ṃ": 31019,
    "▁Alban": 21805,
    "emon": 9857,
    "▁quad": 18890,
    "▁Centro": 18726,
    "obre": 7630,
    "Notification": 12958,
    "▁estimate": 12678,
    "ী": 31595,
    "▁pag": 10203,
    "soap": 21993,
    "uting": 17068,
    "stag": 24403,
    "ém": 2249,
    "ʊ": 30599,
    "▁Javascript": 12728,
    "VO": 24898,
    "▁conquist": 25188,
    "constraint": 13646,
    "▁vert": 4837,
    "führ": 8212,
    "υ": 30192,
    "ède": 14785,
    "▁един": 25918,
    "jes": 10246,
    "sa": 4977,
    "▁controllers": 21385,
    "su": 2146,
    "frastr": 14867,
    "堂": 31338,
    "이": 30393,
    "▁../": 29772,
    "{:": 25641,
    "▁processing": 9068,
    "▁estudios": 29061,
    "oken": 4476,
    "▁тех": 11425,
    "▁erfolg": 14946,
    "arget": 2097,
    "entially": 9247,
    "limp": 12552,
    "▁least": 3203,
    "▁Website": 13253,
    "▁large": 2919,
    "▁support": 2304,
    "▁campo": 15921,
    "ions": 1080,
    "onneur": 25905,
    "▁истори": 15855,
    "ül": 6001,
    "▁zak": 15117,
    "rame": 3128,
    "▁Fish": 12030,
    "pick": 23945,
    "дер": 6620,
    "▁pob": 6130,
    "gan": 6249,
    "▁damit": 14733,
    "David": 19504,
    "UNCTION": 28700,
    "▁пар": 7596,
    "▁Carlo": 15021,
    "Unis": 11604,
    "boy": 19415,
    "▁Universal": 21536,
    "dk": 8181,
    "̱": 31574,
    "▁NASA": 24206,
    "▁début": 13222,
    "▁logs": 10748,
    "▁совер": 28485,
    "▁[{": 15974,
    "▁pla": 2174,
    "▁Big": 7997,
    "ња": 10473,
    "screen": 10525,
    "▁disapp": 8796,
    "▁Seq": 25981,
    "▁($": 3255,
    "▁elements": 3161,
    "kę": 26115,
    "clos": 11291,
    "nan": 13707,
    "istre": 22715,
    "▁gauche": 26003,
    "▁engineer": 22055,
    "JAX": 16405,
    "férence": 9625,
    "▁noted": 11682,
    "▁future": 5434,
    "▁Erst": 20329,
    "catal": 16431,
    "▁soll": 10297,
    ")$": 1262,
    "erei": 14900,
    "ottom": 3570,
    "▁liv": 7294,
    "换": 31640,
    "▁getting": 2805,
    "▁Asian": 20021,
    "▁employees": 22873,
    "attice": 19704,
    "around": 11316,
    "▁других": 11935,
    "▁irre": 19950,
    "▁quindi": 19671,
    "HO": 8187,
    "▁phase": 8576,
    "params": 7529,
    "ingo": 20191,
    "aal": 16113,
    "idx": 13140,
    "longrightarrow": 24225,
    "▁уни": 11570,
    "▁Bull": 20293,
    "▁wrapped": 21021,
    "Prom": 18571,
    "▁Mr": 3237,
    "▁disease": 17135,
    "izers": 19427,
    "▁Russia": 12710,
    "▁deren": 15286,
    "▁battle": 10555,
    "▁acknow": 18145,
    "цем": 26923,
    "волю": 19654,
    "IOS": 25925,
    "̣": 31214,
    "재": 31973,
    "▁Rh": 7861,
    "GC": 8766,
    "▁cup": 18002,
    "mode": 8513,
    "▁facil": 16089,
    "Final": 15790,
    "▁India": 7513,
    "▁initi": 14511,
    "пня": 14840,
    "▁eer": 6380,
    "schen": 16861,
    "ächt": 26704,
    "ardin": 21473,
    "attro": 19114,
    "е": 29919,
    "▁Minister": 7668,
    "▁God": 4177,
    "unsigned": 15395,
    "\">\r": 10175,
    "▁Pere": 23133,
    "alen": 10066,
    "gef": 21831,
    "ヴ": 31270,
    "osof": 17904,
    "lett": 13650,
    "iewer": 15580,
    "hoff": 29327,
    "video": 9641,
    "▁formula": 7063,
    "ópez": 24140,
    "▁rag": 17052,
    "ру": 1086,
    "▁Ari": 25775,
    "▁digits": 13340,
    "▁officials": 24921,
    "▁farther": 26645,
    "▁smiled": 25156,
    "рои": 13551,
    "▁Warszawa": 19879,
    "▁Science": 9327,
    "line": 1220,
    "ſ": 30473,
    "▁deel": 15405,
    "gericht": 20665,
    "▁temps": 8714,
    "▁merchant": 29055,
    "_{{\\": 24033,
    "▁ww": 7673,
    "▁estre": 24567,
    "▁teles": 26503,
    "▁Ag": 4059,
    "uel": 2491,
    "YY": 14995,
    "▁ASC": 18188,
    "▁Autor": 15811,
    "ätt": 11204,
    "▁parliament": 22765,
    "anta": 6949,
    "▁VIAF": 9604,
    "▁Expression": 21444,
    "chester": 10530,
    "▁rooms": 19600,
    "ience": 5597,
    "▁accomp": 10259,
    "▁juris": 24894,
    "ództ": 20357,
    "▁orden": 16075,
    "ǧ": 31518,
    "็": 31453,
    "▁CV": 25778,
    "aes": 28628,
    "ע": 30324,
    "▁Project": 8010,
    "▁po": 772,
    "▁дол": 11213,
    "▁Однако": 24017,
    "sero": 26928,
    "▁vä": 13108,
    "avia": 12751,
    "▁Len": 16206,
    "ор": 1419,
    "▁Deutsche": 14102,
    "▁immediately": 7389,
    "▁meant": 6839,
    "尔": 31814,
    "▁express": 4653,
    "kele": 27800,
    "oi": 7768,
    "▁Dub": 11668,
    "icket": 8522,
    "ício": 24394,
    "guide": 13075,
    "▁simple": 2560,
    "▁provinces": 28058,
    "▁liste": 13773,
    "▁sl": 2243,
    "Check": 5596,
    "éta": 28899,
    "aram": 11269,
    "해": 31435,
    "▁Cet": 15018,
    "▁Mont": 4526,
    "▁divid": 25227,
    "▁Jegyzetek": 24029,
    "issen": 13119,
    "▁pt": 19592,
    "Project": 7653,
    "utton": 1851,
    "▁▁▁▁▁▁▁▁▁▁▁▁▁▁▁": 18884,
    "▁listener": 13254,
    "▁Situ": 23920,
    "▁FOR": 15842,
    "iel": 709,
    "<0x91>": 148,
    "た": 30366,
    "af": 2142,
    "▁rá": 23504,
    "▁Battalion": 27841,
    "compat": 12667,
    "▁minimum": 9212,
    "▁Appar": 27466,
    "▁R": 390,
    "mission": 6737,
    "▁Samuel": 15316,
    "enze": 13233,
    "dict": 8977,
    "Leg": 22988,
    "Close": 11123,
    "▁vorm": 24194,
    "▁resolution": 10104,
    "▁surpr": 11468,
    "▁Dynam": 22554,
    "▁design": 2874,
    "▁men": 1757,
    "▁decrease": 23806,
    "iko": 10349,
    "▁Italia": 12201,
    "▁прове": 23590,
    "▁volunt": 27081,
    "kafka": 28510,
    "В": 30012,
    "▁Nich": 16371,
    "▁dd": 24488,
    "▁}{": 24333,
    "▁translated": 20512,
    "▁сай": 8347,
    "wikipedia": 6011,
    "gu": 2543,
    "нг": 10232,
    "▁bet": 1010,
    "▁Цент": 20150,
    "unks": 18801,
    "Python": 11980,
    "▁please": 3113,
    "▁ак": 20356,
    "▁remark": 8509,
    "▁cuatro": 19545,
    "umen": 14170,
    "▁abol": 25198,
    "javax": 23357,
    "irk": 6793,
    "▁znaj": 18657,
    "Expr": 21176,
    "<0x8C>": 143,
    "vard": 16927,
    "atar": 14873,
    "▁Valid": 15758,
    "▁revision": 26554,
    "íos": 27251,
    "icio": 11088,
    "eqnarray": 9441,
    "transaction": 20736,
    "▁module": 3883,
    "ero": 1489,
    "▁naam": 8483,
    "▁király": 28317,
    "zetek": 20306,
    "apsed": 28170,
    "▁Ли": 6105,
    "▁cycles": 25785,
    "Converter": 18545,
    "▁streaming": 24820,
    "niu": 21399,
    "▁measure": 5645,
    "EMA": 26862,
    "formance": 13390,
    "ت": 30195,
    "▁муж": 20686,
    "▁przy": 8321,
    "Mac": 15735,
    "▁Cic": 24945,
    "▁pare": 9541,
    "()\r": 26471,
    "Daniel": 29866,
    "illon": 12794,
    "enu": 4814,
    "HashMap": 27824,
    "▁glory": 26080,
    "<0x7F>": 130,
    "▁Colonel": 16893,
    "idos": 4396,
    "▁sch": 1364,
    "▁bol": 15772,
    "▁delight": 15319,
    "ется": 4364,
    "▁gegenüber": 26479,
    "nete": 18977,
    "▁EU": 19007,
    "лены": 24827,
    "±": 30221,
    "▁usually": 5491,
    "♯": 31114,
    "ells": 10071,
    "optional": 25253,
    "▁threshold": 16897,
    "AD": 3035,
    "uly": 11850,
    "▁código": 20280,
    "éter": 26283,
    "่": 30543,
    "▁centrale": 20757,
    "ķ": 31748,
    "itzer": 13510,
    "acent": 16648,
    "eter": 1308,
    "Table": 3562,
    "ској": 15653,
    "▁Eug": 20891,
    "▁Jacques": 12915,
    "▁managed": 8745,
    "▁attention": 8570,
    "▁fict": 26797,
    "₇": 30284,
    "<0x43>": 70,
    "akte": 17230,
    "▁древ": 29794,
    "▁мно": 16071,
    "<0x7C>": 127,
    "역": 31987,
    "▁Begriffsklär": 20716,
    "▁hyp": 10163,
    "ola": 2963,
    "▁muy": 12287,
    "ído": 27806,
    "銀": 31825,
    "▁которых": 18662,
    "▁punk": 21356,
    "▁cli": 9335,
    "liament": 9745,
    "▁Spanish": 10432,
    "EM": 12665,
    "▁составе": 17932,
    "▁jeho": 17002,
    "▁einige": 19774,
    "because": 18103,
    "": 30344,
    "ografía": 9325,
    "▁Vector": 16510,
    "▁library": 3489,
    "▁fingers": 23915,
    "▁RewriteCond": 24935,
    "ifique": 22781,
    "ttp": 4009,
    "▁uncertain": 17999,
    "▁readonly": 20623,
    "▁pres": 2225,
    "isher": 22154,
    "▁mentioned": 5276,
    "▁agua": 22989,
    "=\"<?": 25076,
    "▁mondo": 18629,
    "▁kun": 15465,
    "▁patr": 22191,
    "\"></": 5319,
    "▁Tob": 22354,
    "ancement": 27967,
    "▁Representatives": 28757,
    "▁spole": 25823,
    "▁align": 7595,
    "ன": 31253,
    "▁Clark": 17129,
    "ье": 12295,
    "▁Mutter": 22411,
    "▁dy": 13475,
    "LayoutInflater": 26358,
    "omb": 3424,
    "题": 31596,
    "▁Entry": 28236,
    "院": 30963,
    "▁mater": 15875,
    "▁directive": 17041,
    "izi": 10077,
    "▁regional": 14014,
    "Form": 2500,
    "▁electrons": 27149,
    "▁Renaissance": 27263,
    "ⴰ": 31515,
    "ello": 3156,
    "стори": 25084,
    "▁Совет": 19023,
    "acje": 28322,
    "▁Freder": 12294,
    "ξ": 30434,
    "▁nueva": 22288,
    "▁edition": 12203,
    "▁accompl": 9768,
    "▁Mé": 10275,
    "catch": 12510,
    "▁Could": 6527,
    "▁fileName": 29729,
    "▁statements": 9506,
    "ocia": 10183,
    "▁approximate": 26368,
    "decode": 13808,
    "essel": 25583,
    "!(": 13311,
    "▁similar": 2788,
    "▁SUM": 22753,
    "▁Oliver": 19731,
    "▁лі": 9448,
    "▁-": 448,
    "▁pix": 9277,
    "▁accuracy": 13600,
    "▁forced": 11826,
    "usage": 21125,
    "▁verlor": 22355,
    "{.": 26139,
    "perties": 6009,
    "▁четы": 24998,
    "▁Dal": 9400,
    "ől": 8054,
    "<0x68>": 107,
    "▁élections": 27254,
    "▁Ok": 3674,
    "fore": 1079,
    "Av": 12810,
    "ktionen": 23668,
    "ые": 11489,
    "▁грома": 23463,
    "▁invån": 16916,
    "`),": 19775,
    "▁Ма": 3507,
    "▁seconde": 26617,
    "────": 19820,
    "▁надморској": 21836,
    "▁nah": 12902,
    "▁Howard": 17430,
    "▁most": 1556,
    "▁undert": 22332,
    "Cre": 9832,
    "▁//": 849,
    "orten": 27993,
    "halt": 10647,
    "folk": 17976,
    "▁`.": 5050,
    "▁solem": 25070,
    "▁köz": 7591,
    "teen": 9404,
    "визи": 14361,
    "▁Националь": 29407,
    "oline": 26496,
    "////": 6165,
    "ском": 5540,
    "▁dest": 2731,
    "lis": 23443,
    "▁éditions": 29579,
    "▁wieder": 7518,
    "Direct": 17392,
    "ró": 6830,
    "▁autre": 14857,
    "hall": 27090,
    "▁adding": 4417,
    "че": 1093,
    "plain": 24595,
    "ení": 10639,
    "▁%>%": 12437,
    "▁ISBN": 2210,
    "▁Mih": 29281,
    "▁swing": 24500,
    "HC": 19127,
    "▁tod": 7379,
    "▁Twe": 27637,
    "▁negli": 20059,
    "nel": 9139,
    "JB": 29674,
    "преде": 16143,
    "Version": 6594,
    "bol": 2095,
    "acia": 20323,
    "▁Me": 2191,
    "prüft": 22918,
    "┐": 31082,
    "▁př": 4137,
    "<0xC3>": 198,
    "▁Prima": 28930,
    "▁Jonathan": 20983,
    "▁homonymes": 13729,
    "▁Group": 6431,
    "▁уез": 26157,
    "aque": 19772,
    "▁musste": 25607,
    "▁sort": 2656,
    "▁connected": 6631,
    "tv": 12427,
    "▁Survey": 23218,
    "▁recensement": 25650,
    "bau": 9738,
    "--------": 1378,
    "bounds": 23687,
    "▁Thus": 6549,
    "▁\"#": 12305,
    "below": 22503,
    "тиче": 7166,
    "ště": 18856,
    "▁ус": 10053,
    "▁Ley": 25933,
    "Editor": 15280,
    "▁motion": 10884,
    "网": 31222,
    "▁rap": 14937,
    "▁Also": 3115,
    "▁Advent": 21255,
    "izont": 6753,
    "memory": 14834,
    "▁param": 1828,
    "▁Rey": 27147,
    "ge": 479,
    "▁Parti": 29661,
    "▁Lu": 3182,
    "»": 30007,
    "▁journ": 21824,
    "ССР": 10885,
    "ii": 2236,
    "мет": 12274,
    "▁sau": 12507,
    "zym": 14022,
    "▁dev": 2906,
    "▁Hay": 11389,
    "▁CHAPTER": 12689,
    "try": 2202,
    "▁achieved": 14363,
    "mans": 21555,
    "ど": 31250,
    "▁thre": 12455,
    "Protocol": 17830,
    "▁preference": 24583,
    "▁ii": 13607,
    "▁trouve": 16391,
    "▁IE": 7159,
    "▁assert": 4974,
    "━": 30512,
    "▁direkt": 27701,
    "▁className": 22030,
    "Cookie": 24914,
    "▁naj": 8823,
    "▁држави": 17828,
    "▁excel": 10616,
    "¸": 30836,
    "aterra": 27361,
    "zm": 14018,
    "ilian": 20548,
    "+": 29974,
    "load": 1359,
    "▁abitanti": 26548,
    "ám": 6542,
    "▁authentic": 15585,
    "▁lett": 11343,
    "▁uninstall": 27608,
    "▁section": 4004,
    "康": 31577,
    "▁Foi": 24012,
    "ocracy": 25804,
    "▁preceding": 26328,
    "raint": 5270,
    "▁Werner": 22597,
    "▁woods": 25013,
    "▁Camb": 9287,
    "▁afterwards": 12335,
    "▁burn": 12138,
    "▁arriv": 6974,
    "अ": 31350,
    "Transform": 13372,
    "▁IDs": 23481,
    "дор": 13523,
    "стоян": 29644,
    "▁també": 15610,
    "▁pale": 15509,
    "liance": 13036,
    "▁Rica": 29750,
    "▁чемпи": 12200,
    "⊢": 31178,
    ":$": 17178,
    "▁obj": 5446,
    "вест": 10411,
    "parator": 17954,
    "▁Selbst": 27232,
    "▁Prote": 14409,
    "othèque": 6539,
    "▁Gemeins": 23832,
    "▁peut": 8164,
    "Allow": 15930,
    "▁Ни": 7059,
    "prod": 10633,
    "▁entonces": 19665,
    "itat": 7366,
    "▁Ox": 9471,
    "enberg": 21845,
    "▁несколько": 20846,
    "rut": 23798,
    "inct": 5562,
    "acion": 16337,
    "Authorization": 25471,
    "ública": 11632,
    "▁Energy": 24836,
    "▁верну": 27585,
    "▁forgot": 9640,
    "▁игра": 13781,
    "▁diplom": 13487,
    "ko": 2901,
    "教": 31023,
    "▁dec": 1602,
    "▁husband": 10216,
    "▁diameter": 24235,
    "making": 28990,
    "▁charged": 20139,
    "Aut": 6147,
    "▁plt": 14770,
    "▁\"-": 11663,
    "age": 482,
    "“)": 25035,
    "ː": 30215,
    "öll": 22232,
    "▁instant": 14426,
    "ാ": 30468,
    "irty": 13163,
    "▁allemand": 22517,
    "专": 31756,
    "▁alpha": 15595,
    "con": 535,
    "▁julio": 8996,
    "mult": 4713,
    "▁kwiet": 25145,
    "}'": 10162,
    "мец": 21381,
    "▁proportional": 29839,
    "▁aut": 1120,
    "▁skład": 26209,
    "ír": 10687,
    "▁отде": 22362,
    "reb": 15203,
    "▁unexpected": 15668,
    "Invalid": 13919,
    "á": 29976,
    "▁програм": 20796,
    "▁Johnny": 20179,
    "▁$(\\": 12211,
    "▁incl": 1343,
    "riz": 7485,
    "teil": 7939,
    "BR": 15176,
    "▁efficient": 8543,
    "▁victim": 28985,
    "▁forward": 6375,
    "рен": 5719,
    "екси": 9896,
    "▁пес": 15536,
    "▁paramet": 25011,
    "▁hot": 7375,
    "▁stories": 15874,
    "Asset": 26405,
    "▁Farm": 23354,
    "▁Beck": 19573,
    "Jac": 24288,
    "▁def": 822,
    "▁translation": 13962,
    "▁RewriteRule": 23582,
    "▁Palmar": 19010,
    "麻": 31846,
    "▁siendo": 18200,
    "▁fiction": 24159,
    "▁през": 16319,
    "esian": 18970,
    "Drawable": 26945,
    "▁remembered": 21832,
    "structor": 18769,
    "”": 30024,
    "▁Comm": 1876,
    "hold": 8948,
    "ilde": 7154,
    "umably": 24873,
    "will": 14043,
    "選": 31562,
    "Ignore": 23805,
    "SDK": 26912,
    "了": 30743,
    "▁AP": 12279,
    "---+": 12918,
    "▁Gli": 19805,
    "ствен": 4190,
    "Mc": 27297,
    "▁auto": 4469,
    "▁\\]": 11424,
    "\",": 613,
    "▁sortie": 26558,
    "▁Tir": 27810,
    "在": 30505,
    "anza": 8520,
    "▁Prim": 9724,
    "ft": 615,
    "alion": 20235,
    "▁overhead": 18702,
    "json": 3126,
    ";&": 25359,
    "โ": 31364,
    "▁май": 18063,
    "▁Touch": 28675,
    "▁Full": 14846,
    "pisode": 12907,
    "▁Герма": 24575,
    "bind": 5355,
    "jící": 27453,
    "▁Louisiana": 28838,
    "▁Rank": 22125,
    "ally": 635,
    "▁право": 13728,
    "@\"": 5507,
    "шп": 27422,
    "▁capacity": 13284,
    "ordo": 20584,
    "▁Jahre": 7095,
    "▁ноября": 17121,
    "▁only": 871,
    "arith": 23830,
    "▁coff": 19785,
    "possible": 27338,
    "▁▁▁▁▁▁▁▁▁▁": 965,
    "rus": 15816,
    "素": 31605,
    "htt": 691,
    "▁ciel": 24850,
    "▁Pap": 8579,
    "▁россий": 18302,
    "▁dismiss": 18918,
    "▁называ": 23016,
    "▁Which": 8449,
    "es": 267,
    "ureau": 13411,
    "appen": 19934,
    "▁choice": 7348,
    "▁departamento": 28885,
    "ipe": 15705,
    "inter": 1639,
    "▁XIV": 17071,
    "arlo": 22431,
    "ege": 26103,
    "ณ": 31796,
    "cdots": 9572,
    "▁tone": 16225,
    "▁dim": 3964,
    "▁clarify": 15544,
    "▁sigu": 12923,
    "ภ": 31070,
    "inental": 25270,
    "<0xEF>": 242,
    "ствии": 25030,
    "racy": 10068,
    "▁unity": 20107,
    "ammer": 28527,
    "▁agreed": 15502,
    "Shell": 16037,
    "Authentication": 16746,
    "ké": 10427,
    "▁desired": 7429,
    ".:": 4898,
    "▁State": 4306,
    "express": 17073,
    "▁voyage": 17775,
    "├──": 28427,
    "<0x79>": 124,
    "▁rough": 12164,
    "▁Microsoft": 7783,
    "机": 31429,
    "Gener": 5631,
    "▁пода": 12493,
    "abilities": 11614,
    "▁trouv": 24889,
    "▁``": 4954,
    "Occ": 22034,
    "▁ikke": 27408,
    "▁splendid": 29528,
    "场": 31632,
    "▁because": 1363,
    "uge": 5710,
    "▁powers": 10801,
    "jsp": 21318,
    "▁aspect": 9565,
    "们": 31381,
    "ický": 21358,
    "▁polit": 2832,
    "▁Debug": 16171,
    "▁Once": 9038,
    "tilde": 5891,
    "urrency": 10880,
    "стра": 5242,
    "nx": 23818,
    "▁că": 13294,
    "▁Ev": 7298,
    "▁Whether": 26460,
    "bine": 26062,
    "测": 31851,
    "▁Parameter": 24953,
    "▁thread": 3244,
    "One": 6716,
    "MM": 7428,
    "▁Lok": 26469,
    "▁fr": 1424,
    "▁Для": 22418,
    "▁stat": 1002,
    "▁chim": 20674,
    "▁bild": 14071,
    "▁Foreign": 19358,
    "▁Mai": 6868,
    "table": 2371,
    "▁onde": 16504,
    "weg": 7872,
    "▁leading": 8236,
    "hab": 7308,
    "▁approaches": 13501,
    "▁juillet": 9148,
    "ables": 1849,
    "========": 4936,
    "▁II": 1944,
    "▁mystery": 29236,
    "CP": 6271,
    "▁Joy": 26515,
    "▁partitions": 23629,
    ".;": 8670,
    "ORD": 25593,
    "рела": 19893,
    "▁database": 2566,
    "▁provision": 25161,
    "щі": 25592,
    "▁founder": 25331,
    "Btn": 20808,
    "ftrag": 25221,
    "did": 18361,
    "Tests": 24376,
    "▁elif": 25342,
    "▁Andrew": 11571,
    "▁chose": 12784,
    "ního": 15346,
    "▁Script": 14415,
    "apa": 14274,
    "кому": 21177,
    "▁tall": 15655,
    "▁providing": 13138,
    "facebook": 15445,
    "▁actress": 20993,
    "▁Dream": 16814,
    "oon": 6150,
    "▁Rio": 11611,
    "▁Спо": 11830,
    "▁const": 1040,
    "▁Dorf": 17207,
    "▁deployment": 18209,
    "Execute": 12296,
    "▁Introduction": 27576,
    "▁Gh": 13491,
    "▁благо": 22327,
    "▁Toronto": 17612,
    "技": 31615,
    "▁begg": 25945,
    "▁Bayer": 21727,
    "usqu": 8555,
    "▁operate": 21994,
    "▁Sweden": 24506,
    "Feed": 29737,
    "▁specifying": 22146,
    "▁Wind": 17311,
    "endum": 29670,
    "▁kilom": 20052,
    "▁lands": 12625,
    "▁pesar": 28977,
    "Well": 11284,
    "ra": 336,
    "Psi": 14118,
    "▁aby": 24475,
    "▁filesystem": 22101,
    "▁północ": 28158,
    "veg": 29122,
    "ês": 8769,
    "mapping": 20698,
    "▁diction": 21503,
    "劉": 31792,
    "ANCE": 23219,
    "▁osob": 27949,
    "dfs": 29069,
    "▁havia": 13387,
    "▁asym": 16936,
    "reens": 11642,
    "▁vol": 1700,
    "╦": 31128,
    "▁acab": 22998,
    "arial": 27521,
    "▁example": 1342,
    "▁дов": 26313,
    "▁bash": 10891,
    "▁Tool": 21704,
    "▁relief": 18892,
    "ale": 744,
    "▁Python": 5132,
    "Z": 29999,
    "▁instru": 5778,
    "▁Nap": 8344,
    "zA": 25265,
    "▁divent": 28356,
    "▁invert": 21292,
    "▁gegründet": 24451,
    "▁République": 21919,
    "▁imag": 6382,
    "engelsk": 29669,
    "Storage": 10486,
    "▁ry": 24721,
    "rx": 17697,
    "▁lit": 11872,
    "▁toss": 28189,
    "夏": 31241,
    "Mouse": 14346,
    "size": 2311,
    "▁Kate": 23738,
    "▁Bu": 5373,
    "rage": 6617,
    "adrat": 16181,
    "▁%%": 17806,
    "▁desenvol": 20599,
    "▁Year": 8905,
    "ijn": 3263,
    "[,": 21939,
    "onymes": 12484,
    "FALSE": 25717,
    "▁eleg": 10618,
    "▁Serial": 18896,
    "▁Это": 20782,
    "De": 2772,
    "▁Charles": 5322,
    "道": 30397,
    "(\"/": 11974,
    "▁restricted": 22078,
    "cipl": 13326,
    "iy": 19881,
    "actual": 19304,
    "▁werk": 23085,
    "\")`": 20933,
    "▁not": 451,
    "▁Isn": 29489,
    "▁typically": 12234,
    "far": 15641,
    "Screen": 11357,
    "▁performs": 23233,
    "rig": 8966,
    "▁genius": 26858,
    "äre": 15994,
    "works": 13129,
    "▁Cre": 6760,
    "▁served": 6766,
    "▁із": 15245,
    "▁`<": 14935,
    "▁invent": 11817,
    "áj": 15005,
    "▁réseau": 28710,
    "▁taken": 4586,
    "▁detail": 9493,
    "iak": 24061,
    "Running": 27795,
    "▁Р": 1483,
    "printf": 8124,
    "▁Méd": 26402,
    "ando": 1743,
    "▁Nas": 22318,
    "▁público": 23792,
    "ioned": 28487,
    "ahoo": 26779,
    "▁doch": 16008,
    "▁Electric": 26953,
    "entication": 6002,
    "гра": 2194,
    "FILES": 24483,
    "▁law": 4307,
    "▁го": 1084,
    "▁parte": 3810,
    "blog": 7312,
    "林": 30853,
    "▁fid": 25947,
    "▁Scot": 11032,
    "фициаль": 16364,
    "Activity": 3886,
    "▁brain": 17294,
    "product": 4704,
    "odi": 12143,
    "▁underlying": 14407,
    "草": 31710,
    "'),": 5477,
    "AGE": 10461,
    "▁Indeed": 14598,
    "▁Verd": 19236,
    "▁track": 5702,
    "”,": 9363,
    "▁seine": 6676,
    "мах": 23173,
    "▁names": 2983,
    "ERY": 24422,
    "▁schemes": 27715,
    "▁cube": 28704,
    "▁exclus": 13489,
    "Remote": 20224,
    "▁“": 1346,
    "▁Open": 4673,
    "▁recip": 23957,
    "isses": 29284,
    "\\'": 20333,
    "л": 29944,
    "▁Sub": 3323,
    "▁Conseil": 25774,
    "lang": 3893,
    "czas": 14286,
    "▁lic": 7794,
    "▁possibil": 27829,
    "▁Tele": 9699,
    "▁=>": 1149,
    "lj": 14042,
    "opens": 22156,
    "▁adaptation": 28206,
    "toString": 7711,
    "на": 477,
    "▁précéd": 25170,
    "keley": 27279,
    "former": 24784,
    "Compiler": 25333,
    "ступи": 13614,
    "eral": 13537,
    "Insert": 17491,
    "ímp": 19381,
    "▁Andy": 21828,
    "▁Тре": 27114,
    "▁Spec": 12048,
    "▁delivered": 20115,
    "▁revers": 18764,
    "usalem": 18537,
    "DK": 17359,
    "▁eggs": 29808,
    "ytics": 22026,
    "woord": 25317,
    "▁ersch": 14501,
    "▁svo": 28316,
    "▁Angular": 11575,
    "▁path": 2224,
    "▁plugin": 7079,
    "sn": 16586,
    "カ": 30439,
    "isches": 8403,
    "▁tel": 13547,
    "）": 30409,
    "phi": 2876,
    "▁Buen": 15463,
    "▁Core": 10239,
    "͡": 30443,
    "▁Ingl": 27837,
    "śc": 29259,
    "▁Fore": 28297,
    "ikel": 14258,
    "ikal": 23587,
    "voke": 5744,
    "ὀ": 31990,
    "▁born": 6345,
    "хе": 14417,
    "Worker": 16164,
    "▁Tokyo": 20377,
    "▁built": 4240,
    "▁pel": 4639,
    "▁Landkreis": 19126,
    "▁tbl": 19018,
    "▁teachers": 27335,
    "▁minim": 6260,
    "▁int": 938,
    "▁kal": 25364,
    "▁fam": 5216,
    "▁Nation": 22900,
    "plement": 2037,
    "enix": 23534,
    "▁selenium": 18866,
    "TM": 23081,
    "▁weird": 13543,
    "▁Spring": 7206,
    "ELD": 27286,
    "за": 1902,
    "▁projekt": 27213,
    "SESSION": 17493,
    "▁сра": 29246,
    "▁execute": 6222,
    "▁nine": 14183,
    "▁Lucy": 28846,
    "▁pom": 8280,
    "gment": 19422,
    "▁attempting": 15661,
    "ській": 21547,
    "jp": 16865,
    "ations": 800,
    "▁Viv": 26089,
    "<0xD5>": 216,
    "▁$,": 29313,
    "<0x29>": 44,
    "▁CD": 7307,
    "data": 1272,
    "<0x7A>": 125,
    "жен": 4054,
    "rift": 7532,
    "▁actual": 3935,
    "зидент": 27027,
    "▁work": 664,
    "▁wegen": 19580,
    "▁encrypted": 23220,
    "Ha": 24704,
    "▁eig": 15761,
    "한": 30877,
    "▁Series": 10488,
    "▁Gut": 24032,
    "健": 31863,
    "▁leak": 24993,
    "overline": 6875,
    "ope": 2300,
    "▁stycznia": 24002,
    "▁title": 3611,
    "▁above": 2038,
    "▁dével": 13942,
    "(@\"": 14699,
    "▁polygon": 29807,
    "▁brave": 26565,
    "Impl": 6647,
    "▁mostra": 27588,
    "▁submit": 9752,
    "idence": 5084,
    "▁Bio": 21184,
    "▁Motor": 16843,
    "▁additional": 5684,
    "ritten": 20833,
    "▁Engineering": 22557,
    "grund": 12204,
    "▁Process": 10554,
    "▁associate": 25836,
    "pages": 12292,
    "ifiz": 21722,
    "wirtschaft": 20402,
    "▁paper": 5650,
    "▁ced": 29289,
    "▁drivers": 18563,
    "KEY": 10818,
    "ходи": 4647,
    "別": 31661,
    "▁Kilometer": 23476,
    "▁fuel": 26413,
    "▁Lux": 18624,
    "atively": 6703,
    "ogether": 12966,
    "рит": 28717,
    "гов": 9319,
    "▁Crist": 12546,
    "INTER": 23845,
    "æ": 30078,
    "Who": 22110,
    "WS": 7811,
    "▁Áng": 26523,
    "▁znajdu": 22562,
    "even": 11884,
    "anst": 16220,
    "▁fur": 3261,
    "(\"#": 14822,
    "巴": 31885,
    "ula": 2497,
    "ktor": 10407,
    "▁Gla": 19798,
    "▁Poz": 18048,
    "dj": 19776,
    "】": 31472,
    "▁Stan": 7813,
    "▁францу": 16201,
    "▁IBM": 27955,
    "▁manager": 8455,
    "▁(\\": 3441,
    "ler": 1358,
    "<0x47>": 74,
    "tha": 15457,
    "▁timer": 12237,
    "▁étant": 19154,
    "▁analog": 15690,
    "▁citt": 10439,
    "▁zich": 9834,
    "BOOL": 28443,
    "Common": 18877,
    "▁shape": 8267,
    "стю": 19834,
    "Like": 27552,
    "▁look": 1106,
    "oup": 1132,
    "▁conce": 10628,
    "jà": 16627,
    "▁nearby": 20810,
    "▁Ressource": 27365,
    "塔": 31831,
    "▁изу": 29307,
    "▁Нор": 28664,
    "ánchez": 29064,
    "▁containing": 6943,
    "-$": 18039,
    "print": 2158,
    "▁groups": 6471,
    "▁media": 5745,
    "▁Pierre": 9181,
    "▁su": 480,
    "apis": 11355,
    "▁Replace": 22108,
    "▁phone": 9008,
    "źdz": 22755,
    "▁precis": 12132,
    "▁useful": 5407,
    "Async": 8123,
    "▁passage": 13382,
    "▁alors": 8532,
    "ностью": 18905,
    "Test": 3057,
    "▁runat": 19728,
    "float": 7411,
    "★": 30950,
    "acji": 8330,
    "▁ptr": 23246,
    "▁forty": 20949,
    "igung": 11841,
    "▁((": 5135,
    "getString": 13719,
    "▁Balt": 16834,
    "▁Bevölkerung": 25817,
    "▁Is": 1317,
    "spl": 23579,
    "编": 31795,
    "ionic": 26629,
    "ouvert": 23048,
    "check": 3198,
    "▁Tim": 7870,
    "BUG": 11578,
    "tout": 24442,
    "cular": 16637,
    "ribución": 24903,
    "▁driver": 7156,
    "<0x2B>": 46,
    "▁систем": 20573,
    "▁audience": 20026,
    "mun": 24579,
    "▁estos": 21010,
    "▁Hard": 10999,
    "▁ted": 29748,
    "▁Box": 11773,
    "ly": 368,
    "sequence": 16506,
    "миче": 13584,
    "≤": 30248,
    "▁Phili": 8234,
    "«": 30009,
    "▁Houston": 24327,
    "▁Республики": 27322,
    "OR": 1955,
    "▁`'": 16218,
    "agers": 18150,
    "required": 12403,
    "▁Kel": 27326,
    "ropy": 14441,
    "zyst": 25759,
    "▁engag": 27010,
    "▁является": 14367,
    "bean": 14471,
    "hpp": 29623,
    "▁historical": 15839,
    "zech": 12357,
    "▁Google": 5087,
    "▁Unidos": 9726,
    "▁мая": 15577,
    "▁decre": 9263,
    "▁Boolean": 11185,
    "▁sli": 20662,
    "xis": 11497,
    "る": 30332,
    "▁pero": 7046,
    "K": 29968,
    "чко": 21716,
    "▁storage": 8635,
    "лл": 19414,
    "tto": 16461,
    "▁Furthermore": 16478,
    "▁czerw": 21658,
    "ні": 1427,
    "▁sixth": 25963,
    "intern": 14168,
    "房": 31975,
    "▁Musik": 11390,
    "▁år": 13179,
    "▁anx": 14919,
    "called": 13998,
    "▁голов": 19311,
    "▁counting": 21248,
    "▁negative": 8178,
    "▁applies": 16058,
    "something": 14481,
    "▁roughly": 20928,
    "▁champions": 29314,
    "▁lux": 21684,
    "▁участ": 19234,
    "cribe": 29581,
    "▁notes": 11486,
    "▁hin": 14638,
    "▁Whit": 20572,
    "▁cinco": 21357,
    "But": 6246,
    "▁Auß": 17257,
    "博": 31196,
    "▁elementary": 22470,
    "▁catch": 4380,
    "▁suf": 7332,
    "▁leta": 23627,
    "allow": 9536,
    "obb": 20838,
    "range": 3881,
    "▁энциклопеди": 28718,
    "frika": 22231,
    "▁Rhein": 19009,
    "ле": 753,
    "illeurs": 26231,
    "oben": 29217,
    "▁fairly": 12558,
    "йской": 17414,
    "uellement": 27751,
    "▁этого": 16827,
    "▁conhe": 19028,
    "uda": 6191,
    "▁unless": 6521,
    "вые": 19455,
    "▁cities": 14368,
    "▁має": 23005,
    "▁gemeente": 18124,
    "▁Vé": 14926,
    "▁civil": 7631,
    "▁Make": 8561,
    "self": 1311,
    "▁bajo": 13085,
    "ència": 12890,
    "▁loader": 23466,
    "▁общи": 24761,
    "▁mapped": 20545,
    "▁Wait": 20340,
    "rolle": 28872,
    "▁Ul": 10103,
    "▁тро": 26452,
    "▁авто": 10279,
    "อ": 30351,
    "▁Via": 23306,
    "▁environment": 5177,
    "ifié": 29792,
    "▁DESC": 23050,
    "若": 31653,
    "CK": 7077,
    "▁dict": 9657,
    "ASC": 28599,
    "▁educational": 28976,
    "▁Spe": 5013,
    "ugin": 3851,
    "▁top": 2246,
    "ving": 1747,
    "reu": 24868,
    "▁frequent": 17091,
    "▁jamais": 18413,
    "leep": 5436,
    "आ": 31732,
    "▁sail": 14892,
    "▁wit": 12309,
    "ění": 26196,
    "▁thrown": 12005,
    "ialize": 6646,
    "pent": 22825,
    "န": 31459,
    "genommen": 21096,
    "of": 974,
    "▁Net": 12670,
    "▁voc": 7931,
    "▁иде": 28866,
    "▁mock": 11187,
    "▁cul": 13949,
    "ряд": 11645,
    "define": 7922,
    "Error": 2392,
    "▁sistema": 10502,
    "▁diff": 2923,
    "clip": 24049,
    "▁partner": 18096,
    ":[": 10834,
    "ARY": 19926,
    "Cook": 19159,
    "Mart": 15838,
    "endpoint": 29734,
    "тов": 4820,
    "▁Хронологија": 27918,
    "stream": 5461,
    "▁colours": 28061,
    "iony": 25295,
    "▁gouvernement": 17284,
    "▁playing": 8743,
    "Redirect": 24735,
    "▁ла": 11046,
    "▁aussi": 5695,
    "▁hely": 14827,
    "▁schon": 15002,
    "▁Netherlands": 24553,
    "▁Ham": 7904,
    "ichen": 14487,
    "ecz": 27750,
    "▁hous": 9261,
    "▁released": 5492,
    "▁pris": 19445,
    "binding": 19672,
    "AMP": 19297,
    "▁door": 3050,
    "▁something": 1554,
    "▁CGFloat": 29239,
    "љи": 28211,
    "texte": 29149,
    "iting": 11407,
    "inha": 16479,
    "▁Click": 16297,
    "▁`#": 15913,
    "▁vulner": 23180,
    ":": 29901,
    "▁gesture": 29502,
    "双": 31960,
    "clock": 13058,
    "▁Usually": 26991,
    "Ё": 30555,
    "▁Rosen": 28929,
    "▁Carolina": 13397,
    "quent": 16011,
    "▁Right": 10428,
    "▁greater": 7621,
    "VD": 10699,
    "▁transformation": 13852,
    "ifica": 15039,
    "▁loan": 24806,
    "▁который": 12423,
    "unix": 24538,
    "▁Du": 5334,
    "▁cold": 11220,
    "▁postal": 29767,
    "▁BC": 17403,
    "duct": 2199,
    "(|": 27204,
    "цу": 9062,
    "▁problema": 21655,
    "СР": 7350,
    "▁извест": 14292,
    "ди": 956,
    "▁рі": 9911,
    "▁responses": 20890,
    "▁remove": 3349,
    "▁orthogonal": 28143,
    "▁feeling": 11223,
    "▁evidence": 10757,
    "ask": 1278,
    "approx": 14850,
    "▁_)": 24459,
    "ugins": 8385,
    "▁comenzó": 27712,
    "▁fundamental": 15281,
    "▁accurate": 16232,
    "▁ihre": 9856,
    "leaf": 29500,
    "▁og": 3671,
    "▁Component": 15924,
    "(?": 10780,
    "▁jej": 11215,
    "▁indexing": 26190,
    "▁|": 891,
    "▁Professional": 20031,
    "<!--": 14136,
    "Right": 7341,
    "inflate": 26512,
    "▁tedesco": 28366,
    "▁point": 1298,
    "ection": 9739,
    "enta": 6381,
    "▁advise": 22939,
    "▁Ja": 14021,
    "▁kop": 25334,
    "▁survey": 18994,
    "hagen": 25771,
    "▁myth": 22082,
    "▁Op": 6461,
    "odia": 26942,
    "lder": 25943,
    "Ż": 30157,
    "ポ": 31205,
    "▁com": 419,
    "▁Bus": 8406,
    "nof": 3998,
    "jsfiddle": 7822,
    "▁yesterday": 22600,
    "▁década": 22685,
    "sur": 7610,
    "cap": 5030,
    "▁Хро": 23601,
    "▁Nathan": 27650,
    "▁prediction": 18988,
    "▁mean": 2099,
    "▁Colomb": 15253,
    "angers": 13873,
    "▁ing": 2348,
    "▁highly": 10712,
    "limat": 23442,
    "▁Event": 6864,
    "▁Shakespe": 22476,
    "ie": 347,
    "DA": 7698,
    "chmark": 16580,
    "▁fert": 19965,
    "password": 5630,
    "ници": 11026,
    "▁prevent": 5557,
    "▁escaped": 19824,
    "To": 1762,
    "rale": 9549,
    "▁nie": 4930,
    "ét": 1893,
    "八": 31044,
    "▁equivalent": 7126,
    "▁poeta": 27780,
    "▁Book": 6726,
    "'`": 11120,
    "▁Sever": 14621,
    "▁para": 1702,
    "amy": 25934,
    "ющим": 28002,
    "▁prü": 20288,
    "エ": 30600,
    "▁Adv": 25215,
    "meisterschaft": 28110,
    "дра": 17955,
    "▁Burn": 16640,
    "ilor": 12405,
    "▁Argentina": 13798,
    "▁Warsza": 12999,
    "Abstract": 9118,
    "ateur": 7289,
    "asia": 26252,
    "▁Econom": 12884,
    "?>": 17382,
    "agli": 27273,
    "▁Come": 16760,
    "Tube": 13425,
    "▁livres": 29869,
    "▁rapport": 13659,
    "▁serve": 9080,
    "ipped": 16242,
    "ʷ": 31355,
    "▁deli": 26561,
    "נ": 30328,
    "LENGTH": 19433,
    "(\"": 703,
    "主": 30888,
    "▁namely": 18451,
    "▁confl": 18669,
    "cego": 27991,
    "▁starting": 6257,
    "▁wont": 20668,
    "▁jusqu": 9291,
    "łod": 25073,
    "▁cer": 5147,
    "▁math": 5844,
    "▁fois": 10098,
    "▁reaching": 20888,
    "omial": 7615,
    "▁Kaiser": 17123,
    "anc": 4564,
    "▁modifications": 26278,
    "▁Sau": 23863,
    "▁Toast": 15891,
    "▁Jin": 29779,
    "▁CBS": 29589,
    "▁subsequent": 15352,
    "▁футбо": 12656,
    "aban": 10910,
    "Long": 8208,
    "send": 6717,
    "▁Nicolas": 22456,
    "▁sang": 13625,
    "ek": 1416,
    "▁кла": 9955,
    "INT": 10192,
    "▁вместе": 23414,
    "eling": 14067,
    "lem": 2409,
    "слід": 26930,
    "▁cut": 5700,
    "agog": 13247,
    "▁secured": 26130,
    "Display": 9323,
    "▁▁▁▁▁▁▁": 4706,
    "velop": 1830,
    "▁designs": 25517,
    "▁silence": 15142,
    "▁città": 12209,
    "▁erh": 9369,
    "▁Ax": 22523,
    "▁liqu": 15617,
    "▁living": 8471,
    "▁PC": 9609,
    "ría": 20310,
    "Sym": 25548,
    "▁replacing": 15270,
    "▁Rib": 27461,
    "▁nin": 17081,
    "▁ju": 3623,
    "▁Paulo": 16038,
    "º": 30105,
    "▁More": 5853,
    "ign": 647,
    "ICATION": 28541,
    "▁hatten": 19459,
    "formation": 5404,
    "▁Lit": 21395,
    "▁оборо": 25033,
    "▁rate": 6554,
    "▁D": 360,
    "▁led": 5331,
    "▁mirror": 19571,
    "orum": 17220,
    "cej": 24213,
    "▁Link": 6645,
    "▁belonging": 23329,
    "Snapshot": 21913,
    "▁effort": 7225,
    "ő": 30048,
    "▁protection": 13047,
    "Where": 11921,
    "▁spielte": 18681,
    "▁Orig": 29766,
    "ウ": 30537,
    "Control": 4809,
    "▁possono": 29278,
    "▁WITH": 22659,
    "isch": 783,
    "▁irrelevant": 28190,
    "\"><": 3254,
    "▁answer": 1234,
    "▁британ": 25926,
    "▁ur": 5065,
    "Studio": 28867,
    "Mat": 9782,
    "hi": 2918,
    "▁remp": 27799,
    "yond": 8538,
    "▁retr": 5663,
    "▁Verein": 12894,
    "▁&&": 2607,
    "vc": 7071,
    "olo": 3543,
    "IndexPath": 27762,
    "berto": 9858,
    "▁narrow": 12474,
    "Ü": 30104,
    "wehr": 21866,
    "dbo": 21627,
    "▁Nar": 16080,
    "▁hoofd": 29621,
    "ț": 30067,
    "▁experience": 7271,
    "▁maintained": 19949,
    "▁donde": 8334,
    "▁outcome": 21957,
    "▁Widget": 27080,
    "anced": 8362,
    "▁traffic": 12469,
    "libs": 10254,
    "▁hospital": 13457,
    "▁this": 445,
    "ове": 8381,
    "шлен": 28112,
    "<0xEA>": 237,
    "ким": 9787,
    "HOST": 20832,
    "­": 30191,
    "rie": 2546,
    "тельства": 21841,
    "\")": 1159,
    "▁provide": 3867,
    "▁Later": 12699,
    "ások": 21963,
    "▁approved": 23454,
    "▁shelter": 27709,
    "<0x41>": 68,
    "▁ты": 19506,
    "▁Polski": 21683,
    "▁Pow": 12265,
    "▁dust": 19786,
    "▁би": 5660,
    "AE": 16036,
    "Play": 13454,
    "▁attempted": 16388,
    "▁moral": 14731,
    "▁arquitect": 28827,
    "vote": 15814,
    "ci": 455,
    "▁París": 25645,
    "連": 31692,
    "▁Richtung": 29152,
    "ondissement": 19547,
    "▁Frederick": 19769,
    "▁Jerusalem": 23204,
    "▁sull": 23416,
    "Refresh": 27132,
    "▁CA": 12766,
    "PE": 4162,
    "▁Soc": 28239,
    "pus": 13364,
    "▁aquest": 14038,
    "▁Демо": 20167,
    "Person": 7435,
    "▁solo": 6651,
    "▁Lieutenant": 20445,
    "▁Ressources": 17957,
    "iba": 16912,
    "▁particolare": 27037,
    "▁wanting": 24507,
    "▁bund": 22813,
    "▁Azure": 12634,
    "ículo": 21825,
    "Horizontal": 24932,
    "▁гре": 22464,
    "▁neu": 17167,
    "▁os": 2897,
    "Tr": 2308,
    "zeichnungen": 25643,
    "▁Sche": 24478,
    "už": 25555,
    "counter": 11808,
    "▁Wein": 26331,
    "stwa": 24954,
    "▁Apache": 13380,
    "ester": 4156,
    "urban": 25006,
    "▁chante": 29564,
    "▁nå": 24462,
    "▁Context": 15228,
    "▁sep": 16345,
    "ew": 809,
    "▁sending": 9348,
    "Mr": 20335,
    "▁file": 934,
    "рё": 18535,
    "join": 7122,
    "İ": 30243,
    "SON": 3094,
    "▁sow": 19687,
    "vie": 25965,
    "▁});": 2604,
    "▁Policy": 25219,
    "arium": 22826,
    "▁sole": 14419,
    "▁notable": 18697,
    ".": 29889,
    "HOME": 17353,
    "▁HTML": 4544,
    "ᵉ": 31923,
    "bus": 8262,
    "▁ws": 16904,
    "ensch": 3586,
    "ds": 6289,
    "▁автор": 25928,
    "▁Independent": 25266,
    "веро": 19953,
    "MY": 17870,
    "public": 3597,
    "▁intr": 11158,
    "outs": 17718,
    "▁approached": 26733,
    "ـ": 30400,
    "inder": 4995,
    "Canvas": 21960,
    "cept": 1547,
    "▁France": 3444,
    "кою": 17941,
    "方": 30525,
    "▁Genomsnitt": 28623,
    "▁enemies": 22595,
    "▁classic": 22037,
    "▁anal": 3483,
    "urope": 3214,
    "切": 31757,
    "лся": 4633,
    "▁však": 29780,
    "кие": 20940,
    "▁Drive": 22850,
    "▁homme": 14738,
    "chi": 4161,
    "▁Canadian": 11443,
    "том": 4816,
    "ана": 14611,
    "jih": 27272,
    "▁converges": 24144,
    "▁Sver": 18144,
    "έ": 30273,
    "▁Member": 19495,
    "fah": 11225,
    "▁quali": 18661,
    "▁championship": 22401,
    "#,": 6552,
    "alse": 1435,
    "рес": 19961,
    "nię": 28784,
    "aben": 12792,
    "ikai": 17409,
    "FT": 7818,
    "ючи": 15598,
    "EC": 11206,
    "▁Mitg": 10400,
    "han": 5403,
    "▁Define": 22402,
    "ried": 1255,
    "ard": 538,
    "Н": 30029,
    "▁durant": 13933,
    "▁університе": 29016,
    "정": 30852,
    "▁Gene": 15350,
    "▁trivial": 12604,
    "Month": 13953,
    "▁code": 775,
    "▁spite": 21100,
    "лаго": 15657,
    "▁inser": 13534,
    "过": 31138,
    "hely": 27533,
    "âtre": 14349,
    "▁arise": 29030,
    "()}": 28296,
    "▁Gef": 15759,
    "▁appeared": 7470,
    "▁array": 1409,
    "erta": 17951,
    "▁lin": 6276,
    "▁Vis": 5741,
    "projects": 16418,
    "érature": 19113,
    "ingt": 19680,
    "ę": 30023,
    "ὰ": 30933,
    "export": 15843,
    "▁bzw": 16591,
    "▁alco": 27231,
    "FIG": 18667,
    "▁italiana": 18431,
    "Mich": 14916,
    "▁dispatch": 13916,
    "▁ору": 28659,
    "▁Jos": 5875,
    "▁besteht": 21874,
    "gres": 7201,
    "▁Arthur": 11498,
    "▁physics": 17558,
    "ம": 30930,
    "▁regularly": 25704,
    "ട": 30797,
    "ave": 1351,
    "▁prov": 1326,
    "▁нап": 27952,
    "▁bul": 8227,
    "mann": 4403,
    "陳": 31728,
    "▁Normdatei": 28331,
    "fin": 4951,
    "ту": 1500,
    "▁Ela": 28637,
    "▁estim": 4844,
    "agini": 11342,
    "▁juni": 17340,
    "AML": 23956,
    "月": 30534,
    "▁worthy": 24717,
    "Int": 2928,
    "ppers": 22437,
    "▁коло": 20427,
    "Ō": 30252,
    "▁monaster": 23937,
    "▁res": 620,
    "usted": 16656,
    "▁dol": 8828,
    "⊕": 31200,
    "╠": 30841,
    "▁satisfying": 24064,
    "Record": 9182,
    "ping": 15702,
    "ulen": 26261,
    "äft": 14133,
    "▁intuit": 27951,
    "▁curves": 19684,
    "<0x1B>": 30,
    "zą": 6429,
    "yc": 11078,
    "▁Shared": 21236,
    "ksam": 29107,
    "ɣ": 31165,
    "мон": 13744,
    "<0xF5>": 248,
    "Ā": 30484,
    "▁acceler": 15592,
    "▁Country": 15456,
    "▁Ta": 10523,
    "Ї": 30331,
    "▁retrieve": 10563,
    "▁allo": 25169,
    "▁bro": 2545,
    "▁río": 21214,
    "{-": 8499,
    "ven": 854,
    "▁asi": 28278,
    "maz": 16986,
    "Б": 30031,
    "▁sj": 19421,
    "▁st": 380,
    "▁ADD": 27827,
    "olk": 28387,
    "ção": 2340,
    "▁клуб": 21182,
    "▁caller": 24959,
    "▁URL": 3988,
    "▁bereits": 13101,
    "szág": 28881,
    "Your": 10858,
    "hm": 7184,
    "ść": 6598,
    "▁Events": 28488,
    "|}{": 29632,
    "bits": 14836,
    "▁architecture": 11258,
    "<0x70>": 115,
    "▁empty": 4069,
    "PL": 7390,
    "Exit": 24365,
    "▁constru": 6787,
    "▁Norman": 21296,
    "virtual": 18714,
    "Data": 1469,
    "antage": 8501,
    "cite": 2036,
    "axis": 8990,
    "emas": 8609,
    "▁rib": 18130,
    "葉": 31602,
    "ј": 30016,
    "▁GL": 12729,
    "▁'\\": 11297,
    "▁Kings": 21701,
    "amilton": 11348,
    "▁Jahrhunderts": 17358,
    "▁Go": 2921,
    "▁nations": 19079,
    "uto": 3066,
    "▁Tier": 29088,
    "▁mk": 14690,
    "▁MA": 14861,
    "oł": 27311,
    "ギ": 31255,
    "server": 2974,
    "▁heav": 14200,
    "▁algorithm": 5687,
    "▁would": 723,
    "▁mov": 2351,
    "▁maintenance": 25413,
    "▁пол": 7372,
    "▁facebook": 18335,
    "▁Ben": 4111,
    "reet": 4521,
    "opro": 26555,
    "▁checks": 12747,
    ")(": 5033,
    "▁sera": 16933,
    "▁Rugby": 22647,
    "ieves": 17180,
    "Tra": 5323,
    "braio": 18206,
    "▁pen": 6584,
    "▁pul": 9505,
    "▁catt": 24797,
    "▁enqu": 22085,
    "ingly": 11687,
    "▁Ге": 8215,
    "▁killing": 23393,
    "▁Add": 3462,
    "ose": 852,
    "▁Highway": 22080,
    "▁Minn": 17988,
    "話": 31812,
    "▁tennis": 22556,
    "▁saves": 27401,
    "▁twelve": 17680,
    "▁espa": 9015,
    "务": 31358,
    "▁Pr": 1588,
    "▁Buck": 16281,
    "▁mas": 5516,
    "▁Nacional": 8468,
    "▁Crit": 15976,
    "▁spre": 26743,
    "▁pitt": 27954,
    "fare": 24658,
    "Lab": 28632,
    "rypto": 17929,
    "▁asked": 4433,
    "▁Bass": 17328,
    "änge": 16870,
    "▁okay": 20759,
    "방": 31945,
    "ellan": 18663,
    "▁Pl": 1858,
    "▁delet": 7374,
    "▁generated": 5759,
    "apped": 17280,
    "▁reload": 19763,
    "▁jewe": 19516,
    "▁mob": 22458,
    "aph": 12451,
    "aming": 11500,
    "ज": 30871,
    "▁mi": 3737,
    "łu": 11641,
    "ové": 13169,
    "▁semantics": 29505,
    "requests": 24830,
    "lär": 17605,
    "▁graph": 3983,
    "▁mang": 25016,
    "▁Caval": 28398,
    "▁esc": 3966,
    "▁Prz": 12900,
    "urre": 20503,
    "Search": 7974,
    "▁Section": 9779,
    "parts": 20895,
    "▁virus": 24424,
    "endent": 3906,
    "ifier": 3709,
    "▁progetti": 7188,
    "ская": 4484,
    "Normal": 19077,
    "▁rename": 19508,
    "▁/>": 2900,
    "⟨": 30266,
    "rita": 27250,
    "чен": 4896,
    "ิ": 30507,
    "iation": 11685,
    "ह": 30714,
    "站": 31433,
    "▁послед": 17235,
    "▁nieder": 23634,
    "▁HE": 17714,
    "▁Ven": 9548,
    "張": 31504,
    "▁elimin": 10397,
    "▁skulle": 29275,
    "editor": 15204,
    "\\}\\": 25848,
    "raine": 12096,
    "動": 31124,
    "▁restored": 23119,
    "ccion": 22643,
    "ague": 3437,
    "▁Julius": 23762,
    "ionali": 21868,
    "▁referenced": 16180,
    "▁Territ": 19833,
    "▁sah": 26024,
    "▁streams": 20873,
    "Effect": 13971,
    "ы": 29982,
    "ლ": 30493,
    "Body": 8434,
    "Ș": 30233,
    "▁Ath": 9193,
    "concurrent": 19279,
    "红": 31869,
    "▁ice": 14890,
    "沙": 31476,
    "fri": 7932,
    "▁advert": 18811,
    "▁ње": 24493,
    "sp": 1028,
    "picker": 13908,
    "▁Vic": 13423,
    "▁occasions": 26108,
    "▁fate": 23779,
    "rich": 4018,
    "ό": 31091,
    "▁Europa": 9646,
    "roke": 10946,
    "si": 1039,
    "ferred": 14373,
    "aur": 6698,
    "▁Daten": 13617,
    "ська": 7909,
    "юза": 24467,
    "▁Province": 17325,
    "▁vb": 16822,
    "བ": 31326,
    "straße": 13759,
    "▁error": 1059,
    "ende": 3324,
    "▁America": 6813,
    "+(": 17108,
    "istan": 9777,
    "subset": 6484,
    "▁Pas": 10043,
    "▁representation": 8954,
    "sters": 23080,
    "▁centro": 13632,
    "▁rule": 5751,
    "ti": 2034,
    "▁dream": 12561,
    "jub": 23427,
    "▁suggested": 7829,
    "▁modifying": 23815,
    "son": 1100,
    "▁außer": 18842,
    "liche": 4545,
    "▁Wal": 5260,
    "▁interpre": 5133,
    "ütt": 17635,
    "▁alc": 10747,
    "ных": 2430,
    "aria": 4568,
    "staden": 20985,
    "▁Solo": 29687,
    "▁nombreux": 20081,
    "▁prefer": 5821,
    "▁lance": 28905,
    "▁Bal": 7392,
    "wt": 14554,
    "▁cle": 4531,
    "▁variants": 29161,
    "▁Lloyd": 27054,
    "ське": 19000,
    "▁grudnia": 26106,
    "лиза": 19129,
    "klär": 16907,
    "▁Day": 8373,
    "▁Starting": 23748,
    "▁tro": 3147,
    "sr": 21935,
    "▁England": 5408,
    "▁Gott": 13351,
    "ダ": 30617,
    "adora": 15441,
    "▁работал": 27814,
    "▁zusammen": 12438,
    "▁Luther": 24760,
    "dra": 19811,
    "▁dice": 17629,
    "▁fue": 3576,
    "▁zam": 14583,
    "ў": 30352,
    "▁short": 3273,
    "Callback": 10717,
    "ण": 31377,
    "합": 31980,
    "ться": 4199,
    "▁zn": 10589,
    "istas": 9395,
    "▁react": 7657,
    "gat": 28818,
    "গ": 31665,
    "National": 27325,
    ")^{": 8940,
    "geben": 23475,
    "▁sexual": 18287,
    "▁Andrea": 21730,
    "▁poetry": 22309,
    "▁Че": 16525,
    "▁stra": 5312,
    "▁wen": 12987,
    "вет": 7616,
    "fab": 16582,
    "summary": 7727,
    "▁rug": 29833,
    "▁Personen": 15497,
    "▁extra": 4805,
    "▁ensuite": 18158,
    "ViewController": 6917,
    "Re": 1123,
    "▁leads": 11981,
    "wert": 16347,
    "iš": 21365,
    "дь": 10826,
    "widet": 10588,
    "runner": 27492,
    "▁Current": 9626,
    "▁Nan": 25701,
    "тета": 25313,
    "тур": 6469,
    "annte": 16383,
    "!'": 20714,
    "▁mezi": 28781,
    "▁vš": 20145,
    "вър": 26837,
    "IX": 6415,
    "]],": 20526,
    "▁thro": 20961,
    "call": 4804,
    "▁silly": 24866,
    "β": 30187,
    "ника": 4222,
    "▁confusing": 16051,
    "▁growth": 14321,
    "has": 5349,
    "▁Spider": 26778,
    "Մ": 31575,
    "fre": 10745,
    "suite": 13495,
    "▁rend": 7697,
    "ures": 1973,
    "ส": 30547,
    "▁seats": 22091,
    "itive": 3321,
    "Hello": 10994,
    "▁threads": 9717,
    "open": 3150,
    "vy": 13308,
    "▁profession": 6351,
    "ieb": 10789,
    "aron": 5022,
    "Please": 12148,
    "idd": 2205,
    "ij": 823,
    "scan": 16192,
    "▁ke": 1589,
    "dup": 20908,
    "▁▁▁▁▁": 418,
    "osis": 19263,
    "▁subm": 11834,
    "▁fare": 20036,
    "ComboBox": 26628,
    "▁з": 754,
    "cher": 4630,
    "▁arm": 5075,
    "вро": 8627,
    "▁directories": 17525,
    "▁Ново": 18465,
    "▁quantities": 26855,
    "initely": 18639,
    "forward": 11333,
    "atia": 28752,
    "arin": 27139,
    "▁Fri": 11169,
    "親": 31698,
    "idden": 4215,
    "▁intitul": 17198,
    "▁unix": 28167,
    "▁prest": 18619,
    "▁ö": 3963,
    "▁perhaps": 6060,
    "▁Kör": 23722,
    "▁destac": 18583,
    "▁відбу": 28372,
    "agle": 20860,
    "xtart": 25248,
    "达": 31798,
    "=-": 10457,
    "Europe": 15654,
    "stellen": 27679,
    "▁intervals": 18747,
    "▁drink": 13748,
    "▁up": 701,
    "Launch": 17641,
    "▁DI": 22471,
    "▁había": 10990,
    "vole": 27002,
    "▁loops": 12104,
    "CSS": 19407,
    "▁deeply": 24344,
    "▁decor": 10200,
    "▁Sul": 13358,
    "▁ér": 20946,
    "▁Історія": 27071,
    "▁Tot": 19013,
    "▁Констан": 26798,
    "ane": 1662,
    "▁moderne": 24635,
    "▁license": 19405,
    "Language": 21233,
    "▁specification": 21992,
    "зни": 14489,
    "▁публи": 26147,
    "▁Currently": 15447,
    "▁Amsterdam": 17399,
    ".*;": 26355,
    "▁allow": 2758,
    "▁кни": 13024,
    "министратив": 18092,
    "yrus": 29646,
    "▁dispon": 14458,
    "▁Februar": 8196,
    "▁период": 21687,
    "▁місце": 16872,
    "orith": 3751,
    "▁event": 1741,
    "【": 31478,
    "▁Pennsylvania": 16636,
    "pha": 2026,
    "project": 4836,
    "axy": 26825,
    "rank": 10003,
    "▁anch": 23791,
    "▁Mem": 8133,
    "ța": 16016,
    "▇": 31589,
    "routes": 27894,
    "бра": 8355,
    "思": 31579,
    "▁обы": 27168,
    "▁Islam": 16427,
    "▁sb": 17444,
    "▁direction": 5305,
    "▁sind": 3937,
    "▁Hij": 10538,
    "▁sent": 2665,
    "▁amplitude": 28347,
    "ъл": 11136,
    "▁estaven": 24576,
    "@@": 25380,
    "ss": 893,
    "à": 30001,
    "sent": 18616,
    "▁formation": 12409,
    "▁invas": 29688,
    "▁і": 1905,
    ".~": 13217,
    "}),": 9594,
    "omas": 18902,
    "athan": 11385,
    "▁fashion": 13460,
    "▁ion": 16346,
    "▁viol": 5537,
    "▁tur": 7013,
    "▁Function": 6680,
    "Center": 13409,
    "▁Creating": 26221,
    "▁mail": 10524,
    "pat": 5031,
    "panel": 15119,
    "DT": 12972,
    "arrison": 29458,
    "▁Content": 10576,
    "heiten": 21795,
    "▁Fichier": 19836,
    "▁Cooper": 21851,
    "▁no": 694,
    "▁precisely": 17503,
    "PHP": 17130,
    "▁Firefox": 14418,
    "▁aper": 29271,
    "paths": 24772,
    "ssh": 15269,
    "bullet": 18850,
    "▁veröff": 17808,
    "pull": 26746,
    "ू": 31413,
    "▁#{": 24037,
    "▁given": 2183,
    "нен": 9931,
    "兵": 31660,
    "value": 1767,
    "nab": 7183,
    "▁Pur": 15247,
    "elect": 15436,
    "бри": 15035,
    "▁wię": 20677,
    "▁fighting": 17770,
    "▁x": 921,
    "uvud": 11508,
    "令": 31650,
    "mem": 6954,
    "hook": 20849,
    "cido": 13321,
    "▁exclusive": 29192,
    "┤": 31289,
    "chter": 8255,
    "局": 31655,
    "▁Edward": 9300,
    "not": 1333,
    "▁mind": 3458,
    "▁voice": 7314,
    "▁Mc": 4052,
    "Header": 7850,
    "▁miejsce": 16045,
    "that": 5747,
    "▁obliged": 24474,
    "▁matrix": 4636,
    "▁\\": 320,
    "▁Norway": 27440,
    "gal": 23014,
    "▁rejo": 19136,
    "▁price": 8666,
    "lm": 21457,
    "ною": 12253,
    "▁flying": 22764,
    ")}}": 21345,
    ",%": 24163,
    "ous": 681,
    "▁inte": 2293,
    "rivial": 9473,
    "leq": 3797,
    "~$": 16643,
    "iffer": 8349,
    "aft": 2051,
    "seq": 11762,
    "UG": 23338,
    "Fl": 8754,
    "forall": 10956,
    "▁пове": 26757,
    "▁pm": 26354,
    "▁прово": 18493,
    "EF": 29638,
    "uments": 9331,
    "ственного": 20632,
    "▁computing": 20602,
    "▁Да": 8371,
    "{`": 18519,
    "▁analyt": 16114,
    "▁voltage": 11749,
    "ECT": 13845,
    "▁jud": 6577,
    "icut": 24408,
    "olta": 26481,
    "schluss": 19791,
    ")`": 3569,
    "▁Bibli": 3351,
    "stre": 13045,
    "▁Leip": 13412,
    "▁tun": 18515,
    "▁In": 512,
    "PRE": 15094,
    "Dev": 16618,
    "▁Schön": 28565,
    "ведения": 25321,
    "ці": 1956,
    "estic": 15931,
    "▁closed": 5764,
    "▁possib": 6458,
    "cn": 18038,
    "CLA": 13875,
    "ång": 10000,
    "tz": 17559,
    "▁feet": 6900,
    "support": 5924,
    "▁newspaper": 19656,
    "▁pers": 3736,
    "▁succès": 24113,
    "ü": 29993,
    "▁Grab": 22351,
    "▁current": 1857,
    "comput": 12097,
    "▁Das": 3713,
    "▁Neu": 17574,
    "▁needed": 4312,
    "▁Ср": 24319,
    "▁Let": 2803,
    "վ": 31139,
    "▁see": 1074,
    "▁separate": 5004,
    "▁equivalence": 24796,
    "fail": 14057,
    "GROUP": 26284,
    "▁cos": 6776,
    "mez": 21660,
    "weise": 4506,
    "▁serial": 7797,
    "itza": 24597,
    "▁bew": 16435,
    "▁wonderful": 20695,
    "▁zat": 29052,
    "▁Va": 12549,
    "▁кон": 3920,
    "в": 29942,
    "▁gentlemen": 26703,
    "⁴": 30379,
    "▁fitting": 28221,
    "bat": 10222,
    "▁Dezember": 7860,
    "▁suoi": 13673,
    "▁fant": 13568,
    "▁zawod": 25425,
    "▁Comun": 23914,
    "▁doesnt": 19403,
    "tail": 18237,
    "DM": 23560,
    "ського": 6100,
    "chen": 2724,
    "▁mult": 1773,
    "cios": 20237,
    "▁ital": 4698,
    "▁CP": 28505,
    "▁Jes": 8524,
    "▁checking": 8454,
    "Autom": 28451,
    "ERR": 21662,
    "live": 9258,
    "▁Bog": 15872,
    "issant": 19505,
    "rayed": 25724,
    "▁conna": 17043,
    "▁reduced": 12212,
    "▁Masters": 27863,
    "da": 1388,
    "▁avait": 7905,
    "▁sports": 14717,
    "장": 31299,
    "virt": 15389,
    "▁time": 931,
    "▁Play": 7412,
    "TIME": 15307,
    "▁stepped": 28996,
    "▁Begr": 9478,
    "Also": 17351,
    "▁secondo": 15015,
    "ビ": 30809,
    "Os": 24768,
    "▁имен": 27664,
    "▁sold": 5239,
    "▁consent": 20218,
    "▁Sql": 13093,
    "▁авиа": 24757,
    "▁wa": 11324,
    "berg": 2552,
    "▁covering": 21653,
    "▁\"\"": 5124,
    "```": 28956,
    "▁време": 26958,
    "▁`\\": 6714,
    "ský": 13012,
    "asser": 9498,
    "阳": 31430,
    "unn": 5963,
    "Reader": 6982,
    "▁Zie": 17159,
    "ву": 5944,
    "obi": 15647,
    "▁executable": 16813,
    "▁considerable": 15620,
    "▁són": 19121,
    "pes": 5547,
    "▁damals": 28740,
    "oston": 11253,
    "theless": 16561,
    "lev": 2608,
    "▁LEFT": 19246,
    "▁To": 1763,
    "▁comun": 8759,
    "▁chem": 8950,
    "sizeof": 17921,
    "mm": 4317,
    "■": 30725,
    "лося": 21483,
    "ardi": 18015,
    "ạ": 30540,
    "∘": 30790,
    "▁находи": 14050,
    "illi": 12840,
    "▁Art": 3012,
    "ത": 30550,
    "Tim": 13711,
    "▁Си": 7473,
    "ن": 30162,
    "▁Syl": 19628,
    "lim": 2576,
    "ких": 5736,
    "ём": 11560,
    "▁Pictures": 26069,
    "▁bande": 27628,
    "izza": 24990,
    "rides": 24040,
    "▁garant": 27510,
    "▁first": 937,
    "aci": 18703,
    "▁Socket": 29141,
    "antes": 3794,
    "▁Gé": 15309,
    "▁jego": 14041,
    "▁Their": 11275,
    "▁г": 1214,
    "<0xA5>": 168,
    "▁striking": 29191,
    "▁Joan": 19317,
    "▁péri": 13943,
    "▁predictions": 27303,
    "ythm": 29265,
    "▁combining": 29299,
    "▁historia": 14768,
    "▁ду": 9023,
    "▁lá": 24303,
    "▁ped": 8939,
    "▁стре": 21373,
    "aussian": 17019,
    "zero": 9171,
    "▁port": 2011,
    "bet": 6878,
    "ioni": 3688,
    "▁марта": 15051,
    "▁*": 334,
    "ig": 335,
    "Token": 6066,
    "alleng": 16047,
    "ści": 4255,
    "lings": 18964,
    "▁facts": 17099,
    "olg": 22991,
    "▁Leo": 22533,
    "▁separation": 23683,
    "▁Brigade": 23896,
    "fn": 9144,
    "▁\\;": 18175,
    "тая": 27095,
    "▁Ł": 14124,
    "▁writ": 2044,
    "▁kw": 9049,
    "▁consisted": 24775,
    "ɪ": 30312,
    "Net": 6779,
    "▁Earth": 11563,
    "ished": 3276,
    "▁finally": 7146,
    "▁konst": 26710,
    "▁Walker": 19512,
    "kg": 9415,
    "▁Civil": 12886,
    "▁research": 5925,
    "▁featured": 15000,
    "UC": 23129,
    "ació": 12076,
    "▁alles": 24981,
    "▁Staat": 21516,
    "дий": 24005,
    "▁Broad": 12046,
    "ferrer": 3735,
    "Pair": 20547,
    "onas": 27835,
    "▁elegant": 19232,
    "AU": 25951,
    "Single": 15771,
    "disambiguation": 18383,
    "рев": 14577,
    "▁Game": 8448,
    "âte": 10870,
    "▁kat": 29466,
    "▁genomsnitt": 27929,
    "⚭": 30345,
    "Run": 6558,
    "lou": 23581,
    "ド": 30335,
    ")];": 27077,
    "▁ten": 3006,
    "▁Control": 11264,
    "ckså": 27660,
    "▁Ду": 14869,
    "▁inclu": 13654,
    "ação": 8298,
    "▁Fernando": 17993,
    "dek": 25950,
    "elivery": 27657,
    "ną": 12486,
    "кой": 7337,
    "}_": 2403,
    "▁fat": 9950,
    "thm": 12743,
    "▁otras": 16255,
    "Å": 30129,
    "▁Bruno": 20975,
    "tx": 7508,
    "夜": 31390,
    "root": 4632,
    "ни": 507,
    "▁anos": 14110,
    "AM": 5194,
    "▁ersten": 9372,
    "rene": 28593,
    "▁Januar": 7116,
    "rome": 4871,
    "________": 14365,
    "poque": 15635,
    "▁Dí": 26777,
    "▁Bor": 6780,
    "▁viele": 22390,
    "∇": 31837,
    "his": 22880,
    "▁carefully": 16112,
    "▁hair": 11315,
    "▁Get": 3617,
    "▁vois": 29758,
    "ски": 1305,
    "▁Gen": 5739,
    "▁Sob": 25147,
    "▁fueron": 12004,
    "▁Ten": 12444,
    "svg": 15120,
    "})$.": 23462,
    "нь": 5392,
    "Shape": 24111,
    "zenia": 13795,
    "pts": 16485,
    "▁mines": 29086,
    "abe": 4302,
    "▁degree": 7426,
    "ябре": 25743,
    "anchor": 25367,
    "▁журна": 15665,
    "▁larger": 7200,
    "▁ausge": 17691,
    "▁hel": 1081,
    "aupt": 7479,
    "environment": 20944,
    "▁Allen": 16092,
    "bia": 15959,
    "▁invari": 15939,
    "sys": 9675,
    "ona": 2681,
    "ahn": 5422,
    "▁difer": 12186,
    "▁syd": 19205,
    "▁vi": 3516,
    "aciones": 6027,
    "▁Crime": 29682,
    "▁Nu": 12487,
    "▁establishment": 25012,
    ": ": 4291,
    "ery": 708,
    "▁binding": 9956,
    "How": 5328,
    "▁ers": 17730,
    "ala": 2883,
    "Rule": 10740,
    "las": 3333,
    "▁convenient": 19192,
    "models": 9794,
    "▁estimated": 15899,
    "contents": 10853,
    "ำ": 30747,
    "▁Colombia": 21078,
    "▁Archiv": 5522,
    "▁probl": 25698,
    "lieder": 16820,
    "low": 677,
    "▁Show": 7704,
    "галь": 23003,
    "Push": 27031,
    "▁Norm": 5655,
    "区": 30467,
    "用": 30406,
    "stock": 17712,
    "▁partiellement": 22816,
    "▁bar": 2594,
    "leased": 4611,
    "oin": 28230,
    "∃": 30619,
    "▁convirti": 25546,
    "▁Gray": 18956,
    "CG": 11135,
    "umbn": 17771,
    "▁Lord": 6171,
    "▁Ress": 12167,
    "CI": 8426,
    "▁Aires": 16981,
    "▁Sad": 21772,
    "oups": 4410,
    "cost": 18253,
    "ual": 950,
    "xt": 486,
    "▁De": 897,
    "ций": 15071,
    "тро": 9934,
    "America": 29048,
    "ixa": 19892,
    "nego": 10313,
    "▁intro": 22909,
    "▁Hong": 12798,
    "▁desert": 18197,
    "igten": 17542,
    "Box": 3313,
    "hash": 8568,
    "mer": 1050,
    "when": 8256,
    "''": 4907,
    "▁usar": 28336,
    "▁Frank": 4976,
    "▁bal": 6411,
    "▁Ville": 28153,
    "▁Kid": 27912,
    "ュ": 30645,
    "▁Binding": 25799,
    "erset": 24197,
    "Log": 3403,
    "▁middle": 7256,
    "▁altres": 24593,
    "▁Avec": 26383,
    "字": 30578,
    "▁five": 5320,
    "ья": 14252,
    "▁Посилання": 14562,
    "inline": 14764,
    "ox": 2251,
    "occupation": 26601,
    "▁Finn": 21189,
    "▁Gregory": 29094,
    "▁apparently": 13229,
    "˜": 31793,
    "кола": 8523,
    "affen": 19593,
    "posa": 22842,
    "▁Ly": 8626,
    "lius": 19646,
    "nr": 22230,
    "<0x1D>": 32,
    "jack": 21452,
    "ational": 1288,
    "▁дру": 4849,
    "large": 16961,
    "▁pseudo": 17381,
    "і": 29971,
    "]])": 24960,
    "ares": 5114,
    "logger": 21707,
    "cam": 11108,
    "ól": 5471,
    "Brush": 27680,
    "ribution": 3224,
    "▁Employee": 24654,
    "abord": 24430,
    "▁dimension": 9927,
    "•": 30119,
    "azar": 28690,
    "dag": 24157,
    "Border": 17025,
    "▁februari": 23259,
    "fern": 24023,
    "▁Kn": 8360,
    "▁w": 281,
    "▁Cong": 6005,
    "▁graf": 22956,
    "\"?": 8652,
    "ilst": 16613,
    "▁lu": 8092,
    "▁sacr": 19886,
    "▁season": 4259,
    "touch": 16747,
    " ": 30244,
    "▁singular": 13512,
    "UD": 15789,
    "ily": 2354,
    "▁limited": 9078,
    "▁sho": 17394,
    "▁\\(": 4269,
    "▁Simple": 12545,
    "▁against": 2750,
    "lice": 5897,
    "▁Without": 13932,
    "▁rejected": 22225,
    "▁течение": 29459,
    "▁фе": 20250,
    "uteur": 19072,
    "▁grows": 25088,
    "▁graphics": 18533,
    "gression": 11476,
    "▁represents": 11524,
    "▁ferro": 19850,
    "드": 31493,
    "▁fills": 27793,
    "кти": 9054,
    "acional": 4264,
    "▁Harrison": 26954,
    "ier": 631,
    "хо": 1814,
    "▁respect": 3390,
    "▁Statist": 13070,
    "comments": 21032,
    "造": 31420,
    "ientos": 14948,
    "▁dell": 3572,
    "▁leaving": 10124,
    "▁fragment": 9376,
    "ns": 1983,
    "desktop": 20858,
    "▁magn": 9119,
    "ino": 1789,
    "огра": 6409,
    "▁alte": 22924,
    "▁först": 18073,
    "▁Québec": 22427,
    "▁ranking": 24034,
    "Speed": 26539,
    "ная": 3162,
    "▁animate": 26015,
    "лі": 1877,
    "location": 5479,
    "mvc": 12943,
    "▁actors": 29701,
    "▁před": 16729,
    "<0xBE>": 193,
    "▁Ал": 18699,
    "obierno": 14105,
    "▁Ru": 9723,
    "ron": 1617,
    "irit": 14987,
    "串": 31767,
    "▁francesa": 27866,
    "isse": 5582,
    "▁br": 1506,
    "▁binary": 7581,
    "▁attended": 14283,
    "▁miser": 27788,
    "En": 2369,
    "ститу": 10010,
    "▁назна": 21680,
    "▁comer": 15106,
    "▁Ulrich": 29732,
    "▁Games": 12482,
    "▁result": 1121,
    "چ": 30905,
    "▁Между": 28064,
    "nats": 27479,
    "ográ": 12414,
    "HS": 14851,
    "har": 8222,
    "WIDTH": 22574,
    "▁квітня": 26334,
    "▁harder": 22622,
    "▁geg": 21598,
    "▁Jakob": 27850,
    "plementation": 14607,
    "▁libert": 17176,
    "SF": 20322,
    "▁puis": 7847,
    "▁SV": 13955,
    "PR": 10593,
    "сты": 14860,
    "іль": 4202,
    "<0x96>": 153,
    "Platform": 21889,
    "kie": 19501,
    "▁Austria": 17362,
    "uno": 9447,
    "▁Iss": 16982,
    "script": 2154,
    "ції": 6748,
    "▁variant": 17305,
    "▁todo": 10481,
    "scr": 10526,
    "▁région": 14326,
    "▁DateTime": 12315,
    "ifferent": 15622,
    "Ñ": 30334,
    "цов": 23728,
    "▁Mult": 9683,
    "|_{": 26632,
    "ruck": 10857,
    "▁robust": 16424,
    "▁URI": 23539,
    "▁акт": 20681,
    "▁Array": 4398,
    "century": 27371,
    "▁cogn": 25323,
    "▁occasion": 10039,
    "▁até": 16659,
    "▁rgba": 24979,
    "чу": 9797,
    "▁occup": 6919,
    "▁lok": 25194,
    "ěl": 16940,
    "tar": 12637,
    "<0x21>": 36,
    "▁muito": 24343,
    "▁Nice": 20103,
    "Le": 3226,
    "▁{};": 15739,
    "▁Cra": 14279,
    "▁landscape": 24400,
    "ass": 465,
    "▁AB": 17571,
    "▁laughed": 19090,
    "owned": 26689,
    "ependant": 16433,
    "atis": 18792,
    "▁cort": 13979,
    "controller": 8299,
    "▁evaluate": 14707,
    "eland": 14045,
    "▁świata": 29085,
    "▁Environment": 16738,
    "▁excellent": 15129,
    "▁commerce": 24346,
    "▁correl": 8855,
    "▁Bran": 20500,
    "▁launched": 15241,
    "▁сайте": 16752,
    "▁choices": 19995,
    "GR": 14345,
    "isto": 5137,
    "▁demanded": 24432,
    "▁экс": 21584,
    "osti": 16098,
    "вом": 19142,
    "▁senza": 17876,
    "▁gep": 9164,
    "Station": 22814,
    "▁Nederlandse": 25004,
    "änner": 22120,
    "▁Italy": 12730,
    "▁ses": 3999,
    "íd": 13480,
    "}^": 2137,
    "▁installing": 15476,
    "▁Tod": 7561,
    "../../": 21546,
    "▁Seit": 13743,
    "ulas": 15173,
    "▁icons": 27673,
    "▁Roma": 10659,
    "▁died": 6423,
    "ommun": 7386,
    "▁province": 12291,
    "़": 31821,
    "<0xE4>": 231,
    "▁Ung": 29005,
    "ulating": 18099,
    "lad": 4528,
    "▁Fin": 4231,
    "▁Wolfgang": 19314,
    "icion": 15353,
    "iza": 6619,
    "▁considering": 13858,
    "▁wide": 9377,
    "inte": 6693,
    "▁conseil": 27923,
    "▁build": 2048,
    "^^": 16672,
    "▁go": 748,
    "ye": 4099,
    "ਿ": 31857,
    "▁lei": 25338,
    "▁vars": 24987,
    "мест": 27192,
    "дели": 23890,
    "▁({": 21313,
    "SI": 5425,
    "▁padding": 7164,
    "▁turns": 12169,
    "▁donné": 27282,
    "\\|_{": 22772,
    "▁bag": 19548,
    "qua": 21408,
    "▁Discogs": 24262,
    "▁mon": 1601,
    "утбо": 11704,
    "Dom": 11096,
    "rob": 13716,
    "▁Very": 18064,
    "ordnung": 25432,
    "▁angle": 10696,
    "bytes": 13193,
    "▁част": 15267,
    "merce": 15667,
    "LO": 3927,
    "▁curv": 27686,
    "pository": 7036,
    "жі": 29617,
    "False": 8824,
    "nen": 4566,
    "<0xEB>": 238,
    "▁genre": 16151,
    "▁stage": 7408,
    "▁followed": 5643,
    "▁twitter": 23394,
    "▁petite": 22577,
    "▁egg": 19710,
    "uc": 1682,
    "conv": 20580,
    "wahl": 14967,
    "cedes": 28352,
    "▁tegen": 15212,
    "('/": 11219,
    "ะ": 30823,
    "ját": 24651,
    "▁####": 3191,
    "时": 30594,
    "wood": 6115,
    "▁[_": 23160,
    "▁Svens": 25742,
    "▁surface": 7101,
    "▁ut": 3477,
    "庄": 31868,
    "isión": 11861,
    "▁пун": 23807,
    "▁travel": 9850,
    "▁Johannes": 15265,
    "▁angularjs": 20740,
    "ocument": 4463,
    "▁Lin": 4342,
    "▁abandoned": 23181,
    "▁contr": 4313,
    "icons": 27078,
    "▁Da": 7266,
    "DEF": 24405,
    "als": 1338,
    "ходить": 23368,
    "▁vector": 4608,
    ".[": 7226,
    "▁total": 3001,
    "▁whites": 18960,
    "▁necessary": 5181,
    "CAT": 23972,
    "<0x6B>": 110,
    "<0x5C>": 95,
    "▁Clay": 26234,
    "eries": 6358,
    "▁стра": 8440,
    "ários": 26047,
    "ąd": 22881,
    "adin": 28214,
    "xaml": 29510,
    "▁Silva": 25371,
    "▁Where": 6804,
    "▁№": 8981,
    "Setter": 22304,
    "apy": 27580,
    "▁Einwo": 14429,
    "▁Network": 8527,
    "▁extraordinary": 28163,
    "obar": 22872,
    "iform": 5560,
    "▁Ever": 18274,
    "▁Steph": 27265,
    "▁Bou": 12476,
    "iour": 8975,
    "▁shed": 28453,
    "▁Giov": 11429,
    "ник": 3316,
    "レ": 30420,
    "ison": 2285,
    "ή": 31668,
    "▁besch": 8702,
    "▁protected": 6364,
    "rain": 6038,
    "▁gminie": 27610,
    "WA": 12982,
    "stelle": 28446,
    "▁central": 6555,
    "album": 10336,
    "▁З": 2419,
    "kten": 9553,
    "ess": 404,
    "Loader": 10036,
    "Espagne": 24624,
    "anie": 6067,
    "VALID": 26707,
    "マ": 30388,
    "▁largo": 21793,
    "▁gare": 24816,
    "▁appe": 5929,
    "▁sz": 2268,
    "long": 5426,
    "▁kinds": 17690,
    "ת": 30286,
    "▁Jud": 8660,
    "=\"{": 10724,
    "▁воло": 19186,
    "Home": 11184,
    "ствова": 10666,
    "▁Soccer": 18993,
    "ninger": 22705,
    "paper": 19773,
    "icon": 4144,
    "▁sols": 25999,
    "idea": 11729,
    "ager": 1875,
    "▁Vil": 16450,
    "▁анти": 25980,
    "▁studio": 8693,
    "aña": 9244,
    "ℤ": 30770,
    "finite": 18925,
    "▁bits": 9978,
    "▁Kriegs": 21249,
    "uit": 3121,
    "▁WHEN": 17980,
    "Infl": 15403,
    "▁września": 25298,
    "abile": 18119,
    "▁shorter": 20511,
    "▁Пи": 14512,
    "production": 24601,
    "▁eng": 3033,
    "cert": 6327,
    "▁surve": 26946,
    "▁hina": 27957,
    "▁reform": 11736,
    "▁&": 669,
    "connect": 6915,
    "▁encore": 10440,
    "▁Э": 4767,
    "bij": 19352,
    "▁proceed": 8469,
    "▁red": 2654,
    "throw": 20539,
    "▁trom": 25063,
    "▁Hunter": 25703,
    "Video": 15167,
    "Fi": 18800,
    "▁starb": 28414,
    "▁energy": 5864,
    "bildung": 20541,
    "α": 30110,
    "▁fitted": 25890,
    "▁deb": 2553,
    "▁Jo": 3650,
    "▁Regiment": 17982,
    "þ": 30340,
    "yyyy": 18855,
    "▁vez": 7763,
    "▁полі": 19991,
    "▁Gru": 5430,
    "Hot": 28917,
    "▁extens": 21103,
    "att": 1131,
    "ąc": 29280,
    "王": 30462,
    "ых": 9240,
    "▁ces": 7015,
    "▁Quebec": 27605,
    "▁imagination": 28038,
    "ava": 879,
    "kern": 22178,
    "┃": 31588,
    "▁»": 2047,
    "ifts": 17741,
    "ческой": 16576,
    "▁interesting": 8031,
    "mass": 25379,
    "▁cosa": 22383,
    "朝": 31163,
    "She": 13468,
    "▁syn": 5222,
    "▁channel": 8242,
    "▁kon": 4139,
    "amt": 8035,
    "tbody": 15370,
    "ões": 4420,
    "▁СП": 26551,
    "textcolor": 24223,
    "▁pelo": 10845,
    "▁бри": 14951,
    "▁aujourd": 22572,
    "▁inv": 2437,
    "获": 31024,
    "▁п": 469,
    "ждения": 18479,
    "View": 1043,
    "̪": 31317,
    "▁répond": 25497,
    "isé": 11728,
    "▁Sa": 5701,
    "▁ag": 946,
    "▁kult": 21442,
    "+'": 23097,
    "▁Six": 18372,
    "доступ": 29033,
    "Touch": 15852,
    "대": 30890,
    "▁brow": 3347,
    "Ě": 31799,
    "▁root": 3876,
    "helper": 20907,
    "▁departure": 25619,
    "▁contest": 17793,
    "és": 743,
    "▁Ken": 10015,
    "Xml": 11089,
    "▁соста": 15553,
    "oret": 12116,
    "▁How": 1128,
    "EY": 13282,
    "oy": 12602,
    "──": 8539,
    "▁implement": 2334,
    "▁deze": 10988,
    "copy": 8552,
    "plant": 24389,
    "-.": 28753,
    "▁sua": 4171,
    "▁Амери": 27143,
    "▁Sak": 19736,
    "▁Think": 25086,
    "▁retrieved": 27387,
    "▁instructions": 11994,
    "▁lower": 5224,
    "▁film": 2706,
    "▁So": 1105,
    "êt": 11992,
    "▁deleted": 11132,
    "▁kallaste": 26675,
    "<0x3D>": 64,
    "ick": 860,
    "▁ST": 6850,
    "}&": 15704,
    "idth": 1313,
    "▁criminal": 22161,
    "▁einz": 15747,
    "anska": 19041,
    "▁hills": 22696,
    "ifest": 7004,
    "▁CURL": 24222,
    "▁Чем": 23214,
    "iwers": 25845,
    "▁Künstler": 23191,
    "▁enfants": 21038,
    "▁Ehr": 29245,
    "ode": 356,
    "▁iv": 20444,
    "гне": 21740,
    "▁ern": 22276,
    "pointer": 17226,
    "ators": 4097,
    "▁spec": 1580,
    "▁hell": 23927,
    "uerdo": 25768,
    "▁Dioc": 28403,
    "▁belang": 25585,
    "<0x75>": 120,
    "▁pied": 15957,
    "용": 31737,
    "▁Marine": 15929,
    "▁approaching": 28702,
    "▁такой": 29003,
    "Up": 3373,
    "jection": 6929,
    "▁colonial": 25539,
    "berry": 16344,
    "ran": 661,
    "ensoort": 26006,
    "\\;": 23891,
    "▁március": 24605,
    "CAA": 22701,
    "▁турни": 22263,
    "ṇ": 30565,
    "▁festiv": 29482,
    "ifi": 6832,
    "ikor": 29852,
    "▁mer": 2778,
    "ソ": 31051,
    "ക": 30385,
    "Del": 13157,
    "azu": 13581,
    "▁origin": 3978,
    "]{'": 27706,
    "bos": 27737,
    "▁component": 4163,
    "events": 13604,
    "▁processed": 19356,
    "▁був": 11394,
    "Ј": 30154,
    "▁Emma": 26422,
    "▁Herbert": 19116,
    "unicí": 27634,
    "▁Dem": 4432,
    "Full": 13658,
    "▁meille": 15378,
    "ijd": 8791,
    "▁Cont": 2866,
    "▁rivers": 27515,
    "▁small": 2319,
    "arn": 2753,
    "▁his": 670,
    "ional": 1848,
    "▁reduce": 10032,
    "esk": 8488,
    "▁cher": 14954,
    "Br": 12432,
    "結": 31711,
    "▁piece": 8424,
    "▁civile": 29338,
    "vement": 29841,
    "▁Sang": 26932,
    "ubble": 23232,
    "Boot": 20967,
    "Des": 4002,
    "▁interest": 4066,
    "ię": 9497,
    "▁thousand": 10405,
    "▁административ": 23409,
    "ell": 514,
    "▁ub": 13069,
    "Events": 13634,
    "ану": 22935,
    "▁plan": 3814,
    "二": 30685,
    "▁zip": 14319,
    "user": 1792,
    "▁Ng": 29170,
    "▁Cold": 26731,
    "▁wij": 25246,
    "▁embed": 8297,
    "▁Robinson": 22265,
    "quipe": 11435,
    "▁paragraph": 14880,
    "▁két": 23751,
    "▁Yeah": 15011,
    "▁imper": 10112,
    "▁chron": 17168,
    "ються": 16687,
    "▁jav": 26673,
    "enser": 25594,
    "▁scal": 8716,
    "vi": 1403,
    "ʼ": 30302,
    "▁Billboard": 15615,
    "шение": 18907,
    "▁personnes": 18554,
    "ז": 30776,
    "▁ihrem": 19067,
    "▁migr": 9725,
    "永": 31156,
    "▁иг": 10689,
    "'}[": 24264,
    "ierre": 6349,
    "要": 30698,
    "▁categ": 6107,
    "ounded": 7261,
    "alph": 19712,
    "▁kl": 9489,
    "▁%),": 29385,
    "▁niet": 7499,
    "▁encontr": 14567,
    "▁пе": 6414,
    "▁donner": 27516,
    "wig": 9192,
    "ATION": 8098,
    "▁ayant": 17748,
    "▁ArrayList": 9791,
    "}\\,\\": 27559,
    "≃": 31224,
    "▁authority": 14329,
    "Grad": 25584,
    "▁observations": 13917,
    "<0xD2>": 213,
    "eless": 6393,
    "atience": 24701,
    "▁Minor": 21987,
    "orph": 5676,
    "▁wear": 19531,
    "$_": 14630,
    "ί": 30207,
    "icker": 6541,
    "▁trust": 9311,
    "▁animation": 9612,
    "▁мар": 8487,
    "▁IN": 2672,
    "▁Tex": 8490,
    "▁inqu": 25501,
    "▁Pit": 29244,
    "options": 6768,
    "▁etapa": 29691,
    "▁colored": 28684,
    "▁conced": 27943,
    "▁weeks": 11405,
    "▁mån": 15186,
    "▁census": 16411,
    "coded": 29659,
    "imientos": 24038,
    "▁movie": 14064,
    "irection": 8684,
    "pl": 572,
    "ward": 1328,
    "▁haber": 23086,
    "▁§": 16683,
    "▁prior": 7536,
    "jon": 13022,
    "▁hade": 18876,
    "........": 11296,
    "▁ho": 5089,
    "▁soit": 12852,
    "▁Edwards": 29174,
    "▁buildings": 13814,
    "▁Roth": 21790,
    "▁Bel": 3741,
    "azioni": 8312,
    "▁appreciated": 7556,
    "ア": 30310,
    "MO": 6720,
    "üb": 20518,
    "ube": 4003,
    "бург": 14590,
    "pur": 15503,
    "▁proyecto": 28255,
    "▁reason": 2769,
    "vern": 3228,
    "ivid": 3640,
    "For": 2831,
    "▁comprom": 19632,
    "隆": 31788,
    "bis": 18809,
    "▁Hitler": 23151,
    "beck": 19645,
    "▁neue": 16828,
    "▁returned": 4133,
    "▁preced": 9399,
    "subscribe": 19496,
    "junit": 18491,
    "▁count": 2302,
    "▁tip": 6872,
    "▁Pont": 14678,
    "образ": 23944,
    "▁Attribute": 23833,
    "Services": 13779,
    "prowad": 23447,
    "▁syntax": 5877,
    "▁callback": 6939,
    "лено": 20412,
    "olia": 18001,
    "questions": 2619,
    "lasse": 14537,
    "▁Jahr": 3866,
    "osoph": 7708,
    "endant": 5818,
    "▁aument": 19291,
    "atorial": 24737,
    "▁Durch": 13354,
    "cation": 9252,
    "▁assemb": 24367,
    "(_": 7373,
    "rangle": 5854,
    "実": 31525,
    "▁transaction": 10804,
    "nown": 21369,
    "▁ed": 1226,
    "pp": 407,
    "!.": 21520,
    "開": 31404,
    "▁przeci": 29572,
    "▁cel": 6432,
    "▁functions": 3168,
    "webdriver": 29813,
    "▁Ко": 3840,
    "▁sus": 2858,
    "await": 20675,
    "▁Аль": 17908,
    "▁hope": 4966,
    "Ah": 17565,
    "<0xB2>": 181,
    "▁`[": 10338,
    "IMAGE": 2382,
    "▁had": 750,
    "▁kyr": 28164,
    "▁peculiar": 18036,
    "ERS": 23598,
    "▁Lith": 27620,
    "▁::": 4761,
    "▁Move": 25249,
    "▁Port": 3371,
    "▁Research": 10550,
    "▁ATP": 27884,
    "▁Madrid": 9669,
    "znam": 17706,
    "▁губер": 19062,
    "TEST": 18267,
    "пу": 2968,
    "头": 31584,
    "lect": 781,
    "iczn": 29791,
    "ické": 15510,
    "unter": 8428,
    "▁Sant": 4169,
    "▁kraj": 25712,
    "▁Pologne": 17486,
    "ү": 30750,
    "▁cím": 22499,
    "▁strange": 8515,
    "oid": 3398,
    "▁normal": 4226,
    "norm": 12324,
    "▁Comput": 11796,
    "ждён": 28290,
    "гии": 27186,
    "apt": 2156,
    "▁Oh": 6439,
    "()).": 16655,
    "▁tips": 25562,
    "andenburg": 24096,
    "▁screenshot": 17286,
    "dc": 13891,
    "▁heeft": 11926,
    "_{-": 22631,
    "онов": 26119,
    "wealth": 24447,
    "ャ": 30561,
    "cref": 25029,
    "Pat": 11457,
    "▁compet": 5100,
    "ён": 5118,
    "▁include": 3160,
    "▁Epis": 20981,
    "ный": 2370,
    "emberg": 19675,
    "▁Br": 1771,
    "imet": 17528,
    "▁Kurt": 22478,
    "ibli": 2690,
    "▁emphas": 19310,
    "ikes": 29379,
    "▁gram": 14961,
    "▁же": 5865,
    "Bob": 29362,
    "aren": 8326,
    "tem": 1356,
    "▁Weltkrie": 17849,
    "вав": 9276,
    "▁veh": 10852,
    "ghan": 25143,
    "сом": 13139,
    "▁yeux": 26809,
    "ector": 3019,
    "ownik": 23760,
    "▁vagy": 17023,
    "▁kid": 26397,
    "▁Parent": 22280,
    "▁across": 4822,
    "▁Gött": 28703,
    "CUR": 22484,
    "▁FALSE": 17131,
    "▁Engine": 10863,
    "▁perché": 27671,
    "▁să": 12381,
    "iskt": 28404,
    "ook": 2550,
    "built": 16145,
    "boa": 28954,
    "near": 28502,
    "ネ": 31038,
    "▁Mix": 23478,
    "лання": 12867,
    "默": 31735,
    "▁Y": 612,
    "\\": 29905,
    "entials": 9409,
    "▁random": 4036,
    "▁Suppose": 12142,
    "▁destru": 26468,
    "kee": 23137,
    "SELECT": 6404,
    "▁quit": 23283,
    "▁Alter": 20561,
    "▁Después": 25080,
    "▁Ü": 7189,
    "prof": 23221,
    "শ": 31686,
    "beg": 28060,
    "distribution": 27691,
    "▁Trade": 27226,
    "新": 30374,
    "▁[`": 5913,
    "oracle": 11347,
    "▁limit": 4046,
    "▁Text": 3992,
    "▁Moh": 12929,
    "oss": 2209,
    "Total": 11536,
    "Multimedia": 11930,
    "').": 2824,
    "ingu": 6202,
    "ències": 27609,
    "'\"": 11838,
    "isf": 4492,
    "<0x2C>": 47,
    "Formatter": 18522,
    "ficos": 26395,
    "yaml": 25162,
    "▁Sal": 3956,
    "<0xA9>": 172,
    "vá": 8274,
    "жена": 24357,
    "▁trad": 3534,
    "▁Domin": 13298,
    "▁elsewhere": 17551,
    "uniform": 29590,
    "▁mie": 6628,
    "▁student": 8368,
    "▁поль": 18636,
    "▁debut": 9512,
    "▁sciences": 21195,
    "▁desen": 17320,
    "iz": 466,
    "▁је": 2773,
    "дель": 13538,
    "▁gilt": 22921,
    "▁dall": 8912,
    "▁mur": 7167,
    "roz": 16997,
    "managed": 25240,
    "▁disappeared": 24273,
    "▁Challenge": 27211,
    "{": 29912,
    "▁UEFA": 18633,
    "▁registration": 22583,
    "ѝ": 30349,
    "▁<": 529,
    "anni": 9889,
    "▁Shakespeare": 23688,
    "WD": 24668,
    "uten": 6935,
    "▁sci": 4560,
    "▁sjö": 28364,
    "àt": 29155,
    "▁hosp": 29418,
    "▁две": 20880,
    "▁hide": 9563,
    "▁eager": 19888,
    "CLC": 18367,
    "▁Sr": 26250,
    "õ": 30084,
    "System": 3924,
    "ケ": 30978,
    "▁пра": 4460,
    "▁возмож": 28461,
    "orer": 9386,
    "▁substr": 25148,
    "scal": 19529,
    "▁Влади": 14660,
    "jective": 25674,
    "▁Analysis": 24352,
    "Product": 7566,
    "nil": 8834,
    "urst": 26268,
    "ibles": 13876,
    "▁edición": 19542,
    "▁том": 13610,
    "ming": 4056,
    "▁Hook": 29612,
    "▁repres": 10981,
    "▁gentle": 9914,
    "argv": 19218,
    "▁Zar": 22453,
    "▁roy": 20258,
    "ientes": 13833,
    "arta": 16979,
    "▁intended": 9146,
    "getValue": 23433,
    "fahren": 19243,
    "¾": 30642,
    "▁Und": 14211,
    "iembre": 5433,
    "eso": 20135,
    "▁persones": 22994,
    "▁massive": 20364,
    "erton": 28634,
    "ри": 641,
    "상": 31158,
    "8": 29947,
    "illé": 23589,
    "▁Butler": 29384,
    "▁lost": 5714,
    "lic": 506,
    "▁Historic": 17939,
    "matches": 20317,
    "▁wy": 5018,
    "▁utf": 23616,
    "olean": 4132,
    "cpp": 8223,
    "志": 31096,
    "▁Hass": 27558,
    "bur": 8399,
    "Helper": 10739,
    "▁counts": 18139,
    "▁стали": 24977,
    "▁shut": 12522,
    "ist": 391,
    ";}": 13951,
    "▁configur": 17127,
    "非": 31838,
    "tensor": 20158,
    "▁Ajax": 21586,
    "cro": 24077,
    "▁desde": 5125,
    "▁автомо": 26528,
    "▁кре": 15798,
    "▁gl": 3144,
    "▁Auth": 13189,
    "▁Entity": 14945,
    "legend": 26172,
    "▁native": 7531,
    "präsident": 29372,
    "▁pse": 10927,
    "▁Neue": 26426,
    "▁neutral": 21104,
    "▁lon": 23123,
    "циаль": 9676,
    "交": 31398,
    "ifications": 8232,
    "▁heut": 21364,
    "ograph": 1946,
    "entin": 15440,
    "тів": 16590,
    "▁elektr": 19616,
    "enant": 27153,
    "emble": 6967,
    "▁Géographie": 27770,
    "▁required": 3734,
    "ћи": 16765,
    "▁Peters": 15990,
    "▁DLL": 22474,
    "ош": 14719,
    "▁director": 8881,
    "▁Bald": 23874,
    "fon": 18753,
    "▁tables": 6131,
    "▁Barbara": 18506,
    "▁Wieder": 25878,
    "inst": 2611,
    "▁drives": 25100,
    "▁deutscher": 8597,
    "дела": 12761,
    "▁róż": 28801,
    "▁Kle": 9924,
    "ních": 13251,
    "ала": 24036,
    "▁powiecie": 29640,
    "<0x02>": 5,
    "od": 397,
    "▁hacia": 17926,
    "▁Welcome": 21829,
    "achi": 26213,
    "attle": 5315,
    "▁nick": 25985,
    "▁Collegamenti": 7764,
    "▁Gill": 28047,
    "urm": 17095,
    "ниципа": 24330,
    "▁dll": 24415,
    "▁PMID": 25485,
    "зяй": 20188,
    "brains": 29705,
    "▁eventually": 10201,
    "ൾ": 31625,
    "▁пу": 8430,
    "ître": 13639,
    "▁Success": 21397,
    "lip": 3466,
    "べ": 31992,
    "▁kleine": 20113,
    "▁проду": 23092,
    "ethod": 959,
    "jör": 24900,
    "▁auteurs": 19117,
    "├": 30188,
    "▁contrib": 17737,
    "▁China": 7551,
    "▁passed": 4502,
    "▁loi": 24228,
    "due": 29123,
    "宗": 31296,
    "ց": 31554,
    "▁Externa": 13263,
    "тер": 5460,
    "▁eat": 17545,
    "▁orig": 1677,
    "▁tum": 21622,
    "▁Nue": 13965,
    "ο": 30123,
    "JSON": 7249,
    "VIS": 28607,
    "▁donn": 14735,
    "zerw": 15900,
    "▁~": 3695,
    "кло": 10065,
    "▁maximum": 7472,
    "TT": 19988,
    "nam": 8588,
    "▁Av": 7740,
    "drag": 20515,
    "配": 31361,
    "▁accomplished": 24799,
    "avier": 18852,
    "лемен": 25469,
    "▁ancien": 26128,
    "▁increment": 11924,
    "▁---": 11474,
    "ker": 3946,
    "▁Rou": 15915,
    "got": 7085,
    "▁bucket": 20968,
    "▁marg": 15276,
    "zu": 6951,
    "▁laquelle": 22025,
    "estro": 16906,
    "mb": 8337,
    "nested": 27420,
    "nem": 15344,
    "▁Format": 19191,
    "стави": 10498,
    "▁Мекси": 10168,
    "▁Testament": 29198,
    "ців": 15272,
    "▁ferm": 16895,
    "▁Configuration": 20999,
    "▁Литература": 15799,
    "▁назва": 10830,
    "Owner": 28213,
    "ђе": 18471,
    "üng": 26668,
    "asto": 24186,
    "folge": 22997,
    "▁buttons": 9828,
    "ワ": 31028,
    "oh": 1148,
    "▁са": 2489,
    "IV": 5667,
    "▁marriage": 13718,
    "ǒ": 30971,
    "▁Bil": 20347,
    "лов": 3176,
    "▁цент": 8410,
    "ָ": 30518,
    "▁pat": 2373,
    "▁bytes": 6262,
    "▁Kost": 27899,
    "▁Hold": 21771,
    "▁Price": 20743,
    "Proxy": 14048,
    "▁gründ": 27921,
    "▁swift": 12086,
    "▁któ": 6738,
    "Γ": 30339,
    "bráz": 21437,
    "▁beside": 17620,
    "▁noble": 15996,
    "javascript": 7729,
    "▁Similar": 13999,
    "▁Batt": 14077,
    "▁guaranteed": 22688,
    "▁eb": 18230,
    "▁dropped": 13700,
    "▁repub": 23465,
    "BI": 12809,
    "PI": 2227,
    "forsch": 28067,
    "▁hack": 15833,
    "▁Italien": 23977,
    "ostał": 6442,
    "O": 29949,
    "persistence": 28249,
    "▁joined": 8772,
    "__": 1649,
    "▁Hur": 22220,
    "Radio": 21818,
    "▁game": 3748,
    "▁DE": 5012,
    "▁el": 560,
    "勝": 31721,
    "week": 18448,
    "SS": 1799,
    "ége": 14553,
    "▁subsequ": 9602,
    "▁rectangle": 16701,
    "四": 30928,
    "äng": 4762,
    "iae": 23395,
    "Route": 12085,
    "▁corrected": 24114,
    "▁lie": 3804,
    "eline": 5570,
    "uper": 14805,
    "bor": 4089,
    "▁higher": 6133,
    "ethe": 23043,
    "▁BEGIN": 22815,
    "▁meet": 5870,
    "▁Lan": 18273,
    "trans": 3286,
    "▁sechs": 23320,
    "Cell": 4617,
    "amental": 11491,
    "군": 31699,
    "ened": 6419,
    "Ptr": 12058,
    "▁discuss": 5353,
    "бка": 23348,
    "ASS": 22933,
    "bool": 11227,
    "▁Pala": 27000,
    "▁Jahren": 8692,
    "▁projection": 18246,
    "oney": 4992,
    "unt": 1657,
    "▁emission": 25477,
    "▁})": 5615,
    "hibernate": 12575,
    "▁US": 3148,
    ")/": 6802,
    "▁clicking": 14855,
    "Sk": 15797,
    "▁pip": 8450,
    "ings": 886,
    "ks": 2039,
    "tal": 20411,
    "umption": 28069,
    "▁aj": 13612,
    "▁al": 394,
    "jas": 14196,
    "sum": 2083,
    "training": 26495,
    "entation": 9233,
    "SOUR": 27839,
    "dawn": 25516,
    "ˈ": 30176,
    "▁concrete": 18387,
    "▁affection": 22832,
    "<0xF9>": 252,
    "▁Mais": 11948,
    "ное": 5209,
    "Wel": 28862,
    "avid": 16093,
    "my": 1357,
    "▁Borg": 20918,
    "▁affairs": 19469,
    "▁analy": 16455,
    "▁Neben": 19332,
    "▁Site": 10781,
    "▁YouTube": 14711,
    "Ÿ": 31872,
    "▁Portály": 20609,
    "staat": 25654,
    "ydro": 11279,
    "▁Hab": 15221,
    "▁sends": 16003,
    "▁dio": 20562,
    "Pe": 15666,
    "श": 31009,
    "Engine": 12412,
    "▁stated": 8703,
    "uria": 26607,
    "områ": 12769,
    "▁memb": 3813,
    "in": 262,
    "rix": 2126,
    "▁adjacent": 20114,
    "cret": 4838,
    "ContentView": 21788,
    "▁save": 4078,
    "isecond": 18802,
    "DEBUG": 18525,
    "ub": 431,
    "▁Jefferson": 29011,
    "▁deploy": 7246,
    "ط": 30367,
    "▁republic": 23925,
    "▁going": 2675,
    "▁eth": 11314,
    "Bu": 3727,
    "cra": 26844,
    "▁Kit": 26240,
    "▁europ": 12793,
    "tool": 10154,
    "today": 27765,
    "ланд": 17554,
    "embro": 10187,
    "▁pp": 6499,
    "▁number": 1353,
    "▁permanent": 17667,
    "▁Martín": 28344,
    "geq": 6279,
    "▁$|\\": 25984,
    "lichkeit": 23143,
    "▁зали": 23989,
    "▁parlament": 23554,
    "stav": 20381,
    "four": 17823,
    "▁beauty": 15409,
    "Email": 9823,
    "exists": 9933,
    "▁nahe": 28208,
    "▁resulted": 20601,
    "▁sun": 6575,
    "<0x5D>": 96,
    "Something": 16804,
    "zyma": 27425,
    "▁hus": 8646,
    "SC": 7187,
    "Item": 2001,
    "pective": 12645,
    "▁cookies": 21046,
    "Alg": 22461,
    "ixon": 28778,
    "elihood": 22342,
    "▁criteria": 16614,
    "anzen": 25611,
    "ම": 31917,
    "▁@": 732,
    "Attribute": 6708,
    "ölker": 15083,
    "VAL": 8932,
    "drive": 21594,
    "▁associations": 27733,
    "ште": 27626,
    "▁ske": 18109,
    "lices": 29399,
    "ands": 4167,
    "Percent": 27933,
    "▁$('#": 7552,
    "▁Kult": 26483,
    "omy": 16103,
    "▁combin": 5769,
    "情": 30993,
    "▁Sp": 1706,
    "▁Begriffe": 19379,
    "▁генерал": 21857,
    "▁Matrix": 22513,
    "▁хо": 6785,
    "test": 1688,
    "▁жи": 4438,
    "▁bre": 2078,
    "icane": 26655,
    "Open": 6585,
    "kih": 22293,
    "ν": 30133,
    "▁Repub": 12804,
    "team": 14318,
    "▁indic": 4221,
    "▁employed": 15723,
    "rama": 20556,
    "Inter": 4074,
    "inos": 8226,
    "▁bes": 3008,
    "iques": 3783,
    "<0xDE>": 225,
    "ubuntu": 8767,
    "щи": 2837,
    "ienne": 7081,
    "iert": 3722,
    "vl": 20901,
    "▁Pero": 28608,
    "▁computed": 15712,
    "clus": 7009,
    "pla": 13974,
    "▁off": 1283,
    "▁Nel": 5728,
    "stru": 10582,
    "▁produces": 13880,
    "тва": 14878,
    "unst": 6465,
    "FF": 4198,
    "activ": 11236,
    "▁ownership": 27428,
    "▁hombres": 27970,
    "Here": 10605,
    "▁datab": 16236,
    "▁Sky": 16572,
    "awn": 18101,
    "流": 31151,
    "adr": 7887,
    "▁thumb": 28968,
    "バ": 30517,
    "quer": 7808,
    "cted": 2954,
    "▁applied": 7436,
    "writing": 16554,
    "kon": 8077,
    "▁frame": 3515,
    "▁Deput": 26721,
    "usztus": 28294,
    "▁зда": 23304,
    "atype": 23179,
    "▁cmd": 9920,
    "貴": 31887,
    "macht": 29731,
    "Render": 10716,
    "▁мет": 17194,
    "▁fleet": 22338,
    "▁quantum": 12101,
    "到": 30780,
    "▁href": 2822,
    "▁wisdom": 29714,
    "эй": 26938,
    "▁Pa": 2621,
    "ета": 21366,
    "▁stroke": 19782,
    "aceae": 14149,
    "▁kin": 19015,
    "AV": 7520,
    "<0x0A>": 13,
    "?}": 13684,
    "ної": 6383,
    "番": 31982,
    "▁отри": 18501,
    "▁Baker": 22652,
    "▁Museo": 21037,
    "conom": 4599,
    "orig": 12683,
    "▁березня": 21284,
    "▁Lucas": 24243,
    "▁impos": 7275,
    "ostęp": 20900,
    "▁currency": 27550,
    "escape": 21587,
    "igua": 19970,
    "to": 517,
    "▁kwam": 22380,
    "èque": 5949,
    "Ze": 24625,
    "ė": 30239,
    "}": 29913,
    "▁Karriere": 22257,
    "▁plut": 28185,
    "▁intellect": 18715,
    "ffect": 7161,
    "▁forum": 24179,
    "ikh": 28464,
    "burger": 21619,
    "▁Void": 29434,
    "ഷ": 31921,
    "進": 31965,
    "Rem": 7301,
    "▁gold": 7684,
    "▁$(\"#": 8585,
    "▁emb": 7232,
    "jak": 24744,
    "▁coordinate": 14821,
    "ття": 13314,
    "▁Nueva": 18151,
    "entity": 10041,
    "▁Indians": 17072,
    "▁orders": 11299,
    "cze": 18562,
    "▁Natur": 8746,
    "TAC": 8687,
    "event": 3696,
    "▁experienced": 18860,
    "▁ме": 2508,
    "izable": 13902,
    "▁exper": 2902,
    "ไ": 31252,
    "catalina": 17850,
    "▁Unicode": 23862,
    "anner": 7310,
    "▁amongst": 22611,
    "vol": 1555,
    "fire": 8696,
    "ot": 327,
    "▁idea": 2969,
    "▁Product": 10969,
    "Lar": 24105,
    "ctor": 2801,
    "lement": 944,
    "ässt": 29171,
    "рок": 16635,
    "▁NA": 8598,
    "utt": 4774,
    "lide": 7459,
    "▁guarantee": 18818,
    "ности": 5395,
    "add": 1202,
    "▁TODO": 14402,
    "Pack": 16638,
    "▁hidden": 7934,
    "▁finalmente": 27986,
    "▁которого": 23913,
    "▁accounts": 15303,
    "▁somewhere": 9051,
    "▁și": 4209,
    "▁\\,": 7179,
    "▁thus": 4550,
    "▁wür": 21770,
    "▁Tit": 11810,
    "▁Ej": 26087,
    "▁eg": 8087,
    "atol": 14947,
    "infl": 13453,
    "▁Born": 19298,
    "comple": 5729,
    "<=": 14065,
    "▁latach": 12525,
    "▁deve": 28542,
    "show": 4294,
    "▁упо": 22179,
    "▁Нау": 25420,
    "RO": 1672,
    "шко": 28567,
    "▁previous": 3517,
    "▁Tan": 15066,
    "▁destruct": 17912,
    "▁CASE": 29134,
    "({\\": 13670,
    "▁km": 2383,
    "▁idő": 29260,
    "▁drawing": 11580,
    "▁Eli": 26864,
    "“.": 9533,
    "ʁ": 30450,
    "illiant": 23951,
    "▁cp": 21447,
    "clear": 8551,
    "▁manten": 25370,
    "▁apple": 26163,
    "Indicator": 28013,
    "Renderer": 21323,
    "▁Fragment": 19063,
    "▁aircraft": 15780,
    "공": 31334,
    "ient": 993,
    "ப": 30917,
    "église": 20822,
    "▁spoken": 19182,
    "ilia": 11836,
    "awa": 10011,
    "▁blue": 7254,
    "ним": 5472,
    "▁surrounding": 18830,
    "Resolver": 19648,
    "ченко": 28036,
    "▁Part": 3455,
    "disable": 20472,
    "▁wall": 10090,
    "▁court": 8973,
    "▁Fant": 18089,
    "寺": 30951,
    "yter": 25547,
    "▁''": 6629,
    "otion": 8194,
    "%": 29995,
    "yes": 3582,
    "▁ain": 7216,
    "она": 2953,
    "▁part": 760,
    "▁Protest": 21723,
    "▁Gebiet": 17563,
    "ɯ": 31983,
    "liter": 20889,
    "▁Import": 16032,
    "next": 4622,
    "▁([": 9310,
    "atti": 11556,
    "luss": 13596,
    "Enum": 16854,
    "ever": 1310,
    "▁Rost": 27411,
    "ต": 30618,
    "kt": 1193,
    "fil": 1777,
    "▁vue": 15911,
    "cid": 25232,
    "omsnitt": 17047,
    "▁lider": 29110,
    "вя": 5543,
    "ten": 841,
    "▁nunca": 28456,
    "▁Fal": 12941,
    "itories": 20106,
    "▁office": 8034,
    "▁поя": 23969,
    "▁context": 3030,
    "▁wave": 10742,
    "OD": 13668,
    "umps": 17204,
    "▁allen": 15832,
    "zza": 10177,
    "ритор": 23910,
    "▁Es": 3423,
    "▁info": 5235,
    "▁split": 6219,
    "чий": 28140,
    "тек": 16821,
    "▁cruel": 24116,
    "▁advice": 9848,
    "▁ад": 11437,
    ":--": 20296,
    "▁hist": 9825,
    "▁factor": 7329,
    "▁mars": 7438,
    "▁Guardian": 29429,
    "geo": 24756,
    "queue": 9990,
    "▁zoals": 27120,
    "comb": 17743,
    "cookie": 21509,
    "▁AC": 14614,
    "▁brown": 17354,
    "framework": 4468,
    "acs": 16815,
    "▁description": 6139,
    "▁somet": 5895,
    "вания": 22185,
    "brary": 2456,
    "▁Пар": 22718,
    "▁houses": 12955,
    "market": 28549,
    "▁professional": 10257,
    "take": 19730,
    "▁Rose": 14008,
    "േ": 30964,
    "▁très": 9577,
    "OL": 5607,
    "Did": 9260,
    "▁muerte": 22316,
    "▁проек": 16054,
    "▁Never": 12391,
    "анта": 28375,
    "▁Stat": 6666,
    "Δ": 30293,
    "▁Build": 8878,
    "make": 5675,
    "intellij": 28820,
    "flutter": 20126,
    "та": 676,
    "▁score": 8158,
    "▁certains": 23563,
    "▁Piet": 14929,
    "ONG": 20614,
    "▁circles": 22558,
    "ável": 28691,
    "▁inglês": 21297,
    "▁converter": 29105,
    "changed": 15033,
    "unal": 17507,
    "slice": 18337,
    "graphics": 6420,
    "▁dos": 3248,
    "sorted": 24582,
    "▁individuals": 15724,
    "▁finan": 11782,
    "▁nap": 9709,
    "ὐ": 30831,
    "etro": 29551,
    "ça": 4277,
    "environ": 21813,
    "▁spot": 9758,
    "ída": 28815,
    "isten": 8244,
    "outer": 5561,
    "▁OUT": 19474,
    "imately": 15084,
    "▁revol": 13819,
    "▁marked": 10902,
    "ес": 4449,
    "▁worn": 28043,
    "OIN": 6992,
    "▁пописа": 26782,
    "sen": 4881,
    "回": 30742,
    "▁occurred": 10761,
    "▁utiliz": 11824,
    "▁nodes": 7573,
    "▁subtract": 23197,
    "▁Poland": 18898,
    "▁pays": 9744,
    "Bus": 16890,
    "uen": 3837,
    "▁reck": 25527,
    "ali": 2606,
    "хра": 15177,
    "ides": 2247,
    "▁carre": 24320,
    ".=": 25019,
    "Enabled": 10861,
    "ospod": 23245,
    "bing": 10549,
    "tern": 725,
    "▁Una": 12127,
    "tons": 7453,
    "yle": 1508,
    "▁stops": 17726,
    "ellers": 28257,
    "blatt": 22801,
    "IABot": 24291,
    "▁Dopo": 18352,
    "▁join": 5988,
    "=\\\"": 14672,
    "▁голо": 27187,
    "console": 11058,
    "<0x2D>": 48,
    "▁nazionale": 24188,
    "▁veel": 20733,
    "match": 4352,
    "▁geometric": 26224,
    "си": 1325,
    "▁xx": 15473,
    "▁communication": 12084,
    "essor": 6329,
    "▁Uniti": 24699,
    "▁\"": 376,
    "▁amid": 28655,
    "▁intel": 13856,
    ",\\": 2053,
    "▁Philip": 14920,
    "Configuration": 8614,
    "▁Сере": 23903,
    "uis": 4664,
    "cler": 12121,
    "кор": 16848,
    "业": 31729,
    "servable": 12114,
    "▁Terry": 27571,
    "▁simultane": 16991,
    "▁MM": 28880,
    "jo": 2212,
    "▁lecture": 29197,
    "▁Salv": 14964,
    "▁upgrad": 20337,
    "▁nest": 17763,
    "▁reader": 9591,
    "kn": 3959,
    "▁Hamiltonian": 27752,
    "後": 31220,
    "▁instal": 20226,
    "ifiers": 14903,
    "▁existence": 10379,
    "▁isol": 11695,
    "utos": 20864,
    "▁tests": 6987,
    "竹": 31709,
    "▁Video": 13987,
    "Arguments": 26915,
    "▁compress": 27122,
    "▁comment": 3440,
    "bf": 1635,
    "▁pole": 22775,
    "border": 11466,
    "▁verschiedenen": 25176,
    "unit": 5441,
    "onym": 4735,
    "Ang": 9928,
    "édition": 24773,
    "uszt": 23605,
    "▁vr": 11723,
    "▁Christ": 2819,
    "pper": 2496,
    "▁Match": 14514,
    "▁chang": 1874,
    "oslav": 17464,
    "Front": 29348,
    "oct": 20082,
    "enf": 23578,
    "shared": 12366,
    "▁Songs": 22828,
    "仮": 31910,
    "▁présent": 16474,
    "▁sni": 9830,
    "ɲ": 30849,
    "iostream": 23811,
    "eor": 22241,
    "▁Option": 10831,
    "volution": 4068,
    "▁altro": 27704,
    "inton": 16929,
    "▁Dans": 9353,
    "▁cult": 4185,
    "▁olimp": 22512,
    "▁Tag": 10522,
    "▁denotes": 20169,
    "$}": 17133,
    "▁anom": 29342,
    "▁перед": 17702,
    "columns": 13099,
    "▁Baby": 26835,
    "↓": 30552,
    "▁Binary": 29479,
    "itivity": 24858,
    "chk": 29570,
    "ynamic": 8739,
    "▁CSV": 16874,
    "cker": 4937,
    "西": 30602,
    "▁boundary": 10452,
    "iti": 4812,
    "▁орган": 18374,
    "male": 19202,
    "▁familjen": 7172,
    "oro": 5801,
    "ryty": 29157,
    "▁computer": 6601,
    "Change": 7277,
    "▁access": 2130,
    "의": 30708,
    "вая": 17423,
    "\"\"": 15945,
    "▁Tournament": 29427,
    "▁downloaded": 16532,
    "lá": 22867,
    "нцикло": 18222,
    "▁ancora": 18095,
    "ǐ": 30638,
    "▁надмор": 20739,
    "▁costa": 26303,
    "encias": 6187,
    "▁epo": 21502,
    "園": 31179,
    "вого": 16801,
    "▁properly": 6284,
    "▁Municipal": 21327,
    "▁charge": 8323,
    "▁non": 1661,
    "kir": 14166,
    "▁exponential": 25658,
    "▁norte": 15567,
    "▁ін": 7065,
    "ň": 30146,
    "▁Ali": 10785,
    "▁crown": 20844,
    "▁EN": 12524,
    "lau": 25855,
    "▁nationale": 7174,
    "▁nice": 7575,
    "▁ever": 3926,
    "▁regime": 22384,
    "▁Hem": 20863,
    "深": 31947,
    "▁образ": 11998,
    "▁dla": 13502,
    "button": 3092,
    "▁zd": 18100,
    "▁Bat": 12579,
    "td": 1594,
    "ifen": 26651,
    "▁margin": 5906,
    "▁culture": 9257,
    "▁bias": 24003,
    "With": 3047,
    ":@\"": 8593,
    "regon": 22627,
    "oute": 2663,
    "atal": 2075,
    "▁Zur": 16318,
    "▁fast": 5172,
    "▁chiam": 20538,
    "Nothing": 26521,
    "pois": 17376,
    "▁szeptember": 27191,
    "▁Hall": 6573,
    "VE": 12064,
    "MAX": 12648,
    "高": 30528,
    "▁narr": 15474,
    "チ": 30656,
    "alled": 4212,
    "▁merge": 10366,
    "▁Mys": 28924,
    "▁Initialize": 25455,
    "▁entry": 6251,
    "▁avril": 9417,
    "▁Custom": 8701,
    "▁shortly": 21734,
    "lus": 12160,
    "▁fosse": 23198,
    "▁Sort": 20025,
    "▁encountered": 18169,
    "Local": 7717,
    "▁продол": 20646,
    "▁Lub": 19278,
    "nelle": 23497,
    "▁bere": 9218,
    "human": 26029,
    "any": 1384,
    "▁ie": 19282,
    "Pl": 3247,
    "Range": 6069,
    "stackoverflow": 2417,
    "▁scheme": 11380,
    "verband": 25400,
    "▁resta": 24450,
    "Comment": 20001,
    "assets": 16596,
    "ributes": 5026,
    "判": 31791,
    "HERE": 5006,
    "LY": 16786,
    "cient": 15566,
    "каза": 8664,
    "▁secure": 11592,
    "learning": 21891,
    "dimensional": 12531,
    "▁zaj": 18298,
    "▁hierarchy": 21277,
    "sex": 14167,
    "▁clo": 17184,
    "ọ": 30975,
    "▁surrender": 27503,
    "▁miejscowo": 23046,
    "▁tex": 19696,
    "▁envi": 21061,
    "▁Con": 1281,
    "▁mini": 20629,
    "▁Nord": 5245,
    "▁fait": 5246,
    "andy": 13910,
    "▁што": 26462,
    "ictionary": 4334,
    "dec": 7099,
    "▁gut": 22341,
    "ru": 582,
    "▁False": 7700,
    "▁вос": 16335,
    "ville": 4909,
    "ieval": 16837,
    "orage": 6022,
    "▁summary": 15837,
    "▁Государ": 29063,
    "alette": 26456,
    "▁provides": 8128,
    "olds": 3361,
    "/$": 13346,
    "ählt": 15684,
    "ipt": 21278,
    "vor": 5267,
    "▁response": 2933,
    "▁Loop": 21493,
    "ił": 27233,
    "мін": 29090,
    "▁decision": 10608,
    "IG": 6259,
    "launch": 15343,
    "▁jo": 2958,
    "utely": 11579,
    "态": 31613,
    "▁county": 15178,
    "▁Years": 23857,
    "▁discussed": 15648,
    "▁Lyon": 22105,
    "ande": 4182,
    "ając": 20904,
    "▁tweede": 27460,
    "dn": 5200,
    "Cast": 15738,
    "њ": 30079,
    "更": 31100,
    "по": 1268,
    "undo": 6201,
    "라": 31197,
    "▁fres": 29595,
    "raid": 12240,
    "cd": 2252,
    "▁permissions": 11239,
    "ані": 15264,
    "сков": 22136,
    "▁vocals": 17985,
    "▁lattice": 24094,
    "▁Rand": 17468,
    "Т": 30041,
    "repo": 20095,
    "▁calculations": 17203,
    "▁fine": 2691,
    "ange": 927,
    "▁Now": 2567,
    "itä": 17975,
    "imit": 13083,
    "象": 31133,
    "▁observ": 5820,
    "▁насеље": 14503,
    "司": 30931,
    "gow": 23034,
    "LECT": 3281,
    "ো": 31864,
    "▁связи": 26874,
    "ichts": 17815,
    "▁него": 20507,
    "▁intercept": 23404,
    "▁delayed": 29801,
    "Page": 5074,
    "̃": 30478,
    "▁runs": 6057,
    "▁sympath": 17520,
    "▁Ál": 26678,
    "▁inglés": 5102,
    "▁emer": 11176,
    "MODE": 20387,
    "▁drive": 7899,
    "ト": 30279,
    "▁everyone": 14332,
    "▁gest": 7737,
    "▁validate": 12725,
    "ID": 1367,
    "cych": 18614,
    "ilt": 2782,
    "▁seit": 8416,
    "▁enemy": 11103,
    "ution": 918,
    "▁Craig": 28050,
    "▁Фо": 29755,
    "▁championnat": 23918,
    "▁Rosa": 21974,
    "▁Container": 21679,
    "▁exempl": 29455,
    "▁parties": 13973,
    "chia": 20508,
    "▁fre": 3005,
    "▁occasionally": 23025,
    "▁Notable": 24844,
    "<0x99>": 156,
    "Ι": 30508,
    "▁J": 435,
    "▁notification": 12519,
    "▁профес": 15240,
    "remote": 16674,
    "‹": 30474,
    "▁circumst": 11708,
    "▁rules": 6865,
    "▁Unternehmen": 24014,
    "▁consultato": 17798,
    "木": 30710,
    "▁Partido": 24202,
    "etr": 18184,
    "▁Aud": 8612,
    "▁Konst": 22323,
    "▁Imper": 12607,
    "кономі": 29426,
    "▁allocation": 24082,
    "▁Uncle": 29108,
    "Create": 4391,
    "▁models": 4733,
    "▁reporting": 23415,
    "mina": 13257,
    "ME": 2303,
    "azzo": 16594,
    "▁stands": 15028,
    "stdout": 25393,
    "▁Ble": 24718,
    "рон": 6887,
    "ignes": 27360,
    "ŏ": 30476,
    "▁happiness": 22722,
    "▁propre": 26138,
    "Secret": 28459,
    "▁Wür": 21241,
    "ąz": 14232,
    "▁skip": 14383,
    "▁directly": 4153,
    "▁Maryland": 22559,
    "elt": 2152,
    "▁два": 11883,
    "▁ratio": 11959,
    "zan": 24912,
    "▁име": 7557,
    "▁Comité": 29298,
    "student": 18945,
    "ть": 1413,
    "▁XIX": 10634,
    "Pod": 27345,
    "▁footballer": 19026,
    "▁Near": 26206,
    "▁officers": 13049,
    "▁Must": 19928,
    "Ђ": 30338,
    "两": 31977,
    "▁Grand": 6265,
    "∣": 31465,
    "ラ": 30281,
    "▁Municip": 12813,
    "▁Everything": 17296,
    "PAR": 16320,
    "▁reg": 1072,
    "group": 2972,
    "cb": 10702,
    "▁ty": 7911,
    "节": 31669,
    "eff": 12352,
    "zel": 10533,
    "▁Vall": 19918,
    "▁Blue": 10924,
    "Equals": 14776,
    "lament": 12598,
    "▁boolean": 7223,
    "зин": 22745,
    "▁cheval": 25042,
    "until": 29305,
    "▁располо": 17650,
    "▁fle": 9115,
    "▁EDIT": 11488,
    "▁nau": 16448,
    "BO": 8456,
    "▁embargo": 15588,
    "mongodb": 23264,
    "Sur": 18498,
    "esse": 5340,
    "ば": 31254,
    "code": 401,
    "onsieur": 17914,
    "▁fin": 1436,
    "igin": 7238,
    "▁pak": 27068,
    "▁Ol": 7137,
    "ahr": 5610,
    "fixed": 20227,
    "aking": 5086,
    "▁листо": 24621,
    "innen": 10190,
    "▁Gall": 8130,
    "assembly": 26936,
    "notify": 25140,
    "iat": 7163,
    "▁Office": 11367,
    "<0x46>": 73,
    "▁espèce": 20319,
    "▁има": 15707,
    "▁sitting": 16246,
    "▁unusual": 22910,
    "▁mitt": 22219,
    "esper": 27749,
    "ão": 1368,
    "Management": 27107,
    "▁milit": 5549,
    "▁agent": 10823,
    "য": 31218,
    "▁▁▁▁▁▁▁▁▁▁▁▁▁": 795,
    "XY": 18454,
    "▁Small": 18285,
    "DE": 2287,
    "▁sharing": 19383,
    "ley": 2330,
    "bage": 17807,
    "override": 15752,
    "ogn": 3811,
    "▁Рус": 29006,
    "身": 31687,
    "▁Bey": 18502,
    "kop": 25139,
    "▁commander": 22079,
    "owel": 27531,
    "▁Temp": 21121,
    "рав": 3766,
    "▁seis": 26251,
    "Петер": 26861,
    "сы": 5551,
    "▁estava": 24137,
    "▁einen": 4596,
    "▁profesor": 28423,
    "▁Th": 498,
    "▁inserting": 23800,
    "▁expects": 23347,
    "▁Paz": 27437,
    "▁linker": 29060,
    "▁Zam": 29225,
    "▁shift": 9500,
    "家": 30613,
    "Loaded": 29147,
    "portal": 25089,
    "▁TH": 3446,
    "▁millimeter": 26491,
    "▁dynast": 22337,
    "서": 31093,
    "▁grande": 6815,
    "▁conser": 21929,
    "▁motiv": 17385,
    "▁VALUES": 15673,
    "▁Temple": 18057,
    "ensuremath": 8065,
    "rollo": 20426,
    "▁belonged": 28911,
    "▁Roy": 15793,
    "▁hunting": 29826,
    "iesen": 19522,
    "quia": 22455,
    "akter": 14266,
    "brid": 19515,
    "application": 6214,
    "aters": 10412,
    "aily": 8683,
    "loaded": 15638,
    "ashed": 25936,
    "▁rencontre": 26186,
    "rup": 17827,
    "WR": 9980,
    "▁<%": 20577,
    "▁dernière": 24407,
    "▁було": 11792,
    "Show": 8964,
    "▁expected": 3806,
    "ones": 2873,
    "V": 29963,
    "Feature": 19132,
    "▁ganz": 21689,
    "▁Jackson": 11886,
    "未": 31295,
    "authentication": 23055,
    ">)": 12948,
    "itations": 24182,
    "$)": 10931,
    "encoded": 26716,
    "▁Nie": 19166,
    "nonumber": 13621,
    "▁inwoners": 19209,
    "▁в": 490,
    "▁tower": 19372,
    "uß": 5002,
    "correct": 15728,
    "Anchor": 24458,
    "ouvel": 9095,
    "кими": 21456,
    "qué": 17851,
    "库": 31700,
    "<0xCD>": 208,
    "Choice": 29620,
    "Uns": 25807,
    "тия": 8883,
    "▁Russ": 4719,
    "шей": 14337,
    "▁бу": 3180,
    "▁probably": 3117,
    "pipe": 17760,
    "static": 7959,
    "分": 30748,
    "▁Princess": 22063,
    ")--": 17389,
    "▁compare": 7252,
    "▁depth": 10809,
    "err": 3127,
    "▁African": 11715,
    "Prefix": 23095,
    "▁Archivlink": 14414,
    "iday": 22394,
    "');\r": 17822,
    "▁cancel": 12611,
    "adow": 6986,
    "▁affili": 23736,
    "through": 20678,
    "nih": 13428,
    "ieving": 15387,
    "▁Lip": 28428,
    "▁infinite": 10362,
    "Take": 26772,
    "남": 31754,
    "▁yeah": 21915,
    "cito": 14524,
    "Projects": 25119,
    "eb": 774,
    "▁Connecticut": 27230,
    "▁overcome": 25688,
    "▁Bind": 29672,
    "<0x57>": 90,
    "▁hosted": 17791,
    "▁exhib": 10371,
    "~\\": 2651,
    "▁pay": 5146,
    "แ": 31073,
    "▁he": 540,
    "($(": 26237,
    "▁dag": 12136,
    "▁Daily": 23331,
    "▁Doctor": 15460,
    "▁ende": 19981,
    "ত": 31150,
    "▁савезној": 18051,
    "cowo": 18221,
    "aient": 10978,
    "clam": 15719,
    "ülés": 19801,
    "▁until": 2745,
    "▁habitants": 12173,
    "cription": 3395,
    "▁computation": 16287,
    "▁findet": 28741,
    "य": 30640,
    "▁Див": 23939,
    "▁progress": 6728,
    "▁Bh": 20303,
    "^+": 14747,
    "▁r": 364,
    "▁ба": 4724,
    "▁не": 1538,
    "▁ins": 1663,
    "opacity": 28193,
    "Ed": 3853,
    "all": 497,
    "<0x60>": 99,
    "▁Connect": 14971,
    "стран": 25604,
    "▁actually": 2869,
    "izer": 3950,
    "▁Lima": 27832,
    "▁statistics": 13964,
    "lag": 3110,
    "▁мало": 29584,
    "▁performed": 8560,
    "тура": 7217,
    "odge": 17979,
    "▁Stra": 7357,
    "▁ts": 18696,
    "News": 29328,
    "▁Artikel": 26904,
    "ivi": 8107,
    "▁Sold": 19019,
    "▁divide": 16429,
    "▁степени": 27781,
    "▁Pam": 25281,
    "▁textbox": 18932,
    "rey": 8903,
    "eper": 11356,
    "▁judge": 16833,
    "social": 24911,
    "▁спор": 20375,
    "▁member": 4509,
    "W": 29956,
    "ako": 4614,
    "▁Kol": 10451,
    "lub": 29870,
    "▁took": 3614,
    "▁música": 15433,
    "ilar": 2327,
    "▁love": 5360,
    "ular": 1070,
    "ather": 1624,
    "igr": 4481,
    ".\")": 23157,
    "▁Mathemat": 13486,
    "äß": 10250,
    "▁dátummal": 23654,
    "Types": 10562,
    "▁zwar": 26979,
    "▁Tre": 6479,
    "▁execution": 8225,
    "▁requires": 6858,
    "ّ": 30857,
    "rooms": 18901,
    "Names": 8659,
    "&\\": 11035,
    "Gi": 26074,
    "▁suffered": 17654,
    ".):": 9575,
    "▁fut": 3105,
    "▁iterate": 13649,
    "word": 1742,
    "و": 30171,
    "ied": 1000,
    "клад": 18191,
    "ymi": 18653,
    "▁Arist": 25068,
    "ize": 675,
    "▁unlikely": 25057,
    "olate": 23167,
    "▁estab": 4016,
    "▁Kun": 25472,
    "hez": 22923,
    "limited": 29044,
    "áz": 5058,
    "▁Was": 12547,
    "▁guys": 18239,
    "aring": 4362,
    "▁червня": 26527,
    "{'": 10998,
    "Loop": 18405,
    "▁SU": 20134,
    "fortunately": 7524,
    "Grid": 5756,
    "▁hr": 22157,
    "M": 29924,
    "▁Fach": 21378,
    "ità": 3943,
    "lam": 5288,
    "▁returns": 3639,
    "族": 30999,
    "▁subset": 11306,
    "▁former": 4642,
    "REG": 18166,
    "▁devices": 9224,
    "▁одно": 17636,
    "ită": 17829,
    "▁\";": 12159,
    "▁bind": 7868,
    "шла": 18774,
    "illed": 24455,
    "Just": 14084,
    "Database": 9112,
    "▁recorded": 10478,
    "▁Мексику": 20180,
    "ровой": 26537,
    "update": 5504,
    "▁Edinburgh": 25200,
    "▁War": 3362,
    "▁show": 1510,
    "▁Louise": 24417,
    "sock": 21852,
    "▁От": 14809,
    "▁crist": 15919,
    "智": 31676,
    "限": 31175,
    "Invocation": 27613,
    "ivot": 11002,
    "▁Бело": 28621,
    "EventListener": 12825,
    "▁elő": 14427,
    "▁achiev": 27012,
    "▁consegu": 22270,
    "ницы": 25213,
    "\".$": 22681,
    "▁Rég": 26931,
    "▁pochod": 28782,
    "▁international": 6121,
    "▁inizi": 25676,
    "(()": 14885,
    "▁ф": 1606,
    "<0xC4>": 199,
    "лосо": 25885,
    "ta": 941,
    "ively": 3598,
    "▁Railway": 16795,
    "▁Next": 8084,
    "▁reflection": 17842,
    "▁Giul": 24740,
    "▁cookie": 15327,
    "▁POST": 11971,
    "mar": 3034,
    "↵": 31188,
    "ɫ": 31764,
    "email": 5269,
    "▁erf": 23467,
    "tere": 12358,
    "ük": 21495,
    "zh": 17599,
    "SUM": 25021,
    "▁Geschäft": 27670,
    "annt": 5805,
    "▁tal": 5969,
    "▁yes": 4874,
    "▁molti": 28248,
    "après": 19908,
    "▁compla": 15313,
    "▁liber": 7866,
    "imp": 6574,
    "▁expectation": 23227,
    "▁Deux": 26079,
    "▁améric": 14127,
    "▁economic": 17407,
    "node": 3177,
    "ich": 436,
    "▁Korean": 22467,
    "ность": 6122,
    "there": 12711,
    "▁rom": 6017,
    "clo": 15126,
    "Bean": 8217,
    "者": 30767,
    "▁caching": 22488,
    "▁parent": 3847,
    "зь": 8904,
    "occ": 15693,
    "▁bev": 21329,
    "╣": 31626,
    "Ctrl": 18069,
    "вши": 6687,
    "▁Japon": 23326,
    "terior": 8733,
    "ior": 1611,
    "▁мож": 13333,
    "▁kao": 21132,
    "▁жі": 25872,
    "▁Russell": 20679,
    "▁ft": 11791,
    "<0xB5>": 184,
    "ifiable": 28677,
    "Dispatch": 14777,
    "▁Rock": 8027,
    "▁wer": 2949,
    "▁осіб": 13040,
    "▁*/": 3776,
    "rgb": 23973,
    "▁områ": 28652,
    "▁revis": 23484,
    "куп": 28971,
    "повід": 25303,
    "ggreg": 26127,
    "ourse": 10242,
    "▁ri": 10107,
    "▁está": 7919,
    "step": 10568,
    "▁layers": 15359,
    "zec": 17938,
    "bles": 7586,
    "▁Spirit": 20799,
    "ária": 21925,
    "фри": 22190,
    "pmod": 28871,
    "▁Abraham": 24763,
    "ummy": 11770,
    "▁Praha": 25689,
    "▁jobs": 17643,
    "enumerate": 15172,
    "▁nécessaire": 23309,
    "▁Emp": 7361,
    "path": 2084,
    "▁dot": 8329,
    "athed": 14139,
    "AndroidRuntime": 12746,
    "▁Diplom": 28243,
    "iegel": 19369,
    "etten": 25864,
    "énario": 28951,
    "▁Cover": 26428,
    "▁Community": 19184,
    "组": 31263,
    "▁mm": 5654,
    "さ": 30566,
    "ске": 11106,
    "▁Stevens": 26287,
    "▁knowing": 13797,
    "SSL": 18641,
    "gest": 7118,
    "venue": 9947,
    "▁registers": 28975,
    "▁potential": 7037,
    "先": 31244,
    "ников": 10308,
    "▁singer": 15640,
    "▁giov": 23241,
    "angol": 21461,
    "▁str": 851,
    "inc": 3742,
    "тки": 13921,
    "▁Chal": 27598,
    "▁они": 16642,
    "//": 458,
    "htm": 13357,
    "▁ze": 3777,
    "fte": 11927,
    "▁ves": 28999,
    "▁hö": 12977,
    "▁heart": 5192,
    "зиден": 20210,
    "▁Larry": 26977,
    "▁Lil": 28624,
    "usk": 17400,
    "て": 30466,
    "▁relativ": 14215,
    "rak": 4442,
    "selection": 21731,
    "▁parl": 24590,
    "▁task": 3414,
    "▁alternate": 25010,
    "▁deux": 4239,
    "▁Fur": 7509,
    "opt": 3670,
    "연": 31285,
    "arden": 7879,
    "ств": 2513,
    "<0x45>": 72,
    "▁образова": 16362,
    "liv": 17843,
    "▁TypeError": 20948,
    "Second": 11863,
    "**": 1068,
    "陽": 31291,
    "▁coinc": 22819,
    "▁kis": 26187,
    "Properties": 11857,
    "rons": 12628,
    "ni": 1240,
    "richt": 10220,
    "ups": 14340,
    "▁FM": 20499,
    "▁co": 1302,
    "/~": 24629,
    "▁paid": 12530,
    "кто": 18576,
    "≈": 30583,
    "oused": 26165,
    "▁minor": 9461,
    "▁spraw": 26183,
    "▁strugg": 10205,
    "▁these": 1438,
    "Methods": 26112,
    "оні": 29031,
    "_{(": 20862,
    "öst": 15095,
    "▁miejs": 8786,
    "▁ourselves": 20278,
    "Spring": 19634,
    "▁mic": 20710,
    "▁License": 19245,
    "autres": 14559,
    "ющего": 26920,
    "▁programa": 16914,
    "▁жовт": 22768,
    "▁rival": 17055,
    "Thank": 25271,
    "lish": 1674,
    "▁internal": 7463,
    "▁ob": 704,
    "▁corresponds": 16161,
    "▁thats": 20952,
    "▁forget": 9566,
    "Donald": 28080,
    "▁creation": 11265,
    "▁Derby": 29520,
    "allel": 6553,
    "▁assuming": 10241,
    "łą": 14300,
    "ountry": 9729,
    "▁sell": 19417,
    "孝": 31875,
    "▁ново": 22404,
    "▁dirige": 26745,
    "▁combat": 15499,
    "▁Presidente": 28828,
    "Behavior": 28100,
    "VALUE": 19143,
    "间": 31016,
    "▁saison": 12320,
    "▁egy": 5524,
    "odor": 17606,
    "▁TextView": 19633,
    "▁princi": 2623,
    "▁voit": 24722,
    "linear": 10660,
    "ová": 7643,
    "▁champion": 8064,
    "▁eclipse": 16517,
    "▁запад": 28055,
    "ster": 2475,
    "▁compt": 18741,
    "iante": 12361,
    "風": 31090,
    "▁solved": 7484,
    "{{": 6224,
    "saved": 17314,
    "▁schließlich": 25142,
    "▁Serv": 9635,
    "zenie": 18638,
    "ган": 7478,
    "▁=": 353,
    "▁Pablo": 24770,
    "ees": 12712,
    "кий": 3753,
    "▁zie": 28395,
    "▁но": 4228,
    "▁hopes": 26926,
    "estr": 16444,
    "nungen": 18839,
    "uries": 14886,
    "LayoutParams": 26476,
    "руд": 13948,
    "▁Indiana": 21817,
    "▁pipeline": 16439,
    "▁flags": 13449,
    "confirm": 26897,
    "▁Whe": 26286,
    "ervation": 20525,
    "▁western": 15782,
    "▁NR": 27759,
    "istische": 21007,
    "зова": 9718,
    "▁GND": 10453,
    "▁tek": 20996,
    "чке": 27346,
    "▁seq": 19359,
    "▁które": 13642,
    "▁gone": 7695,
    "alth": 4298,
    "▁receives": 20586,
    "▁anci": 7242,
    "▁Rum": 20852,
    "ative": 1230,
    "▁Java": 3355,
    "▁Sir": 6290,
    "▁Biografia": 19164,
    "}}}\\": 20388,
    "▁Про": 6807,
    "▁mainly": 14364,
    "▁мор": 15256,
    "▁Need": 20768,
    "▁]": 4514,
    "obox": 23518,
    "пр": 21550,
    "kotlin": 29165,
    "ʲ": 30668,
    "▁britann": 14629,
    "▁thous": 7693,
    "ussen": 12706,
    "ędzy": 26796,
    "▁letech": 25052,
    "endor": 12184,
    "translate": 21652,
    "▁nomin": 10418,
    "▁hinaus": 28545,
    "▁vague": 25160,
    "gets": 20078,
    "endes": 18684,
    "utable": 9246,
    "sup": 12587,
    "voj": 17521,
    "▁brought": 6296,
    "▁Brook": 18737,
    "3": 29941,
    "▁bonus": 28920,
    "руп": 13379,
    "umm": 23824,
    "▁Investig": 28246,
    "vas": 4428,
    "пра": 8821,
    "igi": 10091,
    "▁zas": 24501,
    "ition": 654,
    "zw": 7659,
    "▁battery": 16988,
    "={\\": 21854,
    "▁Після": 25563,
    "zak": 29114,
    "‑": 30477,
    "ُ": 30711,
    "TeX": 16644,
    "▁Mike": 12828,
    "Conne": 20971,
    "embed": 17987,
    "▁Cel": 14227,
    "▁fixing": 27826,
    "itet": 7369,
    "▁whis": 17352,
    "▁LIKE": 22962,
    "об": 4389,
    "*.": 10521,
    "▁https": 2045,
    "▁results": 2582,
    "▁seed": 16717,
    "▁unus": 18325,
    "▁costru": 18979,
    "ado": 912,
    "▁gemäß": 17922,
    "ère": 1908,
    "Iter": 13463,
    "▁против": 12411,
    "▁pounds": 24261,
    "selenium": 27373,
    "Copy": 11882,
    "▁Graf": 13721,
    "SA": 8132,
    "▁Films": 21470,
    "leans": 25210,
    "▁|\\": 18283,
    "▁Saturday": 24211,
    "▁finit": 25921,
    "▁Tochter": 21773,
    ",...,": 27062,
    "▁Heimat": 22200,
    "▁tons": 23864,
    "▁vess": 12950,
    "▁targets": 22525,
    "Ζ": 31405,
    "ított": 22811,
    "consum": 25978,
    "▁into": 964,
    "▁▁▁▁▁▁": 539,
    "▁исследова": 20565,
    "ängen": 21644,
    "ôle": 12161,
    "▁field": 1746,
    "▁première": 8861,
    "Perm": 15737,
    "▁rig": 12912,
    "Relative": 18278,
    "enty": 6478,
    "arie": 19380,
    "▁tradition": 11399,
    "sun": 11445,
    "∈": 30264,
    "▁Frauen": 16386,
    "▁batt": 8957,
    "▁Thanks": 1834,
    "liers": 27801,
    "ouc": 29049,
    "▁codes": 11561,
    "lei": 16301,
    "▁Button": 11025,
    "▁binnen": 29805,
    "▁attributed": 29393,
    "▁constitu": 10719,
    "▁techn": 5722,
    "送": 31545,
    "▁air": 4799,
    "▁ну": 26367,
    "▁notice": 8369,
    "▁сло": 19945,
    "▁Moore": 18588,
    "Created": 20399,
    "▁College": 6346,
    "Ἰ": 31726,
    "ogram": 13342,
    "iction": 2463,
    "▁фев": 14262,
    "▁struck": 15469,
    "compiler": 21789,
    "Calcul": 27065,
    "▁Total": 14990,
    "▁servants": 26202,
    "iforn": 6557,
    "▁stagione": 15876,
    "प": 30621,
    "▁Ž": 13768,
    "сите": 9440,
    "<0xB3>": 182,
    "স": 31148,
    "▁The": 450,
    "▁displaying": 16384,
    "▁станови": 13559,
    "(\",": 28165,
    "▁gior": 17030,
    "ʔ": 30825,
    "êque": 26075,
    "▁А": 1291,
    "▁.": 869,
    "ERT": 20161,
    "▁twe": 7780,
    "stor": 28957,
    "▁Brown": 9817,
    "зне": 22651,
    "hon": 27305,
    "▁mais": 3503,
    "▁protocol": 9608,
    "otic": 13574,
    "▁city": 4272,
    "▁medieval": 27690,
    "▁сле": 10535,
    "▁Weltkrieg": 25686,
    "▁scratch": 22728,
    "ktiv": 21371,
    "▁nécess": 16253,
    "appendChild": 23850,
    "étés": 28141,
    "▁People": 11647,
    "publique": 18739,
    "▁Хо": 14120,
    "filter": 4572,
    "▁primer": 7130,
    "'},": 16675,
    "IAL": 25758,
    "▁inaug": 15069,
    "▁opacity": 17012,
    "microsoft": 4994,
    "chts": 10333,
    "ishment": 18310,
    "▁investig": 7405,
    "мого": 19370,
    "▁disp": 12272,
    "ouwen": 21630,
    "stand": 1689,
    "▁age": 5046,
    "▁January": 5490,
    "▁development": 5849,
    "▁leaf": 20447,
    "syn": 19274,
    "▁telling": 14509,
    "▁буде": 23618,
    "▁gard": 17161,
    "▁responsible": 14040,
    "ury": 2857,
    "▁found": 1476,
    "quired": 5958,
    "▁removing": 11077,
    "▁Leb": 9388,
    "[\\": 7110,
    "▁differences": 12651,
    "▁Ortste": 25626,
    "swift": 26792,
    "₹": 30620,
    "▁improvement": 20414,
    "广": 31566,
    "{\r": 14626,
    "▁contempor": 12010,
    "ordinate": 16065,
    "▁ры": 25853,
    "бора": 23243,
    "ńcz": 26683,
    "가": 30903,
    "ict": 919,
    "al": 284,
    "зма": 22262,
    "▁Nur": 25651,
    "perimental": 27910,
    "▁вере": 22358,
    "Syn": 29216,
    "▁adapt": 7744,
    "owa": 5604,
    "педи": 8947,
    "aqu": 18463,
    "▁katol": 29483,
    "')": 1495,
    "elled": 14356,
    "Collect": 28916,
    "▁sehr": 13572,
    "мене": 17859,
    "语": 31505,
    "▁Round": 21595,
    "▁broadcast": 12672,
    "ợ": 31645,
    "▁kan": 6841,
    "SK": 16033,
    "endl": 18495,
    "except": 19499,
    "▁adv": 3061,
    "▁Lane": 23841,
    "rys": 18450,
    "▁tourn": 10733,
    "▁composer": 18422,
    "▁printed": 13350,
    "uky": 21108,
    "联": 31986,
    "败": 31955,
    "▁após": 24292,
    "▁deliver": 12021,
    "▁Коро": 24752,
    "гово": 18763,
    "▁uso": 17448,
    "achment": 25117,
    "Fr": 14438,
    "Visible": 12911,
    "▁tired": 23407,
    "▁спо": 7356,
    "▁Кри": 18645,
    "Images": 20163,
    "▁slo": 14216,
    "▁guessing": 20680,
    "嘉": 31961,
    "ulaire": 25290,
    "▁realized": 16387,
    "record": 11651,
    "atz": 4101,
    "▁males": 25269,
    "ços": 16152,
    "▁dry": 15589,
    "porte": 13732,
    "▁platform": 7481,
    "▁фло": 23730,
    "▁residence": 25488,
    "▁biggest": 24842,
    "DIS": 23711,
    "▁refresh": 11086,
    "Sdk": 29019,
    "atalog": 3968,
    "▁choose": 6755,
    "ichter": 23210,
    "▁someone": 4856,
    "▁global": 5534,
    "__(": 12035,
    "aster": 1901,
    "▁liberty": 24169,
    "omi": 21019,
    "▁remaining": 9886,
    "▁products": 9316,
    "<0x8E>": 145,
    "▁Lond": 3621,
    "asket": 7896,
    "▁alternative": 8671,
    "▁Perú": 28686,
    "▁hand": 1361,
    "(\"@": 29475,
    "▁tuple": 18761,
    "▁singleton": 27130,
    "ceil": 27696,
    "oman": 2480,
    "▁avoided": 28305,
    "▁suggesting": 26233,
    "▁empres": 24653,
    "▁efter": 12057,
    "▁treat": 7539,
    "▁Hof": 15599,
    "▁lud": 21615,
    "dot": 6333,
    "ports": 4011,
    "actor": 7168,
    "ty": 1017,
    "png": 2732,
    "<0xE3>": 230,
    "▁Clear": 17732,
    "uca": 18393,
    "styles": 9783,
    "松": 31018,
    "$.": 1504,
    "ступил": 28270,
    "▁wrap": 12244,
    "alm": 17120,
    "sky": 7912,
    "▁Council": 8831,
    "▁kilomet": 19543,
    "sdk": 15348,
    "▁abit": 19709,
    "proc": 15439,
    "需": 31383,
    "▁Conserv": 15312,
    "▁echter": 24355,
    "ész": 11065,
    "anto": 5361,
    "▁dello": 14681,
    "actic": 17911,
    "▁periodic": 29591,
    "▁gall": 11798,
    "Ó": 30178,
    "▁finales": 27538,
    "▁leur": 6267,
    "▁při": 28261,
    "▁announced": 9326,
    "Foreign": 27755,
    "▁Montreal": 26693,
    "▁Besides": 19065,
    "ふ": 31706,
    "ფ": 31978,
    "▁Rolle": 24762,
    "installed": 25537,
    "rique": 14090,
    "Att": 4165,
    "▁instances": 8871,
    "дня": 16282,
    "hor": 2015,
    "▁Пра": 17913,
    "▁touch": 6023,
    "▁F": 383,
    "race": 25525,
    "▁\"^": 13898,
    "▁Begin": 14893,
    "ief": 2575,
    "▁Fun": 13811,
    "iben": 24068,
    "stan": 14411,
    "ེ": 31644,
    "▁hurt": 21682,
    "▁Admir": 23946,
    "▁Disc": 8565,
    "▁Schrift": 17802,
    "▁Philipp": 12325,
    "▁awarded": 15074,
    "minipage": 24203,
    "▁Василь": 24989,
    "ohl": 10330,
    "Inject": 28329,
    "▁contribute": 29126,
    "▁equ": 1592,
    "он": 2031,
    "布": 31454,
    "▁casting": 23013,
    "ibus": 19699,
    "k": 29895,
    "ędz": 26372,
    "変": 31786,
    "▁consistent": 13747,
    "achiv": 24184,
    "Σ": 30291,
    "руг": 21506,
    "▁Overflow": 28845,
    "rypt": 4641,
    "▁Cell": 19413,
    "ainer": 4008,
    "▁rende": 19643,
    "▁At": 2180,
    "jango": 5364,
    "▁Dur": 7073,
    "ゆ": 31621,
    "▁excess": 19163,
    "iju": 26323,
    "еру": 19241,
    "lay": 8387,
    "ièrement": 20564,
    "▁${\\": 7555,
    "▁gewesen": 29321,
    "$,": 1628,
    "▁Pale": 26412,
    "▁target": 3646,
    "▁bef": 15823,
    "▁secolo": 15200,
    "▁Monday": 27822,
    "▁від": 3715,
    "▁Diam": 22904,
    "(": 29898,
    "▁дости": 23118,
    "▁fer": 6013,
    "▁artifact": 24238,
    "▁decay": 20228,
    "▁trab": 10565,
    "▁Up": 5020,
    "▁debugger": 18297,
    "acco": 17970,
    "river": 3511,
    "кви": 15209,
    "▁Philadelphia": 18292,
    "▁erste": 11870,
    "xe": 17115,
    "▁проф": 13503,
    "▁проис": 23061,
    "▁failed": 5229,
    "нача": 19458,
    "▁slight": 7248,
    "▁soul": 10752,
    "▁among": 4249,
    "agr": 10312,
    "owego": 13363,
    "▁конце": 20776,
    "▁authorities": 21142,
    "▁Ро": 6083,
    "iero": 15067,
    "▁Edition": 17138,
    "foreach": 13150,
    "▁woj": 9237,
    "▁geld": 10559,
    "▁авгу": 12517,
    "▁flight": 16286,
    "break": 8690,
    "ts": 1372,
    "▁wet": 7990,
    "▁guns": 18788,
    "▁sotto": 17217,
    "▁sake": 16563,
    "▁expecting": 16120,
    "<0xF8>": 251,
    "▁möglich": 25959,
    "▁controlled": 20704,
    "ored": 4395,
    "▁січня": 24708,
    "<0x6C>": 111,
    "єдна": 26715,
    "ugh": 6129,
    "▁encoding": 8025,
    "нут": 18313,
    "▁grid": 6856,
    "tain": 2408,
    "nl": 12938,
    "▁mobile": 10426,
    "la": 433,
    "\").": 2564,
    "▁>>": 5099,
    "▁odkazy": 17871,
    "<0x4A>": 77,
    "▁fl": 1652,
    "chart": 15425,
    "▁GR": 18016,
    "▁Desp": 17214,
    "lassen": 19146,
    "Draw": 8537,
    "▁bem": 15522,
    "коли": 29798,
    "▁mediante": 24652,
    "▁ги": 16562,
    "ît": 13871,
    "▁tele": 4382,
    "▁menor": 26764,
    "cling": 19914,
    "Points": 20325,
    "auch": 13989,
    "▁quantity": 14728,
    "▁certainly": 8959,
    "▁Glo": 21806,
    "▁optional": 13136,
    "scene": 24645,
    "▁semantic": 28837,
    "▁rabb": 27127,
    "▁опера": 16458,
    "▁présence": 29845,
    "ὑ": 31544,
    "▁вс": 22511,
    "cciones": 14980,
    "SBN": 1977,
    "tick": 24667,
    "▁echo": 2916,
    "▁node": 2943,
    "Alert": 16649,
    "POS": 24815,
    "лін": 28338,
    "▁INTO": 11646,
    "▁Bon": 8396,
    "▁erm": 27398,
    "ACK": 11375,
    "▁correction": 26385,
    "ROM": 3491,
    "▁sacred": 26546,
    "▁taking": 5622,
    "én": 1690,
    "пада": 11983,
    "╬": 30935,
    "▁queries": 9365,
    "continue": 19878,
    "▁коро": 10210,
    "aw": 1450,
    "них": 3065,
    "▁consider": 2050,
    "▁JavaScript": 8286,
    "▁mongo": 19476,
    " ": 30081,
    "▁son": 1487,
    "=\"/": 13802,
    "▁infinity": 27971,
    "apps": 13371,
    "▁semi": 12647,
    "▁Beit": 23983,
    "cell": 3729,
    "пример": 25390,
    "idades": 7305,
    "や": 31111,
    "▁parmi": 25763,
    "calendar": 23392,
    "▁Гу": 15180,
    "▁tart": 13914,
    "▁intern": 2836,
    "▁Мос": 9439,
    "官": 31694,
    "ligen": 27846,
    "▁vast": 13426,
    "▁$$": 2046,
    "▁var": 722,
    "();": 890,
    "▁relations": 5302,
    "div": 4563,
    "▁ ": 20246,
    "sig": 18816,
    ")-\\": 23019,
    "error": 2704,
    "agraph": 9895,
    "▁Equ": 11243,
    "initial": 11228,
    "][": 3816,
    "prov": 16123,
    "ialog": 3658,
    "▁slow": 5232,
    "ний": 2332,
    "lla": 13520,
    "▁cra": 12220,
    "▁entertain": 22684,
    "ắ": 31160,
    "▁Tib": 19429,
    "▁interpol": 20064,
    "ará": 20484,
    "▁Richard": 6123,
    "▁Kingdom": 12626,
    "akov": 27695,
    "Add": 2528,
    "rn": 27539,
    "▁Social": 10307,
    "▁numbers": 3694,
    "indu": 19910,
    "▁alias": 13995,
    "▁obec": 26055,
    "▁elles": 20554,
    "umi": 15547,
    "<0x92>": 149,
    "▁Все": 16494,
    "▁prepared": 13240,
    "▁oper": 1751,
    "▁Ult": 18514,
    "▁flor": 23729,
    "▁Bedeut": 21490,
    "organ": 6388,
    "javase": 16509,
    "љ": 30075,
    "linux": 9389,
    "▁pl": 715,
    "cou": 16589,
    "fica": 12619,
    "⊆": 30842,
    "nal": 20809,
    "VID": 13044,
    "▁proves": 28281,
    "SY": 14816,
    "▁Caroline": 26980,
    "▁deix": 26801,
    "au": 585,
    "ounding": 12449,
    "▁C": 315,
    "▁Review": 13957,
    "▁Бы": 25671,
    "▁expression": 4603,
    "Index": 3220,
    "▁coup": 17103,
    "?.": 9808,
    "▁richt": 28636,
    "▁Result": 7867,
    "▁Einz": 5624,
    "WIN": 25152,
    "▁система": 29184,
    "<0x32>": 53,
    "▁sust": 15075,
    "LIC": 27888,
    "▁было": 8573,
    "aus": 1485,
    "Mobile": 29295,
    "дент": 18324,
    "▁Rec": 3599,
    "ént": 29463,
    "▁jou": 8121,
    "тература": 12261,
    "connected": 18045,
    "究": 31455,
    "ständ": 11503,
    "encia": 5760,
    "▁oracle": 17919,
    "▁precip": 25720,
    "▁conference": 21362,
    "▁geldig": 11518,
    "▁Petersburg": 29675,
    "▁Switzerland": 28806,
    "击": 31768,
    "▁moreover": 25409,
    "вать": 24058,
    "▁Places": 23178,
    "Graph": 9527,
    "Identifier": 12889,
    "▁terms": 4958,
    "▁Gl": 8467,
    "était": 14386,
    "rw": 13975,
    "▁Pol": 2043,
    "<0x51>": 84,
    "<0xE6>": 233,
    "athon": 25206,
    "▁visited": 16669,
    "大": 30257,
    "▁intermediate": 19697,
    "▁authors": 15717,
    "ỳ": 31842,
    "▁Sverige": 24878,
    "服": 31520,
    "▁ries": 28201,
    "bed": 2580,
    "bn": 11197,
    "▁Corporation": 15025,
    "LIST": 24360,
    "▁Palmarès": 22317,
    "▁OK": 9280,
    "='": 2433,
    "if": 361,
    "▁ti": 19538,
    "▁rare": 10812,
    "ча": 1282,
    "force": 10118,
    "äsident": 14498,
    "茶": 31954,
    "<0xC6>": 201,
    "illa": 2911,
    "PropertyChanged": 29109,
    "лен": 2510,
    "▁----": 23250,
    "ActivityThread": 15746,
    "tot": 4260,
    "vet": 5990,
    "icks": 7358,
    "Serial": 9125,
    "▁För": 17555,
    "yk": 12072,
    "▁ple": 5644,
    "▁Ph": 1963,
    "▁primary": 7601,
    "▁social": 5264,
    "Έ": 31873,
    "▁î": 2961,
    "▁June": 5306,
    "<0x72>": 117,
    "▁Pacific": 14328,
    "▁benefit": 14169,
    "▁temperature": 10430,
    "ի": 30472,
    "block": 1271,
    "sdl": 29222,
    "▁faith": 10847,
    "▁canon": 15355,
    "▁rem": 1083,
    "▁Mans": 20594,
    "jk": 25467,
    "ос": 3264,
    "▁realiz": 8869,
    "▁ottobre": 18395,
    "aches": 14520,
    "▁народ": 14528,
    "══": 13648,
    "▁га": 8203,
    "▁clothes": 22095,
    "▁relationships": 21702,
    ",’": 18887,
    "▁posit": 13686,
    "▁Hermann": 18033,
    "ids": 4841,
    "▁ос": 3894,
    "▁\"\",": 12633,
    "▁amaz": 21863,
    "Changed": 7590,
    "▁starts": 8665,
    "▁permission": 10751,
    "▁keys": 6611,
    "▁NSString": 15925,
    "Portail": 2639,
    "▁mesmo": 20661,
    "▁å": 9174,
    "▁después": 11006,
    "cie": 5295,
    "ктиче": 28616,
    "wer": 556,
    "ânt": 21847,
    "▁DDR": 21901,
    "▁ihr": 5351,
    "▁tap": 18751,
    "▁alcune": 26591,
    "▁[];": 13769,
    "▁Kub": 29024,
    "▁idle": 28132,
    "▁forming": 25391,
    "▁Offic": 20339,
    "原": 30667,
    "▁ess": 3686,
    "msdn": 8319,
    "DEFAULT": 23397,
    "edu": 6085,
    "▁precise": 18378,
    "▁triumph": 24124,
    "Jack": 27006,
    "▁um": 1922,
    "weis": 13046,
    "▁annot": 9732,
    "▁Pe": 3938,
    "▁нау": 7956,
    "▁sap": 21672,
    "▁drum": 24103,
    "▁Schauspieler": 19002,
    "verse": 3901,
    "▁diciembre": 9060,
    "▁eigen": 7388,
    "esters": 28910,
    "▁ahead": 14432,
    "com": 510,
    "▁printer": 23028,
    "atoire": 20141,
    "▁Mira": 29422,
    "▁col": 784,
    "entre": 14056,
    "Begin": 17946,
    "▁q": 3855,
    "▁Boys": 22148,
    "▁energ": 18190,
    "▁gradu": 10591,
    "▁Tok": 11890,
    "ńskim": 29752,
    "ests": 9197,
    "▁personnel": 24127,
    "▁Constitution": 20063,
    "▁begann": 16019,
    "シ": 30373,
    "guez": 26057,
    "▁bapt": 27257,
    "ourd": 14069,
    "▁infrastr": 22035,
    "▁Professor": 11386,
    "imedia": 3393,
    "Phone": 9861,
    "▁\":": 29242,
    "▁indicates": 14088,
    "数": 30354,
    "▁dob": 20129,
    "lauf": 14844,
    "▁behave": 23389,
    "▁guest": 17838,
    "yard": 19852,
    "▁May": 2610,
    "▁apt": 10882,
    "▁\\[": 5539,
    "pan": 8357,
    "Fun": 25394,
    "▁losing": 19035,
    "▁If": 960,
    "xa": 17367,
    "▁orientation": 19843,
    "▁features": 5680,
    "reshold": 12268,
    "mt": 4378,
    "season": 25682,
    "iast": 15736,
    "▁attra": 19650,
    "▁beim": 10005,
    "house": 8697,
    "ella": 3547,
    "▁pół": 21232,
    "▁kept": 8126,
    "leben": 25434,
    "▁appart": 25479,
    "そ": 31110,
    "ec": 687,
    "▁erhielt": 14312,
    "érique": 20600,
    "ças": 19846,
    "▁hijo": 23737,
    "ལ": 31705,
    "▁britannique": 24843,
    "atie": 9474,
    "abor": 3717,
    "▁came": 2996,
    "ractor": 28891,
    "▁Zusammen": 18640,
    "▁documents": 10701,
    "▁predicted": 25383,
    "▁emot": 23023,
    "bounded": 29306,
    "timer": 20404,
    "▁hyper": 11266,
    "▁château": 20085,
    "▁Ohio": 15821,
    "▁=~": 16788,
    "▁Salvador": 22194,
    "ówn": 10973,
    "urable": 21115,
    "▁machines": 14884,
    "<'": 26717,
    "mutable": 23975,
    "▁\"{": 29850,
    "▁table": 1591,
    "▁suff": 9378,
    "▁ol": 13386,
    "▁star": 5810,
    "▁kle": 8188,
    "▁Century": 24027,
    "}%": 10560,
    "публи": 10862,
    "Integer": 7798,
    "▁dressed": 27121,
    "verso": 25175,
    "▁Variable": 28736,
    "Timestamp": 27939,
    "▁Мон": 23796,
    "▁Feuer": 29331,
    "▁Rails": 15144,
    "лови": 13339,
    "č": 30026,
    "quin": 24150,
    "▁consequence": 17004,
    "сну": 25729,
    "▁parser": 13812,
    "▁cultiv": 18834,
    "ług": 11800,
    "andis": 23922,
    "▁shell": 6473,
    "jet": 4026,
    "命": 31237,
    "ierno": 12643,
    "sound": 29802,
    "count": 2798,
    "▁spect": 6683,
    "▁Elis": 21279,
    "▁сві": 19853,
    "Store": 9044,
    "▁León": 25242,
    "▁furent": 24257,
    "cija": 26575,
    "▁sieben": 29447,
    "▁conduct": 7512,
    "▁derivative": 16291,
    "▁carry": 8677,
    "MQ": 25566,
    "▁gives": 4076,
    "▁reaction": 19848,
    "oit": 20252,
    "lán": 15527,
    "react": 8423,
    "▁evolution": 14675,
    "ця": 10264,
    "▁val": 659,
    "▁Kaz": 15198,
    "▁Train": 28186,
    "▁Ос": 11274,
    "▁mism": 21436,
    "менталь": 29810,
    "经": 31412,
    "▁infin": 8275,
    "quet": 12621,
    "▁quatre": 12134,
    "▁Бар": 20730,
    "▁muss": 23885,
    "vez": 13325,
    "▁FB": 28816,
    "▁deriv": 7750,
    "<0xA6>": 169,
    "▁existe": 19947,
    "▁zoo": 22424,
    "▁fonction": 18165,
    "▁nog": 11313,
    "▁comand": 20112,
    "Am": 6833,
    "ṣ": 30390,
    "▁galaxies": 25494,
    "▁series": 3652,
    "isme": 6386,
    "zed": 24688,
    "arus": 26465,
    "ето": 25930,
    "▁clubs": 17651,
    "▁Private": 12230,
    "lee": 17179,
    "เ": 30401,
    "тен": 12087,
    "▁Primera": 22915,
    ")--(": 25062,
    "▁Aw": 22886,
    "owana": 25880,
    "▁totalité": 22777,
    "▁consumption": 27430,
    "pop": 7323,
    "▁Mod": 3382,
    "▁Williams": 11648,
    "▁Three": 12753,
    "ancouver": 29711,
    "▁fa": 2258,
    "oris": 29367,
    "▁candid": 7105,
    "▁graphs": 18445,
    "▁den": 972,
    "umble": 15563,
    "▁Status": 16034,
    "AF": 5098,
    "ṅ": 31397,
    "▁ek": 14921,
    "ir": 381,
    "▁Europ": 6032,
    "▁вопро": 29309,
    "що": 4851,
    "▁chain": 9704,
    "text": 726,
    "을": 31286,
    "boBox": 17801,
    "▁буду": 22770,
    "▁CG": 8446,
    "▁Ser": 1816,
    "temper": 12863,
    "▁террито": 15365,
    "▁clés": 25766,
    "▁zunächst": 16891,
    "�": 30140,
    "kb": 21066,
    "▁strings": 6031,
    "▁smoke": 25158,
    "▁Sint": 28889,
    ">>": 6778,
    "》": 30843,
    "ivil": 5341,
    "/%": 22584,
    "▁Specific": 21220,
    "▁formally": 28269,
    "слен": 21335,
    "▁fraction": 15958,
    "*/": 3877,
    "urg": 2007,
    "▁producción": 28083,
    "പ": 30707,
    "▁pov": 16545,
    "▁wait": 4480,
    "▁Kreis": 17254,
    "---": 5634,
    "Rel": 9662,
    "▁Ellen": 29043,
    "▁человека": 25452,
    "▁cr": 2181,
    "Stats": 25060,
    "▁memor": 26959,
    "ými": 25788,
    "▁Planet": 20540,
    "ulator": 9183,
    "▁ре": 1909,
    "вали": 8374,
    "▁Education": 13151,
    "wx": 23310,
    "▁Ty": 9656,
    "▁maybe": 5505,
    "▁suspect": 12326,
    "ª": 30135,
    "▁впер": 26519,
    "lein": 24434,
    "raw": 1610,
    "ש": 30294,
    "ję": 10274,
    "▁perform": 2189,
    "▁occas": 14882,
    "件": 30631,
    "unto": 12578,
    "▁für": 1865,
    "▁center": 4818,
    "▁perturb": 22786,
    "▁eastern": 18632,
    "▁Ab": 1976,
    "+=": 23661,
    "▁Even": 7753,
    "▁Нов": 27527,
    "▁Harm": 28804,
    "▁насељу": 22011,
    "lymp": 4960,
    "▁sierpnia": 27124,
    "¹": 30193,
    "▁suppress": 21301,
    "屋": 31654,
    "lb": 27728,
    "Definition": 14683,
    "及": 31436,
    "sequ": 6831,
    "▁Vien": 20003,
    "▁poč": 23713,
    "▁nello": 26136,
    "▁ти": 7109,
    "▁correlation": 19869,
    "▁sons": 18025,
    "▁Frankreich": 22253,
    "▁Put": 12065,
    "▁ва": 8935,
    "▁філь": 29146,
    "▁past": 4940,
    "More": 20761,
    "▁Sy": 8713,
    "рис": 19625,
    "жду": 8784,
    "igner": 21216,
    "▁card": 5881,
    "ват": 12993,
    "ждан": 22766,
    "▁обще": 11471,
    "▁inspir": 23459,
    "ientras": 15054,
    "▁shown": 4318,
    "▁rich": 8261,
    "▁гла": 17585,
    "ites": 3246,
    "▁installed": 5130,
    "▁verbose": 26952,
    "▁ep": 9358,
    "unk": 2960,
    "ah": 801,
    "ս": 30881,
    "▁contained": 11122,
    "▁News": 10130,
    "▁ace": 21643,
    "ография": 11523,
    "▁botan": 24662,
    "▁Станов": 17835,
    "▁Linux": 8074,
    "functions": 12171,
    "iger": 4087,
    "CCE": 19043,
    "▁octobre": 9419,
    "▁gdzie": 23104,
    "мии": 11085,
    "»)": 19031,
    "▁siè": 6476,
    "▁laid": 12341,
    "▁curr": 16256,
    "bag": 23156,
    "،": 31116,
    "▁conventional": 28557,
    "gresql": 16153,
    "▁doctor": 11619,
    "reflect": 13191,
    "▁constructor": 5823,
    "▁declar": 7669,
    "▁jun": 4707,
    "▁то": 2721,
    "▁west": 5833,
    "▁Short": 13899,
    "▁др": 9433,
    "▁Dragon": 24339,
    "▁Orth": 23757,
    "▁Prozent": 27163,
    "হ": 31717,
    "▁exec": 2279,
    "▁estadounidense": 18995,
    "野": 30661,
    "пи": 1668,
    "▁fasc": 21028,
    "babel": 28727,
    "▁magistr": 29102,
    "cv": 11023,
    "▁Externí": 17981,
    "▁regnigaste": 28653,
    "▁existed": 22856,
    "▁Nad": 18496,
    "lungen": 25250,
    "▁aos": 21405,
    "multirow": 28570,
    "othy": 20336,
    "resolve": 17863,
    "just": 5143,
    "ik": 638,
    "Internet": 26341,
    "▁including": 3704,
    "무": 31716,
    "▁Associ": 6853,
    "▁negoti": 27214,
    "▁ucz": 25631,
    "▁Advanced": 29287,
    "▁Kommun": 20878,
    "▁raz": 8006,
    "avant": 26608,
    "andon": 9214,
    "▁réalis": 12036,
    "▁Secretary": 17719,
    "▁).": 13742,
    "ermeister": 23282,
    "Er": 2110,
    "BeanFactory": 24793,
    "▁fille": 18003,
    "店": 31758,
    "▁Storage": 26162,
    "▁maven": 18304,
    "mac": 8628,
    "Section": 13438,
    "▁listop": 18262,
    "tml": 2871,
    "frent": 27380,
    "▁куль": 12960,
    "ituto": 21059,
    "神": 30648,
    "actory": 3832,
    "ม": 30501,
    "▁округа": 26042,
    "bt": 3116,
    "жение": 11567,
    "▁Back": 7437,
    "▁Zeitung": 23814,
    "ríguez": 26415,
    "▁тако": 8826,
    "▁ly": 21261,
    "▁Mou": 29075,
    "▁commanded": 26540,
    "warning": 27392,
    "pom": 29533,
    "chn": 3049,
    "кро": 25041,
    "das": 17370,
    "document": 3225,
    "▁vor": 3764,
    "▁council": 18701,
    "▁^": 6228,
    "▁bishop": 26201,
    "▁conditions": 5855,
    "▁set": 731,
    "By": 2059,
    "▁Gew": 14412,
    "▁München": 10864,
    "▁verk": 13268,
    "▁wishes": 28688,
    "▁verz": 23457,
    "dt": 6008,
    "▁Mitch": 21190,
    "▁critical": 12187,
    "ignation": 25072,
    "▁unnecess": 17128,
    "▁sobre": 4166,
    "ounter": 5336,
    "▁tem": 1350,
    "没": 31423,
    "▁markers": 29320,
    "▁TO": 7495,
    "▁Mid": 13370,
    "▁Dir": 19378,
    "dataset": 24713,
    "▁mich": 21488,
    "▁ту": 12998,
    "▁run": 1065,
    "Clear": 18759,
    "<0x98>": 155,
    "urls": 26045,
    "kin": 9089,
    "▁google": 5386,
    "▁Anthony": 16477,
    "ency": 3819,
    "▁glob": 13149,
    "▁fade": 28747,
    "Expand": 29777,
    "egov": 27652,
    "щё": 18141,
    "software": 20415,
    "<0x6E>": 113,
    "A": 29909,
    "Null": 7327,
    "▁Ż": 14589,
    "ulsion": 25381,
    "роме": 23042,
    "▁Lomb": 24869,
    "▁actu": 20331,
    "▁Red": 4367,
    "select": 2622,
    "ED": 3352,
    "added": 23959,
    "ket": 7873,
    "▁squ": 10674,
    "▁List": 2391,
    "▁świat": 27713,
    "▁repet": 21159,
    "ab": 370,
    "loor": 10102,
    "▁crew": 17616,
    "▁Ful": 23004,
    "nav": 6654,
    "▁Fritz": 22839,
    "================": 9166,
    "▁cele": 7793,
    "▁Référence": 12152,
    "▁fly": 11340,
    "Parser": 11726,
    "昭": 31912,
    "ུ": 31601,
    "▁Pie": 26005,
    "▁vida": 10828,
    "igt": 5523,
    "▀": 30676,
    "/**": 7918,
    "▁CSS": 6783,
    "▁Then": 1987,
    "коно": 13335,
    "loader": 12657,
    "▁step": 4331,
    "▁await": 7272,
    "ály": 7837,
    "‍": 30722,
    "unque": 11246,
    "▁baby": 24354,
    "сня": 20703,
    "▁separator": 28128,
    "═": 30114,
    "regex": 13087,
    "wohl": 29300,
    "stab": 29256,
    "ved": 1490,
    "ibe": 18673,
    "▁brief": 11473,
    "ocr": 8415,
    "▁without": 1728,
    "Account": 10601,
    "▁derived": 10723,
    "▁Chart": 14477,
    "pool": 10109,
    "èrent": 13546,
    "iras": 20138,
    "▁WM": 29783,
    "▁resist": 9241,
    "█": 30208,
    "⌘": 31418,
    "may": 13029,
    "iddle": 2632,
    "▁Pennsylvan": 15720,
    "ublic": 803,
    "▁ber": 7655,
    "фици": 28101,
    "വ": 30800,
    "▁transformed": 27615,
    "▁rs": 20371,
    "atomic": 21641,
    "Lo": 3410,
    "itut": 12937,
    "▁früher": 27509,
    "▁patients": 22069,
    "▁loaded": 7500,
    "нення": 22189,
    "▁pointed": 11520,
    "▁pyg": 19484,
    "▁Przypisy": 20645,
    "ultimo": 26752,
    "▁polym": 24324,
    "▁owner": 12271,
    "ပ": 31775,
    "▁Matthew": 22292,
    "▁hizo": 22598,
    "blic": 4729,
    "orld": 1613,
    "été": 7342,
    "▁electronic": 27758,
    "▁pover": 25273,
    "/#": 8484,
    "▁misunder": 19818,
    "▁finds": 14061,
    "retto": 21161,
    "ount": 792,
    "▁minist": 9668,
    "ounced": 20979,
    "▁One": 3118,
    "uing": 26420,
    "▁chars": 22524,
    "ръ": 19003,
    "▁Market": 28794,
    "kernel": 17460,
    "田": 30395,
    "isce": 17438,
    "▁Field": 8989,
    "comot": 23045,
    "∆": 31576,
    "camera": 26065,
    "▁Race": 23613,
    "▁pull": 8206,
    "▁voix": 22759,
    "▁camera": 10656,
    "▁kap": 10494,
    "<>": 25299,
    "▁награ": 21295,
    "ISBN": 8587,
    "orge": 3890,
    "aye": 15802,
    "▁tant": 11172,
    "pers": 6774,
    "▁independently": 25499,
    "includes": 24572,
    "▁mole": 13206,
    "riction": 19902,
    "▁connect": 4511,
    "oval": 10611,
    "▁Area": 18320,
    "mark": 3502,
    "hole": 29716,
    "вое": 18072,
    "▁effective": 11828,
    "▁Buddh": 28234,
    "ifolia": 28963,
    "▁profess": 25718,
    "random": 8172,
    "Ф": 30061,
    "wick": 6669,
    "▁Qual": 15146,
    "дови": 28708,
    "▁permitted": 21905,
    "pto": 24070,
    "▁ша": 16844,
    "▁peint": 16868,
    "operation": 16453,
    "▁Perl": 23907,
    "▁Sum": 6991,
    "▁decode": 21822,
    "скус": 18590,
    "▁Player": 14574,
    "Err": 19212,
    "▁сту": 13224,
    "▁nose": 26414,
    "▁utilisé": 28643,
    "▁Hus": 24287,
    "ARCHAR": 15364,
    "ph": 561,
    "Conf": 16376,
    "▁Mario": 16262,
    "リ": 30303,
    "▁adds": 12778,
    "▁proport": 12098,
    "▁bezeichnet": 11138,
    "scroll": 10510,
    "ῥ": 31332,
    "▁plans": 13900,
    "<0xD8>": 219,
    "▁functional": 13303,
    "Mapp": 9689,
    "nings": 11753,
    "bez": 15325,
    "▁attract": 13978,
    "▁Model": 8125,
    "▁Visual": 9249,
    "▁pleased": 22301,
    "że": 6301,
    "▁компа": 16944,
    "▁On": 1551,
    "▁beach": 25695,
    ")_{": 20439,
    "▁calculating": 25202,
    "TP": 3557,
    "Background": 10581,
    "umar": 24540,
    "Deb": 10251,
    "oe": 7297,
    "▁Kin": 20311,
    "▁épisode": 28406,
    "Warning": 22709,
    "▁JVM": 26919,
    "▁vir": 10636,
    "▁все": 6495,
    "▁pró": 14646,
    "achine": 2945,
    "▁interpretation": 19854,
    "stadt": 9516,
    "▁Info": 22140,
    "zeichnung": 21112,
    "▁Campeonato": 17660,
    "▁tail": 12464,
    "": 30469,
    "▁Dre": 19155,
    "ým": 10280,
    "ul": 352,
    "▁fort": 5162,
    "▁Sem": 9444,
    "▁theatre": 24520,
    "endif": 15224,
    "ribute": 2666,
    "}[": 4400,
    "oce": 25802,
    "стов": 10148,
    "▁virt": 4610,
    "▁journalist": 24452,
    "▁reflect": 9432,
    "▁Pfarr": 23593,
    "控": 31617,
    "▁concurrent": 21984,
    "notification": 24671,
    "ytu": 20588,
    "▁expose": 24396,
    "рами": 18731,
    "▁Rich": 4385,
    "▁François": 13645,
    "extension": 17588,
    "izontal": 7731,
    "унк": 13937,
    "icación": 29009,
    "▁dedicated": 16955,
    "Have": 25559,
    "▁Fif": 29008,
    "citet": 17112,
    "实": 31195,
    "Ac": 10644,
    "cla": 16398,
    "ʑ": 31670,
    "Score": 20097,
    "마": 31417,
    "世": 30793,
    "wiąz": 19652,
    "▁прод": 24678,
    "▁mise": 16987,
    "▁ss": 17971,
    "▁долж": 19611,
    "▁rit": 10421,
    "▁fol": 900,
    "etwork": 2647,
    "▁proceeded": 24825,
    "](#)": 16733,
    "▁camp": 4242,
    "arth": 28696,
    "first": 4102,
    "ை": 31428,
    "].": 1822,
    "équ": 21871,
    "android": 2843,
    "▁Rel": 6376,
    "▁suo": 5324,
    "mathsf": 9605,
    "▁exactly": 3721,
    "▁O": 438,
    "acle": 6436,
    "▁Recht": 26257,
    "äll": 8048,
    "▁nous": 8556,
    "▁littérature": 27940,
    "▁Compos": 24497,
    "icrosoft": 2995,
    "▁maggior": 22159,
    "прия": 22346,
    "onn": 3409,
    "▁Medien": 25837,
    "▁requested": 13877,
    "▁methods": 3519,
    "▁hij": 4147,
    "Pol": 7713,
    "vare": 5280,
    "dade": 25372,
    "▁az": 2698,
    "▁beg": 1812,
    "▁dass": 5511,
    "',\r": 23592,
    "▁PA": 17687,
    "£": 30155,
    "ält": 10905,
    "▁newer": 20687,
    "▁Atlanta": 26484,
    "▁clear": 2821,
    "▁servi": 27299,
    "▁statt": 15741,
    "∷": 31766,
    "▁Little": 11143,
    "▁languages": 10276,
    "▁Fon": 28724,
    "▁LL": 27624,
    "▁free": 3889,
    "elle": 1808,
    "▁coll": 5321,
    "ress": 1253,
    "ɛ": 30234,
    "stellung": 11550,
    "▁аль": 12668,
    "▁Folge": 18587,
    "ях": 13053,
    "зи": 1916,
    "Game": 14199,
    "▁plugins": 18224,
    "▁unnecessary": 19039,
    "▁circle": 8607,
    "ppa": 13410,
    "▁doubles": 27641,
    "▁indul": 29156,
    "бу": 3378,
    "▁cura": 24725,
    "▁alcuni": 19344,
    "▁Д": 1453,
    "lande": 28328,
    "rs": 2288,
    "Ty": 21314,
    "▁papel": 23953,
    "▁Giovanni": 12874,
    "▁разли": 16481,
    "▁Error": 4829,
    "▁przez": 7559,
    "▁Diego": 16879,
    "hidden": 10892,
    "▁enfor": 24555,
    "▁general": 2498,
    "▁randomly": 20459,
    "▁md": 22821,
    "▁dated": 29797,
    "skog": 24686,
    "▁communauté": 28812,
    "}\\": 1012,
    "itor": 2105,
    "ほ": 31938,
    "udni": 25113,
    "рус": 16007,
    "▁King": 4088,
    "initialize": 24926,
    "▁promotion": 22360,
    "▁langue": 25407,
    "scher": 19996,
    "▁win": 5401,
    "▁reverse": 11837,
    "▁Cole": 16816,
    "▁advance": 6564,
    "▁Ron": 11546,
    "stvo": 26225,
    "bd": 6448,
    "bil": 18152,
    "▁metres": 17963,
    "▁attachment": 26305,
    "̀": 30712,
    "▁után": 21949,
    "▁cloth": 13950,
    "▁Gemeinde": 8662,
    "▁cha": 10329,
    "也": 30953,
    "▁}\\": 17704,
    "▁transformations": 29304,
    "fass": 19874,
    "▁candidate": 14020,
    "ois": 11505,
    "▁стату": 24692,
    "▁Wie": 18656,
    "夫": 31176,
    "ega": 2442,
    "ividual": 23352,
    "isEmpty": 24326,
    "érica": 10820,
    ".”": 3178,
    "orem": 3668,
    "------": 22158,
    "WebView": 23237,
    "цен": 14236,
    "▁часто": 23020,
    "дии": 16268,
    "ügel": 25146,
    "Multi": 15329,
    "ǔ": 30730,
    "vider": 5489,
    "▁batal": 21033,
    "Typ": 24933,
    "Sender": 29615,
    "▁пр": 12781,
    "▁музе": 29133,
    ")},": 19230,
    "ま": 30441,
    "▁hero": 13444,
    "COL": 15032,
    "▁Float": 27842,
    "icago": 9384,
    "▁Ich": 15158,
    "complete": 8835,
    "▁determin": 11806,
    "izzato": 19280,
    "▁Histoire": 13597,
    "anze": 22668,
    "fade": 21675,
    "▁primi": 25877,
    "nio": 17592,
    "ек": 3506,
    "ът": 15541,
    "ција": 18388,
    "atable": 17219,
    "lict": 29176,
    "▁Eg": 14304,
    "links": 4965,
    "▁Are": 4683,
    "▁dirig": 10487,
    "▁Upon": 19956,
    "iveness": 20193,
    "线": 31532,
    "▁Stockholm": 17920,
    "▁ambos": 27727,
    "标": 31062,
    "Mo": 22638,
    "▁Virgin": 9167,
    "▁mí": 26756,
    "▁Saison": 11873,
    "▁Roberto": 21739,
    "氏": 31052,
    "▁single": 2323,
    "▁Kirchen": 20574,
    "▁autom": 3345,
    "▁tar": 9913,
    "EL": 6670,
    "oren": 8085,
    "▁./": 11431,
    "Init": 6644,
    "ћа": 20181,
    "▁reliable": 23279,
    "theme": 18193,
    "▁techni": 7304,
    "zioni": 13437,
    "▁Times": 10277,
    "▁Benjamin": 20212,
    "ⁿ": 31499,
    "lin": 1915,
    "▁inline": 10583,
    "Interceptor": 24923,
    "placeholder": 27074,
    "▁communes": 11984,
    "▁indirect": 26377,
    "▁Об": 12501,
    "▁\\|": 12926,
    "如": 30847,
    "▁exercise": 15058,
    "atabase": 3223,
    "▁pause": 19957,
    "nb": 9877,
    "║": 30246,
    "▁Mas": 8622,
    "▁tin": 27773,
    "▁bless": 17065,
    "▁Plat": 27201,
    "▁Jones": 10920,
    "Select": 3549,
    "▁terre": 18249,
    "ász": 15995,
    "Group": 4782,
    "Country": 20779,
    "터": 31856,
    "iu": 5871,
    "ske": 26050,
    "▁WorldCat": 13293,
    "Æ": 30232,
    "▁Height": 22907,
    "ôt": 9373,
    "▁classific": 20670,
    "▁Gard": 15971,
    "▁situated": 24046,
    "▁vitt": 19761,
    "pay": 10472,
    "▁generates": 16785,
    "men": 1527,
    "▁Florida": 13813,
    "rott": 26970,
    "▁extend": 10985,
    "▁unterschied": 26802,
    "ũ": 31105,
    "▁PRO": 13756,
    "▁particip": 5221,
    "\");\r": 18584,
    "▁doesn": 1838,
    "chat": 13496,
    "▁Belle": 22228,
    "aught": 6482,
    "▁Eth": 13772,
    ")})": 26972,
    "Alex": 17406,
    "▁interpreter": 26997,
    "▁segunda": 17329,
    "▁traject": 23324,
    "ources": 2863,
    "▁woll": 27007,
    "հ": 31488,
    "▁Non": 10050,
    "▁город": 12816,
    "ud": 566,
    "▁bean": 17796,
    "▁expect": 2149,
    "Pane": 13683,
    "▁days": 3841,
    "▁select": 1831,
    "▁NAS": 16938,
    "emeinde": 6861,
    "ً": 31880,
    "торы": 5090,
    "▁bunch": 14928,
    "▁injection": 20859,
    "zott": 29730,
    "告": 31785,
    "▁reun": 23038,
    "рал": 12454,
    "程": 31101,
    "geordnet": 20557,
    "ails": 2234,
    "ору": 18968,
    "▁Sund": 12009,
    "лка": 16166,
    "features": 22100,
    "▁software": 7047,
    "▁GmbH": 18156,
    "Var": 9037,
    "ók": 15948,
    "çon": 15529,
    "▁pobla": 9236,
    "才": 31979,
    "@": 29992,
    "}$-": 23021,
    "▁alive": 18758,
    "bone": 15933,
    "▁leader": 11822,
    "▁Sand": 8564,
    "enced": 9223,
    "joint": 12090,
    "станов": 10704,
    "▁logical": 16667,
    "ára": 14684,
    "▁grant": 16690,
    "▁sty": 15877,
    "▁keep": 3013,
    "agin": 26584,
    "Split": 18772,
    "▁nel": 2032,
    "reading": 19715,
    "▁fellow": 10404,
    "width": 2103,
    "▁Bool": 18912,
    "лав": 5206,
    "▁pit": 22754,
    "ческая": 25656,
    "▁anyway": 8763,
    "创": 31441,
    "remark": 26294,
    "▁nas": 8281,
    "anson": 16307,
    "▁альбо": 25805,
    "▁profil": 20077,
    "ნ": 30632,
    "▁rodz": 17453,
    "Memory": 16015,
    ".'": 6169,
    "▁atte": 21609,
    "▁als": 1620,
    "sender": 15452,
    "▁Ki": 16540,
    "▁green": 7933,
    "▁tensorflow": 26110,
    "iii": 25609,
    "は": 30449,
    "▁kol": 14276,
    "avy": 5301,
    "лення": 6930,
    "▁souvent": 18484,
    "▁броја": 25564,
    "ĉ": 31431,
    "riere": 15920,
    "enska": 24958,
    "Media": 10572,
    "▁Create": 6204,
    "sem": 12846,
    "▁niemieck": 27417,
    "▁mount": 5766,
    "▁Real": 8195,
    "romagnet": 26097,
    "▁Cook": 17278,
    "▁ave": 8992,
    "▁della": 2005,
[...]
